<unk>	0
<s>	0
</s>	0
<X_READ>	0
<Y_INDEX>	0
<A_ASK>	0
<Z_RECEIVE>	0
an-author	0
london-fox	0
glyph-marrow	0
phillip-bafflemint	0
jacklyn-variance	0
oren-progresso	0
old-natalie	0
princhetta	0
cop-e-right	0
new-natalie	0
arieol-owlist	0
jack-parlance	0
manny-valentinas	0
shamrock-stillman	0
todd-fishbone	0
the-author	0
<0x00>	0
<0x01>	0
<0x02>	0
<0x03>	0
<0x04>	0
<0x05>	0
<0x06>	0
<0x07>	0
<0x08>	0
<0x09>	0
<0x0A>	0
<0x0B>	0
<0x0C>	0
<0x0D>	0
<0x0E>	0
<0x0F>	0
<0x10>	0
<0x11>	0
<0x12>	0
<0x13>	0
<0x14>	0
<0x15>	0
<0x16>	0
<0x17>	0
<0x18>	0
<0x19>	0
<0x1A>	0
<0x1B>	0
<0x1C>	0
<0x1D>	0
<0x1E>	0
<0x1F>	0
<0x20>	0
<0x21>	0
<0x22>	0
<0x23>	0
<0x24>	0
<0x25>	0
<0x26>	0
<0x27>	0
<0x28>	0
<0x29>	0
<0x2A>	0
<0x2B>	0
<0x2C>	0
<0x2D>	0
<0x2E>	0
<0x2F>	0
<0x30>	0
<0x31>	0
<0x32>	0
<0x33>	0
<0x34>	0
<0x35>	0
<0x36>	0
<0x37>	0
<0x38>	0
<0x39>	0
<0x3A>	0
<0x3B>	0
<0x3C>	0
<0x3D>	0
<0x3E>	0
<0x3F>	0
<0x40>	0
<0x41>	0
<0x42>	0
<0x43>	0
<0x44>	0
<0x45>	0
<0x46>	0
<0x47>	0
<0x48>	0
<0x49>	0
<0x4A>	0
<0x4B>	0
<0x4C>	0
<0x4D>	0
<0x4E>	0
<0x4F>	0
<0x50>	0
<0x51>	0
<0x52>	0
<0x53>	0
<0x54>	0
<0x55>	0
<0x56>	0
<0x57>	0
<0x58>	0
<0x59>	0
<0x5A>	0
<0x5B>	0
<0x5C>	0
<0x5D>	0
<0x5E>	0
<0x5F>	0
<0x60>	0
<0x61>	0
<0x62>	0
<0x63>	0
<0x64>	0
<0x65>	0
<0x66>	0
<0x67>	0
<0x68>	0
<0x69>	0
<0x6A>	0
<0x6B>	0
<0x6C>	0
<0x6D>	0
<0x6E>	0
<0x6F>	0
<0x70>	0
<0x71>	0
<0x72>	0
<0x73>	0
<0x74>	0
<0x75>	0
<0x76>	0
<0x77>	0
<0x78>	0
<0x79>	0
<0x7A>	0
<0x7B>	0
<0x7C>	0
<0x7D>	0
<0x7E>	0
<0x7F>	0
<0x80>	0
<0x81>	0
<0x82>	0
<0x83>	0
<0x84>	0
<0x85>	0
<0x86>	0
<0x87>	0
<0x88>	0
<0x89>	0
<0x8A>	0
<0x8B>	0
<0x8C>	0
<0x8D>	0
<0x8E>	0
<0x8F>	0
<0x90>	0
<0x91>	0
<0x92>	0
<0x93>	0
<0x94>	0
<0x95>	0
<0x96>	0
<0x97>	0
<0x98>	0
<0x99>	0
<0x9A>	0
<0x9B>	0
<0x9C>	0
<0x9D>	0
<0x9E>	0
<0x9F>	0
<0xA0>	0
<0xA1>	0
<0xA2>	0
<0xA3>	0
<0xA4>	0
<0xA5>	0
<0xA6>	0
<0xA7>	0
<0xA8>	0
<0xA9>	0
<0xAA>	0
<0xAB>	0
<0xAC>	0
<0xAD>	0
<0xAE>	0
<0xAF>	0
<0xB0>	0
<0xB1>	0
<0xB2>	0
<0xB3>	0
<0xB4>	0
<0xB5>	0
<0xB6>	0
<0xB7>	0
<0xB8>	0
<0xB9>	0
<0xBA>	0
<0xBB>	0
<0xBC>	0
<0xBD>	0
<0xBE>	0
<0xBF>	0
<0xC0>	0
<0xC1>	0
<0xC2>	0
<0xC3>	0
<0xC4>	0
<0xC5>	0
<0xC6>	0
<0xC7>	0
<0xC8>	0
<0xC9>	0
<0xCA>	0
<0xCB>	0
<0xCC>	0
<0xCD>	0
<0xCE>	0
<0xCF>	0
<0xD0>	0
<0xD1>	0
<0xD2>	0
<0xD3>	0
<0xD4>	0
<0xD5>	0
<0xD6>	0
<0xD7>	0
<0xD8>	0
<0xD9>	0
<0xDA>	0
<0xDB>	0
<0xDC>	0
<0xDD>	0
<0xDE>	0
<0xDF>	0
<0xE0>	0
<0xE1>	0
<0xE2>	0
<0xE3>	0
<0xE4>	0
<0xE5>	0
<0xE6>	0
<0xE7>	0
<0xE8>	0
<0xE9>	0
<0xEA>	0
<0xEB>	0
<0xEC>	0
<0xED>	0
<0xEE>	0
<0xEF>	0
<0xF0>	0
<0xF1>	0
<0xF2>	0
<0xF3>	0
<0xF4>	0
<0xF5>	0
<0xF6>	0
<0xF7>	0
<0xF8>	0
<0xF9>	0
<0xFA>	0
<0xFB>	0
<0xFC>	0
<0xFD>	0
<0xFE>	0
<0xFF>	0
▁t	-0
he	-1
▁a	-2
in	-3
▁the	-4
▁o	-5
re	-6
▁s	-7
▁w	-8
at	-9
it	-10
ing	-11
er	-12
nd	-13
▁c	-14
ou	-15
▁b	-16
en	-17
is	-18
on	-19
▁th	-20
▁to	-21
▁m	-22
es	-23
▁of	-24
▁f	-25
or	-26
ll	-27
▁h	-28
▁d	-29
ed	-30
an	-31
▁l	-32
ar	-33
▁p	-34
▁and	-35
as	-36
▁e	-37
▁in	-38
▁be	-39
▁it	-40
ic	-41
▁I	-42
▁n	-43
se	-44
al	-45
om	-46
ut	-47
▁T	-48
st	-49
▁that	-50
ve	-51
▁he	-52
▁re	-53
ion	-54
ot	-55
▁y	-56
ow	-57
ay	-58
▁A	-59
ct	-60
ly	-61
▁g	-62
im	-63
ent	-64
et	-65
▁wh	-66
▁you	-67
id	-68
le	-69
ld	-70
ad	-71
ver	-72
▁is	-73
▁The	-74
▁on	-75
ce	-76
▁an	-77
ke	-78
gh	-79
▁st	-80
▁u	-81
▁li	-82
▁as	-83
ir	-84
ith	-85
▁this	-86
ch	-87
▁was	-88
▁with	-89
ri	-90
▁for	-91
ur	-92
all	-93
ro	-94
▁they	-95
▁we	-96
▁ha	-97
▁"	-98
▁con	-99
▁all	-100
ven	-101
ck	-102
▁or	-103
▁W	-104
ain	-105
▁G	-106
if	-107
am	-108
▁al	-109
▁not	-110
her	-111
▁su	-112
▁at	-113
pe	-114
▁do	-115
ould	-116
▁S	-117
▁like	-118
ter	-119
ore	-120
▁se	-121
il	-122
▁me	-123
ib	-124
ill	-125
sel	-126
▁H	-127
▁even	-128
oo	-129
ght	-130
ess	-131
ally	-132
ust	-133
ation	-134
▁so	-135
ome	-136
▁k	-137
▁ex	-138
▁them	-139
▁r	-140
ol	-141
▁B	-142
▁his	-143
▁int	-144
▁M	-145
▁And	-146
hing	-147
▁It	-148
▁what	-149
em	-150
▁j	-151
▁ab	-152
ect	-153
▁ne	-154
out	-155
ide	-156
▁are	-157
and	-158
ul	-159
▁but	-160
▁wor	-161
▁their	-162
ack	-163
▁ch	-164
▁sh	-165
ich	-166
▁tr	-167
▁P	-168
▁have	-169
ag	-170
▁one	-171
self	-172
ive	-173
▁can	-174
▁de	-175
▁which	-176
ough	-177
art	-178
▁Gib	-179
▁out	-180
▁kn	-181
▁fr	-182
▁le	-183
▁him	-184
ap	-185
ity	-186
ss	-187
▁had	-188
▁O	-189
ous	-190
▁just	-191
um	-192
act	-193
▁any	-194
way	-195
▁cont	-196
ure	-197
ate	-198
be	-199
ind	-200
▁whe	-201
ist	-202
ant	-203
▁He	-204
ers	-205
▁D	-206
▁if	-207
sey	-208
est	-209
ast	-210
el	-211
pp	-212
▁into	-213
▁about	-214
▁Th	-215
▁tim	-216
▁her	-217
▁know	-218
▁Gibsey	-219
▁They	-220
▁there	-221
▁up	-222
▁com	-223
▁pro	-224
one	-225
▁v	-226
ab	-227
▁ag	-228
▁from	-229
us	-230
▁may	-231
ig	-232
nt	-233
op	-234
ound	-235
ue	-236
ell	-237
▁my	-238
ther	-239
▁ever	-240
ard	-241
▁cl	-242
pt	-243
iz	-244
▁would	-245
▁C	-246
▁time	-247
▁been	-248
ies	-249
▁she	-250
▁some	-251
▁no	-252
king	-253
ves	-254
▁go	-255
▁un	-256
red	-257
▁pl	-258
▁po	-259
ance	-260
ated	-261
ie	-262
▁mo	-263
▁sc	-264
▁could	-265
uth	-266
▁has	-267
ip	-268
▁more	-269
ment	-270
ort	-271
▁by	-272
▁im	-273
."	-274
▁Y	-275
▁fe	-276
ca	-277
nder	-278
uthor	-279
ake	-280
qu	-281
ass	-282
▁such	-283
ace	-284
ame	-285
▁were	-286
▁within	-287
ways	-288
▁man	-289
ph	-290
ark	-291
▁sp	-292
▁N	-293
▁did	-294
ial	-295
ac	-296
ence	-297
▁who	-298
▁does	-299
▁fu	-300
▁back	-301
▁your	-302
▁But	-303
th	-304
▁rem	-305
▁being	-306
▁E	-307
omet	-308
▁thr	-309
wn	-310
?"	-311
lyph	-312
fe	-313
▁ar	-314
os	-315
▁dis	-316
▁always	-317
use	-318
ious	-319
ine	-320
▁will	-321
ight	-322
▁Glyph	-323
rie	-324
▁Wh	-325
ving	-326
▁You	-327
are	-328
own	-329
▁other	-330
ood	-331
od	-332
ice	-333
ory	-334
ite	-335
ater	-336
ical	-337
ang	-338
ink	-339
ook	-340
ep	-341
enc	-342
ting	-343
▁cre	-344
▁than	-345
▁somet	-346
▁don	-347
▁its	-348
▁thing	-349
▁through	-350
ong	-351
▁our	-352
ions	-353
ru	-354
▁how	-355
▁ride	-356
▁again	-357
pl	-358
gin	-359
ject	-360
▁own	-361
▁real	-362
▁Author	-363
▁ent	-364
fore	-365
▁maybe	-366
▁ob	-367
▁mean	-368
rieol	-369
▁gr	-370
▁itself	-371
ak	-372
▁Arieol	-373
per	-374
▁qu	-375
uch	-376
▁get	-377
▁something	-378
▁ver	-379
▁F	-380
so	-381
ber	-382
▁co	-383
ff	-384
og	-385
ten	-386
ress	-387
un	-388
▁ac	-389
▁much	-390
▁way	-391
vel	-392
▁word	-393
ud	-394
▁many	-395
▁when	-396
able	-397
▁over	-398
▁well	-399
our	-400
cause	-401
▁these	-402
int	-403
▁wr	-404
right	-405
ait	-406
▁us	-407
▁before	-408
mb	-409
▁fl	-410
ire	-411
▁bl	-412
▁every	-413
▁here	-414
thing	-415
▁also	-416
selves	-417
▁never	-418
▁think	-419
▁say	-420
ub	-421
ose	-422
▁isn	-423
▁remem	-424
age	-425
fter	-426
▁want	-427
ens	-428
▁then	-429
▁least	-430
▁now	-431
other	-432
▁contin	-433
▁This	-434
ase	-435
▁park	-436
▁see	-437
▁feel	-438
▁down	-439
▁where	-440
cess	-441
▁happ	-442
▁J	-443
▁really	-444
tain	-445
read	-446
ought	-447
sc	-448
urn	-449
▁te	-450
ness	-451
▁pre	-452
ations	-453
▁L	-454
▁en	-455
▁set	-456
▁still	-457
▁R	-458
ary	-459
▁We	-460
▁lo	-461
▁fuck	-462
ative	-463
▁most	-464
▁bet	-465
ling	-466
arr	-467
▁spe	-468
ating	-469
ying	-470
ition	-471
ult	-472
▁doesn	-473
ail	-474
▁des	-475
▁under	-476
▁because	-477
▁(	-478
▁bec	-479
▁bot	-480
▁What	-481
▁after	-482
▁right	-483
ach	-484
get	-485
▁start	-486
▁thought	-487
▁remember	-488
▁ad	-489
aybe	-490
iv	-491
xt	-492
▁sub	-493
old	-494
▁pr	-495
ction	-496
▁didn	-497
▁going	-498
▁life	-499
▁sy	-500
pect	-501
▁Maybe	-502
▁words	-503
ick	-504
irst	-505
side	-506
▁themselves	-507
ath	-508
ready	-509
▁part	-510
▁world	-511
ict	-512
▁wait	-513
ile	-514
ond	-515
▁tw	-516
▁land	-517
▁already	-518
▁Or	-519
▁att	-520
▁That	-521
ually	-522
we	-523
▁sa	-524
▁happen	-525
▁rec	-526
▁exist	-527
ren	-528
arly	-529
▁only	-530
▁very	-531
ade	-532
ars	-533
▁am	-534
orm	-535
▁himself	-536
▁let	-537
▁end	-538
▁seem	-539
che	-540
ily	-541
▁both	-542
ency	-543
▁read	-544
▁sl	-545
orld	-546
ertain	-547
▁br	-548
ever	-549
▁act	-550
▁form	-551
ser	-552
ful	-553
▁cr	-554
▁She	-555
▁sure	-556
▁dif	-557
▁comp	-558
▁another	-559
ne	-560
ost	-561
▁per	-562
ially	-563
▁come	-564
ft	-565
▁St	-566
▁sm	-567
rent	-568
ssib	-569
▁res	-570
ention	-571
arl	-572
▁lit	-573
▁off	-574
▁rep	-575
▁long	-576
▁There	-577
ual	-578
▁work	-579
▁World	-580
▁place	-581
atter	-582
▁make	-583
▁though	-584
ign	-585
ward	-586
aking	-587
▁first	-588
▁ori	-589
▁too	-590
ically	-591
les	-592
ead	-593
▁str	-594
gress	-595
ument	-596
▁need	-597
▁tell	-598
oc	-599
▁Pro	-600
▁exper	-601
▁fucking	-602
ors	-603
ning	-604
ream	-605
▁How	-606
▁ter	-607
pear	-608
▁got	-609
▁cour	-610
▁find	-611
▁begin	-612
▁quest	-613
▁origin	-614
▁anything	-615
▁ap	-616
▁ey	-617
▁new	-618
▁become	-619
▁el	-620
▁imag	-621
▁possib	-622
▁things	-623
ans	-624
ved	-625
▁those	-626
▁experi	-627
▁ro	-628
ices	-629
▁ret	-630
ata	-631
vers	-632
▁Gibseyan	-633
▁Jack	-634
▁An	-635
cept	-636
▁bel	-637
▁yet	-638
▁point	-639
ys	-640
ild	-641
man	-642
▁fil	-643
▁else	-644
▁writ	-645
▁agency	-646
▁object	-647
▁should	-648
reat	-649
▁Not	-650
▁day	-651
▁wasn	-652
▁inter	-653
▁In	-654
▁Ph	-655
cape	-656
▁coll	-657
ange	-658
▁char	-659
▁made	-660
▁Progress	-661
ull	-662
ular	-663
▁sel	-664
▁around	-665
▁Progresso	-666
ither	-667
▁kind	-668
▁often	-669
▁water	-670
▁course	-671
cl	-672
ced	-673
hed	-674
▁imp	-675
▁call	-676
▁hand	-677
▁line	-678
▁sort	-679
ry	-680
▁pe	-681
▁det	-682
▁sim	-683
▁once	-684
▁certain	-685
ized	-686
ower	-687
▁fin	-688
▁self	-689
led	-690
▁ke	-691
form	-692
osed	-693
▁cur	-694
▁inv	-695
▁mind	-696
▁pass	-697
▁gi	-698
ific	-699
ruct	-700
▁ide	-701
▁charact	-702
,"	-703
ty	-704
res	-705
▁supp	-706
▁trying	-707
alk	-708
▁alone	-709
te	-710
▁U	-711
ody	-712
▁eyes	-713
▁nothing	-714
▁aw	-715
▁em	-716
▁mem	-717
ident	-718
▁comm	-719
▁narr	-720
▁whole	-721
ish	-722
tle	-723
▁gu	-724
here	-725
rest	-726
illip	-727
▁film	-728
▁diffe	-729
▁V	-730
cri	-731
▁gl	-732
▁ass	-733
▁cor	-734
▁Parl	-735
▁conf	-736
▁data	-737
ron	-738
▁Sh	-739
▁sk	-740
less	-741
ather	-742
▁inst	-743
▁Gibst	-744
▁theme	-745
▁question	-746
!"	-747
oice	-748
▁acc	-749
▁ind	-750
▁two	-751
▁Even	-752
▁inte	-753
▁name	-754
▁prob	-755
▁Phillip	-756
▁Parlance	-757
ra	-758
amn	-759
anc	-760
ied	-761
ord	-762
▁rel	-763
hat	-764
▁Oh	-765
atch	-766
scape	-767
▁class	-768
▁obser	-769
▁entire	-770
▁return	-771
▁process	-772
ge	-773
ism	-774
por	-775
▁ref	-776
▁look	-777
▁upon	-778
▁collect	-779
av	-780
cre	-781
ene	-782
▁Be	-783
ween	-784
▁var	-785
▁why	-786
ility	-787
onder	-788
▁fore	-789
▁take	-790
▁between	-791
▁original	-792
gan	-793
ike	-794
lem	-795
▁bu	-796
▁es	-797
ince	-798
nect	-799
▁scre	-800
▁disap	-801
▁story	-802
▁without	-803
▁landscape	-804
cc	-805
▁ev	-806
que	-807
▁mom	-808
▁moment	-809
▁continue	-810
gal	-811
yst	-812
▁ph	-813
ract	-814
▁All	-815
▁hum	-816
▁hear	-817
▁while	-818
▁better	-819
▁meaning	-820
ise	-821
ures	-822
▁bit	-823
▁fam	-824
▁author	-825
iss	-826
▁case	-827
▁myst	-828
▁said	-829
fin	-830
ner	-831
rif	-832
ror	-833
sid	-834
▁left	-835
pected	-836
▁since	-837
▁trans	-838
alt	-839
any	-840
the	-841
▁power	-842
▁instead	-843
▁reality	-844
--	-845
gg	-846
▁If	-847
▁op	-848
tern	-849
▁fact	-850
scious	-851
▁sound	-852
▁herself	-853
ubl	-854
▁ca	-855
▁art	-856
▁cle	-857
▁good	-858
▁pers	-859
▁shit	-860
▁sing	-861
▁content	-862
▁continu	-863
▁No	-864
▁ty	-865
▁nat	-866
ering	-867
▁away	-868
ilment	-869
▁doing	-870
▁light	-871
▁either	-872
▁connect	-873
▁supposed	-874
ieve	-875
ross	-876
▁mon	-877
▁ser	-878
▁same	-879
▁stop	-880
▁images	-881
▁ailment	-882
▁forever	-883
▁put	-884
▁fall	-885
▁idea	-886
▁show	-887
▁Still	-888
▁novel	-889
▁enough	-890
▁contain	-891
aff	-892
ize	-893
▁AI	-894
▁occ	-895
▁hadn	-896
▁seen	-897
▁turn	-898
▁aware	-899
▁times	-900
▁waiting	-901
ks	-902
mbol	-903
▁sit	-904
▁aren	-905
▁choo	-906
▁keep	-907
▁repe	-908
gether	-909
▁Stillman	-910
▁together	-911
con	-912
ted	-913
▁ho	-914
olog	-915
velop	-916
▁last	-917
▁little	-918
pearance	-919
ew	-920
ob	-921
▁'	-922
ave	-923
ably	-924
▁few	-925
stand	-926
▁feels	-927
▁human	-928
▁anyway	-929
▁whether	-930
uh	-931
der	-932
akes	-933
▁Sub	-934
▁Was	-935
ening	-936
ffect	-937
ities	-938
▁anim	-939
▁expl	-940
▁head	-941
▁matter	-942
▁symbol	-943
▁outside	-944
▁possible	-945
ional	-946
▁const	-947
▁pract	-948
▁Gibstory	-949
mm	-950
ps	-951
ety	-952
igh	-953
Well	-954
aces	-955
ator	-956
ense	-957
ered	-958
▁pur	-959
▁found	-960
▁space	-961
▁watch	-962
▁different	-963
ah	-964
gr	-965
iew	-966
▁So	-967
▁rid	-968
owing	-969
▁door	-970
▁hold	-971
▁vers	-972
ization	-973
▁subject	-974
▁various	-975
bt	-976
most	-977
▁col	-978
▁fur	-979
▁each	-980
▁play	-981
▁dream	-982
▁legal	-983
▁rather	-984
io	-985
ons	-986
▁loo	-987
▁sur	-988
▁done	-989
▁spec	-990
▁later	-991
▁inside	-992
▁created	-993
▁mention	-994
▁actually	-995
▁happened	-996
▁narrative	-997
▁understand	-998
du	-999
to	-1000
unt	-1001
ches	-1002
▁dev	-1003
▁hel	-1004
▁death	-1005
▁train	-1006
▁yourself	-1007
▁book	-1008
▁pain	-1009
▁used	-1010
▁scene	-1011
▁across	-1012
▁develop	-1013
▁started	-1014
▁writing	-1015
▁character	-1016
dd	-1017
ny	-1018
ank	-1019
ove	-1020
▁Dis	-1021
▁rest	-1022
▁given	-1023
▁occur	-1024
▁further	-1025
▁section	-1026
▁experience	-1027
hes	-1028
uck	-1029
▁ye	-1030
ared	-1031
ings	-1032
rupt	-1033
▁publ	-1034
inking	-1035
resent	-1036
▁exact	-1037
▁ident	-1038
▁person	-1039
▁everything	-1040
▁To	-1041
▁la	-1042
apes	-1043
ocus	-1044
▁exp	-1045
▁mag	-1046
▁tri	-1047
▁vis	-1048
under	-1049
▁chat	-1050
▁dark	-1051
▁disc	-1052
▁face	-1053
though	-1054
▁image	-1055
xpected	-1056
▁almost	-1057
▁coming	-1058
Oh	-1059
sh	-1060
air	-1061
elt	-1062
ian	-1063
▁car	-1064
▁hor	-1065
▁war	-1066
▁cart	-1067
▁fict	-1068
▁live	-1069
▁peop	-1070
▁quite	-1071
▁stand	-1072
artment	-1073
▁interest	-1074
▁experienc	-1075
But	-1076
hen	-1077
▁sw	-1078
ount	-1079
▁dec	-1080
vious	-1081
▁help	-1082
▁likely	-1083
▁memory	-1084
ier	-1085
pec	-1086
ree	-1087
imes	-1088
ivid	-1089
▁app	-1090
▁fun	-1091
▁reg	-1092
ience	-1093
▁able	-1094
▁felt	-1095
▁mult	-1096
▁focus	-1097
▁knows	-1098
▁create	-1099
▁living	-1100
▁others	-1101
▁existence	-1102
ey	-1103
You	-1104
bot	-1105
atic	-1106
▁doc	-1107
▁far	-1108
▁typ	-1109
uring	-1110
▁Oren	-1111
▁Well	-1112
▁game	-1113
▁knew	-1114
▁early	-1115
▁saying	-1116
▁believe	-1117
▁current	-1118
▁someone	-1119
▁document	-1120
▁represent	-1121
▁bo	-1122
▁sn	-1123
lect	-1124
stem	-1125
▁tal	-1126
uture	-1127
▁Myst	-1128
▁dead	-1129
▁past	-1130
▁night	-1131
▁contro	-1132
▁people	-1133
▁system	-1134
..	-1135
ts	-1136
bin	-1137
how	-1138
ute	-1139
What	-1140
ists	-1141
nded	-1142
▁dou	-1143
aring	-1144
ories	-1145
where	-1146
▁high	-1147
▁lack	-1148
▁must	-1149
▁shif	-1150
▁text	-1151
▁great	-1152
▁haunt	-1153
▁might	-1154
▁effect	-1155
▁myself	-1156
▁classic	-1157
▁company	-1158
▁entirely	-1159
edi	-1160
iced	-1161
▁Who	-1162
▁add	-1163
▁aud	-1164
▁met	-1165
ately	-1166
pping	-1167
▁true	-1168
▁wand	-1169
▁liter	-1170
▁forget	-1171
▁import	-1172
onderful	-1173
pecially	-1174
▁getting	-1175
fic	-1176
ple	-1177
▁As	-1178
alys	-1179
ates	-1180
ener	-1181
plet	-1182
▁Did	-1183
▁ang	-1184
▁beh	-1185
▁old	-1186
▁pop	-1187
▁try	-1188
ching	-1189
ished	-1190
▁dist	-1191
▁full	-1192
▁walk	-1193
alysis	-1194
▁heard	-1195
▁write	-1196
aterial	-1197
▁detect	-1198
▁strange	-1199
▁certainly	-1200
ms	-1201
sp	-1202
day	-1203
its	-1204
▁Is	-1205
empt	-1206
▁abs	-1207
▁pie	-1208
▁pos	-1209
▁unf	-1210
itive	-1211
ential	-1212
▁choose	-1213
▁future	-1214
▁terrif	-1215
▁Because	-1216
▁version	-1217
▁continues	-1218
az	-1219
ix	-1220
▁De	-1221
cond	-1222
ilar	-1223
ural	-1224
▁che	-1225
▁ess	-1226
apter	-1227
istic	-1228
▁body	-1229
▁dire	-1230
▁prov	-1231
▁seems	-1232
▁sense	-1233
▁speak	-1234
▁choice	-1235
▁control	-1236
▁individ	-1237
▁ourselves	-1238
▁especially	-1239
EO	-1240
na	-1241
ces	-1242
ured	-1243
▁Nat	-1244
▁bre	-1245
▁dri	-1246
▁yes	-1247
arent	-1248
usion	-1249
▁Ever	-1250
▁cast	-1251
▁resp	-1252
finite	-1253
▁toward	-1254
▁material	-1255
▁probably	-1256
ird	-1257
ned	-1258
ows	-1259
uff	-1260
ines	-1261
ited	-1262
llio	-1263
ooks	-1264
ring	-1265
▁cut	-1266
▁min	-1267
▁More	-1268
▁Scri	-1269
▁fail	-1270
▁hard	-1271
▁sign	-1272
▁wind	-1273
▁voice	-1274
▁consid	-1275
▁forward	-1276
▁objects	-1277
▁Scrillio	-1278
▁audience	-1279
▁thoughts	-1280
▁Wonderful	-1281
It	-1282
ok	-1283
rap	-1284
▁Al	-1285
aced	-1286
▁His	-1287
▁One	-1288
▁air	-1289
▁ans	-1290
▁eas	-1291
▁gre	-1292
▁damn	-1293
▁lead	-1294
▁descri	-1295
▁having	-1296
▁series	-1297
▁against	-1298
▁attempt	-1299
▁chatbot	-1300
▁problem	-1301
▁whatever	-1302
▁conscious	-1303
ci	-1304
The	-1305
ext	-1306
▁ask	-1307
▁que	-1308
▁swe	-1309
▁tit	-1310
▁tot	-1311
ialog	-1312
lease	-1313
oices	-1314
stant	-1315
▁deep	-1316
▁give	-1317
ishing	-1318
▁child	-1319
▁queue	-1320
▁commun	-1321
▁screen	-1322
▁project	-1323
▁attention	-1324
▁individual	-1325
ale	-1326
alu	-1327
ime	-1328
▁Ch	-1329
ives	-1330
▁CEO	-1331
▁imm	-1332
▁par	-1333
▁unt	-1334
▁came	-1335
▁less	-1336
▁next	-1337
▁note	-1338
▁open	-1339
▁pres	-1340
▁stru	-1341
▁talk	-1342
olding	-1343
▁comes	-1344
▁hands	-1345
▁known	-1346
▁organ	-1347
▁anyone	-1348
▁dialog	-1349
▁struct	-1350
▁complet	-1351
▁somehow	-1352
ane	-1353
ets	-1354
iar	-1355
ney	-1356
ock	-1357
ret	-1358
alie	-1359
arth	-1360
ased	-1361
▁Mon	-1362
icism	-1363
▁Baff	-1364
▁Like	-1365
▁answ	-1366
▁empt	-1367
▁hell	-1368
▁init	-1369
▁list	-1370
▁main	-1371
▁pull	-1372
▁becom	-1373
▁build	-1374
▁meant	-1375
▁called	-1376
▁family	-1377
▁wouldn	-1378
▁Natalie	-1379
▁looking	-1380
▁noticed	-1381
▁Monument	-1382
of	-1383
ta	-1384
yn	-1385
ages	-1386
aken	-1387
like	-1388
omin	-1389
pite	-1390
rect	-1391
▁Per	-1392
▁bud	-1393
aster	-1394
empor	-1395
iness	-1396
ments	-1397
nding	-1398
ronic	-1399
▁cent	-1400
▁view	-1401
▁wood	-1402
ancial	-1403
arling	-1404
scapes	-1405
▁blood	-1406
▁event	-1407
▁invest	-1408
▁longer	-1409
▁recent	-1410
▁repeated	-1411
▁singular	-1412
▁awareness	-1413
▁important	-1414
▁characters	-1415
ash	-1416
chn	-1417
ery	-1418
ool	-1419
▁fo	-1420
▁ri	-1421
fety	-1422
▁fig	-1423
▁inf	-1424
▁lim	-1425
ality	-1426
arrow	-1427
izing	-1428
mbers	-1429
rence	-1430
▁appe	-1431
▁mine	-1432
ficult	-1433
lemint	-1434
▁Every	-1435
▁clear	-1436
▁glass	-1437
▁Worlds	-1438
▁direct	-1439
▁notice	-1440
▁remind	-1441
▁Thunder	-1442
▁attract	-1443
▁explain	-1444
▁practice	-1445
▁construct	-1446
▁difficult	-1447
▁Bafflemint	-1448
▁landscapes	-1449
de	-1450
▁K	-1451
lyn	-1452
par	-1453
umb	-1454
bino	-1455
iron	-1456
onna	-1457
▁Bam	-1458
▁loc	-1459
▁lot	-1460
ellig	-1461
iance	-1462
▁best	-1463
▁fill	-1464
▁hope	-1465
▁incl	-1466
▁mist	-1467
▁trad	-1468
itions	-1469
izable	-1470
▁Their	-1471
▁guess	-1472
▁means	-1473
▁order	-1474
▁Marrow	-1475
▁letter	-1476
▁moving	-1477
▁terror	-1478
▁wanted	-1479
▁Bambino	-1480
▁Jacklyn	-1481
▁context	-1482
▁exactly	-1483
▁members	-1484
▁apartment	-1485
▁beginning	-1486
▁happening	-1487
apt	-1488
idd	-1489
uly	-1490
uss	-1491
▁Do	-1492
▁OK	-1493
▁ru	-1494
body	-1495
▁aut	-1496
▁ear	-1497
▁huh	-1498
▁lay	-1499
▁sun	-1500
ances	-1501
▁gone	-1502
▁late	-1503
▁gonna	-1504
▁repet	-1505
▁techn	-1506
ability	-1507
▁detail	-1508
▁wonder	-1509
▁darling	-1510
▁similar	-1511
▁Substant	-1512
▁thinking	-1513
up	-1514
And	-1515
▁Re	-1516
▁dr	-1517
▁er	-1518
host	-1519
ript	-1520
▁Why	-1521
▁flo	-1522
▁Perd	-1523
▁fear	-1524
▁ment	-1525
▁miss	-1526
▁move	-1527
▁onto	-1528
▁slip	-1529
ternal	-1530
▁above	-1531
▁confl	-1532
▁earth	-1533
▁couldn	-1534
▁forced	-1535
▁nature	-1536
▁observ	-1537
▁partic	-1538
▁However	-1539
▁symbols	-1540
▁investig	-1541
▁Perdition	-1542
▁interesting	-1543
▁Substantially	-1544
**	-1545
-"	-1546
bo	-1547
uc	-1548
ify	-1549
nel	-1550
ont	-1551
pus	-1552
▁At	-1553
▁jo	-1554
anny	-1555
fort	-1556
yard	-1557
▁Asc	-1558
▁Cor	-1559
▁inn	-1560
▁mov	-1561
▁use	-1562
▁Malt	-1563
▁dest	-1564
▁fant	-1565
▁forg	-1566
▁ones	-1567
porate	-1568
▁Books	-1569
▁doubt	-1570
▁famil	-1571
▁ghost	-1572
▁leave	-1573
▁truly	-1574
▁parent	-1575
▁Sizable	-1576
▁backyard	-1577
▁conflict	-1578
▁essential	-1579
▁fictional	-1580
hy	-1581
but	-1582
ges	-1583
rit	-1584
ains	-1585
ched	-1586
ined	-1587
oned	-1588
ored	-1589
▁due	-1590
▁ign	-1591
▁tre	-1592
rance	-1593
▁Wait	-1594
▁caus	-1595
▁purp	-1596
▁reas	-1597
▁soon	-1598
ground	-1599
▁incre	-1600
▁small	-1601
▁wants	-1602
ational	-1603
▁change	-1604
▁gotten	-1605
▁multip	-1606
▁nearly	-1607
▁safety	-1608
▁concept	-1609
▁despite	-1610
▁discuss	-1611
▁talking	-1612
▁written	-1613
conscious	-1614
▁complete	-1615
▁maintain	-1616
▁previous	-1617
▁Mysticism	-1618
▁detective	-1619
aw	-1620
ns	-1621
ilt	-1622
not	-1623
odd	-1624
oud	-1625
▁Ag	-1626
amed	-1627
ible	-1628
land	-1629
ully	-1630
▁Int	-1631
▁Var	-1632
▁hop	-1633
▁mor	-1634
acted	-1635
ggest	-1636
▁days	-1637
▁lect	-1638
▁oper	-1639
▁prof	-1640
▁rain	-1641
▁repl	-1642
▁room	-1643
▁told	-1644
▁Somet	-1645
▁taken	-1646
▁Ascent	-1647
▁behind	-1648
▁ground	-1649
▁making	-1650
▁public	-1651
▁strugg	-1652
▁present	-1653
▁suggest	-1654
▁communic	-1655
▁watching	-1656
▁financial	-1657
cy	-1658
ls	-1659
aim	-1660
als	-1661
aps	-1662
bit	-1663
hip	-1664
ics	-1665
mit	-1666
ots	-1667
ths	-1668
▁My	-1669
▁ve	-1670
aves	-1671
bers	-1672
ides	-1673
izes	-1674
▁For	-1675
▁phr	-1676
▁red	-1677
arily	-1678
▁When	-1679
▁card	-1680
▁care	-1681
▁hall	-1682
▁hasn	-1683
▁prom	-1684
▁step	-1685
▁Manny	-1686
▁gener	-1687
▁piece	-1688
▁separ	-1689
▁state	-1690
▁Corpus	-1691
▁includ	-1692
▁knowing	-1693
▁natural	-1694
▁although	-1695
▁specific	-1696
▁experiences	-1697
),	-1698
wh	-1699
▁-	-1700
abl	-1701
app	-1702
lex	-1703
ugh	-1704
▁Br	-1705
head	-1706
ired	-1707
ivil	-1708
ried	-1709
rock	-1710
▁Can	-1711
▁Mag	-1712
▁ach	-1713
▁bad	-1714
▁inc	-1715
▁tra	-1716
ously	-1717
▁sens	-1718
▁alive	-1719
▁civil	-1720
▁enter	-1721
▁evalu	-1722
▁haven	-1723
▁invol	-1724
▁produ	-1725
▁years	-1726
ificial	-1727
▁accept	-1728
▁sounds	-1729
▁endless	-1730
elligence	-1731
nexpected	-1732
▁Variance	-1733
▁mystical	-1734
ape	-1735
ask	-1736
ayk	-1737
lit	-1738
nds	-1739
ply	-1740
urd	-1741
wor	-1742
yle	-1743
leep	-1744
oken	-1745
road	-1746
▁bus	-1747
▁dig	-1748
▁hot	-1749
▁sky	-1750
▁uni	-1751
▁kill	-1752
▁lear	-1753
▁loss	-1754
▁love	-1755
▁plan	-1756
▁wond	-1757
▁black	-1758
▁empty	-1759
▁looks	-1760
▁makes	-1761
▁until	-1762
▁weren	-1763
▁budget	-1764
▁common	-1765
▁immedi	-1766
▁mother	-1767
▁second	-1768
▁simply	-1769
▁starts	-1770
▁disappe	-1771
▁screens	-1772
▁creating	-1773
▁creation	-1774
▁disappear	-1775
▁Unexpected	-1776
▁continually	-1777
ats	-1778
cer	-1779
iol	-1780
ode	-1781
umm	-1782
▁ep	-1783
dden	-1784
ents	-1785
more	-1786
▁Had	-1787
▁Yes	-1788
▁ali	-1789
▁opp	-1790
▁unc	-1791
aving	-1792
fully	-1793
ingly	-1794
tered	-1795
utter	-1796
▁Sham	-1797
▁home	-1798
▁spir	-1799
▁Disap	-1800
▁appro	-1801
▁claim	-1802
▁heart	-1803
▁magic	-1804
▁movie	-1805
▁perce	-1806
▁smell	-1807
▁title	-1808
▁today	-1809
▁entity	-1810
▁reason	-1811
▁script	-1812
▁Magical	-1813
▁comfort	-1814
▁complex	-1815
▁correct	-1816
▁monolog	-1817
▁reflect	-1818
▁staring	-1819
▁towards	-1820
▁dialogue	-1821
▁starting	-1822
▁interrupt	-1823
▁structure	-1824
ax	-1825
aut	-1826
hic	-1827
oon	-1828
oun	-1829
▁Im	-1830
▁ed	-1831
▁oh	-1832
▁uh	-1833
arch	-1834
icks	-1835
ided	-1836
ouse	-1837
outh	-1838
owed	-1839
▁Cop	-1840
▁ext	-1841
▁mir	-1842
▁mix	-1843
▁sho	-1844
▁top	-1845
▁une	-1846
Right	-1847
onest	-1848
otten	-1849
▁Todd	-1850
▁lost	-1851
▁near	-1852
▁rese	-1853
▁stay	-1854
▁tomb	-1855
▁After	-1856
▁among	-1857
▁below	-1858
▁bound	-1859
▁frame	-1860
▁innoc	-1861
▁reach	-1862
▁recre	-1863
▁secre	-1864
ination	-1865
ominion	-1866
▁Disney	-1867
▁necess	-1868
▁record	-1869
▁seemed	-1870
▁sudden	-1871
▁worlds	-1872
▁existed	-1873
▁growing	-1874
▁notices	-1875
▁popular	-1876
▁setting	-1877
▁Shamrock	-1878
▁consider	-1879
▁developed	-1880
▁questions	-1881
▁remembers	-1882
▁throughout	-1883
▁civilization	-1884
▁Disappearance	-1885
▁disappearance	-1886
by	-1887
me	-1888
esh	-1889
ogn	-1890
▁av	-1891
▁hy	-1892
aily	-1893
angu	-1894
ging	-1895
oses	-1896
that	-1897
view	-1898
▁Dav	-1899
▁Ent	-1900
▁emb	-1901
▁ill	-1902
allen	-1903
ified	-1904
unnel	-1905
▁decl	-1906
▁wall	-1907
▁yell	-1908
ousand	-1909
▁First	-1910
▁Shayk	-1911
▁close	-1912
▁shift	-1913
▁turns	-1914
ailroad	-1915
▁Though	-1916
▁seeing	-1917
▁single	-1918
▁Nothing	-1919
▁anymore	-1920
▁entered	-1921
▁feeling	-1922
▁perform	-1923
▁stories	-1924
▁systems	-1925
▁becoming	-1926
▁everyone	-1927
▁forgotten	-1928
▁mentioned	-1929
▁objective	-1930
▁tradition	-1931
▁transform	-1932
▁collective	-1933
▁terrifying	-1934
▁immediately	-1935
?-	-1936
gu	-1937
sy	-1938
irc	-1939
ote	-1940
rin	-1941
ues	-1942
ume	-1943
ush	-1944
▁Se	-1945
ales	-1946
ases	-1947
eric	-1948
ised	-1949
ital	-1950
ones	-1951
ynch	-1952
▁ine	-1953
▁ins	-1954
▁mar	-1955
▁mot	-1956
▁neg	-1957
▁sac	-1958
▁won	-1959
ached	-1960
anged	-1961
board	-1962
erred	-1963
ision	-1964
▁area	-1965
▁blur	-1966
▁clip	-1967
▁earl	-1968
▁foll	-1969
▁gets	-1970
▁grou	-1971
▁grow	-1972
▁pict	-1973
inging	-1974
▁check	-1975
▁house	-1976
▁level	-1977
▁mouth	-1978
▁smile	-1979
anguage	-1980
ception	-1981
▁chance	-1982
▁formed	-1983
▁phrase	-1984
▁regard	-1985
▁subsid	-1986
▁tempor	-1987
▁falling	-1988
▁mistake	-1989
▁moments	-1990
▁respons	-1991
▁sitting	-1992
▁station	-1993
▁Dominion	-1994
▁analysis	-1995
▁infinite	-1996
▁speaking	-1997
▁corporate	-1998
▁unfolding	-1999
gy	-2000
kn	-2001
...	-2002
ger	-2003
raw	-2004
▁AD	-2005
▁Am	-2006
▁fa	-2007
come	-2008
iary	-2009
line	-2010
rary	-2011
wise	-2012
▁Her	-2013
▁Res	-2014
▁cig	-2015
▁ris	-2016
▁sus	-2017
ained	-2018
antly	-2019
iding	-2020
ights	-2021
▁Back	-2022
▁arms	-2023
▁asks	-2024
▁bank	-2025
▁clic	-2026
▁cons	-2027
▁ener	-2028
▁song	-2029
▁viol	-2030
▁Synch	-2031
▁along	-2032
▁choos	-2033
▁forms	-2034
▁rides	-2035
▁sleep	-2036
▁stare	-2037
▁vehic	-2038
▁Davies	-2039
▁during	-2040
▁fantas	-2041
▁horror	-2042
▁strang	-2043
▁vision	-2044
▁Chapter	-2045
▁Gibstor	-2046
▁answers	-2047
▁devices	-2048
▁telling	-2049
▁theater	-2050
▁warning	-2051
▁familiar	-2052
▁intended	-2053
▁literary	-2054
▁somewhere	-2055
▁difference	-2056
▁disappeared	-2057
ia	-2058
lt	-2059
aly	-2060
ern	-2061
for	-2062
ior	-2063
ump	-2064
vol	-2065
▁Fl	-2066
btor	-2067
hold	-2068
icul	-2069
onic	-2070
ront	-2071
yond	-2072
▁ADD	-2073
▁Now	-2074
▁bas	-2075
▁cha	-2076
▁dro	-2077
▁env	-2078
▁hit	-2079
▁pap	-2080
▁ste	-2081
acing	-2082
ators	-2083
organ	-2084
▁bene	-2085
▁cond	-2086
▁fair	-2087
▁fing	-2088
▁flat	-2089
▁prot	-2090
▁sick	-2091
▁skin	-2092
▁town	-2093
ruptcy	-2094
thical	-2095
▁Where	-2096
▁admit	-2097
▁alien	-2098
▁built	-2099
▁flesh	-2100
▁front	-2101
▁fully	-2102
▁shape	-2103
▁stret	-2104
▁worse	-2105
edacted	-2106
ression	-2107
▁Debtor	-2108
▁Shaykh	-2109
▁appear	-2110
▁beyond	-2111
▁device	-2112
▁giving	-2113
▁honest	-2114
▁listen	-2115
▁wander	-2116
▁clearly	-2117
▁however	-2118
▁increas	-2119
▁partner	-2120
▁provide	-2121
▁Analysis	-2122
▁Railroad	-2123
▁accident	-2124
▁identity	-2125
▁personal	-2126
▁position	-2127
▁contained	-2128
▁otherwise	-2129
▁sometimes	-2130
▁technolog	-2131
▁particular	-2132
▁unexpected	-2133
▁intelligence	-2134
).	-2135
We	-2136
ex	-2137
go	-2138
gs	-2139
bow	-2140
eah	-2141
erm	-2142
▁Em	-2143
▁On	-2144
▁af	-2145
▁pa	-2146
book	-2147
ming	-2148
uous	-2149
▁Are	-2150
▁led	-2151
▁non	-2152
▁sil	-2153
ences	-2154
inous	-2155
ution	-2156
▁Good	-2157
▁Some	-2158
▁circ	-2159
▁frie	-2160
▁heav	-2161
▁mach	-2162
▁mark	-2163
▁reve	-2164
▁stri	-2165
▁stud	-2166
▁stup	-2167
▁surf	-2168
▁thus	-2169
▁unkn	-2170
establ	-2171
▁amuse	-2172
▁belie	-2173
▁break	-2174
▁defin	-2175
▁funny	-2176
▁gotta	-2177
▁ideas	-2178
▁parks	-2179
▁tries	-2180
▁trust	-2181
▁worry	-2182
atronic	-2183
version	-2184
▁Americ	-2185
▁action	-2186
▁destro	-2187
▁excess	-2188
▁please	-2189
▁remain	-2190
▁voices	-2191
▁challen	-2192
▁effects	-2193
▁magical	-2194
▁passing	-2195
▁purpose	-2196
▁totally	-2197
▁vehicle	-2198
▁language	-2199
▁occurred	-2200
▁amusement	-2201
▁eventually	-2202
▁possibility	-2203
oy	-2204
▁z	-2205
alf	-2206
bed	-2207
ble	-2208
els	-2209
eth	-2210
lic	-2211
med	-2212
▁id	-2213
▁ya	-2214
agin	-2215
aled	-2216
iety	-2217
pped	-2218
rors	-2219
sess	-2220
umul	-2221
urst	-2222
used	-2223
▁Any	-2224
▁Don	-2225
▁Rep	-2226
▁big	-2227
▁ble	-2228
▁dep	-2229
▁job	-2230
▁mod	-2231
▁sad	-2232
▁suc	-2233
▁syn	-2234
aches	-2235
bling	-2236
ister	-2237
ondon	-2238
osing	-2239
verse	-2240
▁Data	-2241
▁clim	-2242
▁exam	-2243
▁gold	-2244
▁pret	-2245
ushing	-2246
▁These	-2247
▁Would	-2248
▁began	-2249
▁fated	-2250
▁green	-2251
▁laugh	-2252
▁lives	-2253
▁press	-2254
▁relig	-2255
▁style	-2256
▁tried	-2257
▁truth	-2258
▁wrong	-2259
▁London	-2260
▁altern	-2261
▁begins	-2262
▁design	-2263
▁expect	-2264
▁hoping	-2265
▁obsess	-2266
▁recogn	-2267
▁resort	-2268
▁scream	-2269
▁spaces	-2270
▁stupid	-2271
▁thrust	-2272
▁achieve	-2273
▁choices	-2274
▁earlier	-2275
▁happens	-2276
▁reading	-2277
▁realize	-2278
▁Entrance	-2279
▁building	-2280
▁memories	-2281
▁negative	-2282
▁collected	-2283
▁regarding	-2284
▁therefore	-2285
▁artificial	-2286
▁subsidiary	-2287
▁animatronic	-2288
Do	-2289
ng	-2290
Yes	-2291
oid	-2292
omp	-2293
▁Ok	-2294
ames	-2295
ceed	-2296
hood	-2297
orry	-2298
play	-2299
rodu	-2300
room	-2301
▁Ext	-2302
▁Way	-2303
▁cam	-2304
▁enc	-2305
▁gas	-2306
▁har	-2307
▁ice	-2308
▁mis	-2309
▁sol	-2310
▁sou	-2311
▁wee	-2312
ature	-2313
ement	-2314
idden	-2315
iving	-2316
ivity	-2317
urely	-2318
▁Emir	-2319
▁Time	-2320
▁With	-2321
▁cost	-2322
▁dear	-2323
▁fate	-2324
▁hair	-2325
▁held	-2326
▁iron	-2327
▁spin	-2328
▁type	-2329
ctions	-2330
▁adapt	-2331
▁beaut	-2332
▁curse	-2333
▁quick	-2334
▁stops	-2335
▁super	-2336
▁weird	-2337
versive	-2338
▁Resort	-2339
▁concer	-2340
▁easily	-2341
▁escape	-2342
▁establ	-2343
▁failed	-2344
▁finish	-2345
▁intern	-2346
▁needed	-2347
▁office	-2348
▁secret	-2349
▁transp	-2350
▁wooden	-2351
▁fiction	-2352
▁haunted	-2353
▁opening	-2354
▁parents	-2355
▁playing	-2356
▁protect	-2357
▁children	-2358
▁darkness	-2359
▁expected	-2360
▁possibly	-2361
▁realizes	-2362
▁thousand	-2363
▁connected	-2364
▁documents	-2365
▁relations	-2366
▁attraction	-2367
▁originally	-2368
▁alternative	-2369
▁connections	-2370
▁constructed	-2371
▁underground	-2372
!'	-2373
hh	-2374
emp	-2375
izz	-2376
orn	-2377
tic	-2378
und	-2379
▁Gr	-2380
▁di	-2381
▁ge	-2382
▁ic	-2383
chet	-2384
cing	-2385
ient	-2386
iles	-2387
mare	-2388
ords	-2389
raid	-2390
rain	-2391
roll	-2392
uses	-2393
what	-2394
▁Huh	-2395
▁Pet	-2396
▁adv	-2397
▁ast	-2398
▁dam	-2399
▁lar	-2400
▁map	-2401
▁num	-2402
▁rad	-2403
iling	-2404
ining	-2405
ively	-2406
round	-2407
▁Walt	-2408
▁atop	-2409
▁conj	-2410
▁crew	-2411
▁crit	-2412
▁easy	-2413
▁fire	-2414
▁medi	-2415
▁path	-2416
▁pour	-2417
▁seat	-2418
▁unre	-2419
▁unsp	-2420
empest	-2421
lement	-2422
reston	-2423
uation	-2424
ularly	-2425
▁autom	-2426
▁brain	-2427
▁cause	-2428
▁final	-2429
▁phone	-2430
▁takes	-2431
▁total	-2432
▁Either	-2433
▁absurd	-2434
▁afraid	-2435
▁batter	-2436
▁center	-2437
▁colors	-2438
▁dreams	-2439
▁number	-2440
▁pretty	-2441
▁proced	-2442
▁themes	-2443
▁tunnel	-2444
Redacted	-2445
▁Preston	-2446
▁brought	-2447
▁decline	-2448
▁environ	-2449
▁eternal	-2450
▁example	-2451
▁leading	-2452
▁lecture	-2453
▁success	-2454
▁suspect	-2455
formation	-2456
▁Although	-2457
▁multiple	-2458
▁unspoken	-2459
▁necessary	-2460
▁returning	-2461
▁typically	-2462
▁wandering	-2463
▁attractions	-2464
▁observation	-2465
▁increasingly	-2466
',	-2467
ox	-2468
wl	-2469
ert	-2470
ged	-2471
ife	-2472
key	-2473
rom	-2474
udy	-2475
▁**	-2476
▁Ab	-2477
▁Mr	-2478
▁ma	-2479
aged	-2480
ctor	-2481
damn	-2482
fall	-2483
inte	-2484
ises	-2485
this	-2486
ught	-2487
work	-2488
▁bal	-2489
▁cap	-2490
▁dem	-2491
▁eye	-2492
▁fre	-2493
▁key	-2494
▁rum	-2495
▁uns	-2496
aight	-2497
alyst	-2498
iable	-2499
iting	-2500
ooded	-2501
ortun	-2502
ption	-2503
▁City	-2504
▁Mark	-2505
▁Prin	-2506
▁Rain	-2507
▁Your	-2508
▁bare	-2509
▁boil	-2510
▁city	-2511
▁depe	-2512
▁diss	-2513
▁emot	-2514
▁gray	-2515
▁hill	-2516
▁mess	-2517
▁phys	-2518
▁poor	-2519
▁rock	-2520
▁sits	-2521
▁wide	-2522
▁yeah	-2523
▁Brass	-2524
▁aband	-2525
▁ahead	-2526
▁arbit	-2527
▁based	-2528
▁bring	-2529
▁camer	-2530
▁cigar	-2531
▁force	-2532
▁forth	-2533
▁gives	-2534
▁holds	-2535
▁hyper	-2536
▁needs	-2537
▁sorts	-2538
▁split	-2539
▁stage	-2540
▁steps	-2541
▁thres	-2542
▁worth	-2543
attered	-2544
ibility	-2545
ilities	-2546
▁Imagin	-2547
▁answer	-2548
▁assign	-2549
▁commit	-2550
▁figure	-2551
▁hidden	-2552
▁pieces	-2553
▁places	-2554
▁reader	-2555
▁stream	-2556
▁taking	-2557
▁typing	-2558
▁unique	-2559
finitely	-2560
▁Extract	-2561
▁actions	-2562
▁ethical	-2563
▁fantasy	-2564
▁focused	-2565
▁initial	-2566
▁missing	-2567
▁observe	-2568
▁profess	-2569
▁serious	-2570
▁wonders	-2571
▁chatbots	-2572
▁identify	-2573
▁notebook	-2574
▁referred	-2575
▁standing	-2576
▁straight	-2577
▁surround	-2578
▁clipboard	-2579
▁evaluator	-2580
▁nightmare	-2581
▁religious	-2582
▁terrified	-2583
▁threshold	-2584
▁bankruptcy	-2585
▁completely	-2586
▁forgetting	-2587
▁operational	-2588
▁relationship	-2589
bl	-2590
acy	-2591
ems	-2592
iod	-2593
ips	-2594
irt	-2595
lev	-2596
obi	-2597
vin	-2598
vit	-2599
▁Un	-2600
atos	-2601
aven	-2602
ived	-2603
just	-2604
over	-2605
▁Con	-2606
▁Dic	-2607
▁Doc	-2608
▁Fox	-2609
▁God	-2610
▁Owl	-2611
▁ann	-2612
▁del	-2613
▁fro	-2614
▁pal	-2615
▁pol	-2616
▁pow	-2617
▁run	-2618
▁soc	-2619
acher	-2620
alent	-2621
arity	-2622
ibsey	-2623
itual	-2624
lying	-2625
ograp	-2626
▁Judy	-2627
▁Just	-2628
▁blue	-2629
▁buck	-2630
▁cult	-2631
▁epis	-2632
▁exte	-2633
▁goal	-2634
▁goes	-2635
▁mask	-2636
▁norm	-2637
▁port	-2638
▁pred	-2639
▁roll	-2640
▁vert	-2641
▁ways	-2642
anging	-2643
atives	-2644
chetta	-2645
ipping	-2646
issman	-2647
▁Again	-2648
▁Dream	-2649
▁Reven	-2650
▁burst	-2651
▁colon	-2652
▁crack	-2653
▁group	-2654
▁mount	-2655
▁overw	-2656
▁parts	-2657
▁scaff	-2658
▁shall	-2659
▁teach	-2660
▁traum	-2661
▁white	-2662
arching	-2663
clusion	-2664
pective	-2665
▁Dickey	-2666
▁Owlist	-2667
▁Please	-2668
▁access	-2669
▁cloned	-2670
▁decide	-2671
▁energy	-2672
▁halluc	-2673
▁inevit	-2674
▁period	-2675
▁resemb	-2676
▁sacred	-2677
▁specif	-2678
▁theirs	-2679
▁threat	-2680
▁trains	-2681
aneously	-2682
▁accumul	-2683
▁appears	-2684
▁chapter	-2685
▁destroy	-2686
▁finally	-2687
▁holding	-2688
▁mystery	-2689
▁retreat	-2690
▁ruinous	-2691
▁unknown	-2692
▁Document	-2693
▁Weissman	-2694
▁disaster	-2695
▁painting	-2696
▁powerful	-2697
▁progress	-2698
▁realized	-2699
▁recently	-2700
▁Something	-2701
▁Sometimes	-2702
▁entertain	-2703
▁environment	-2704
▁specifically	-2705
So	-2706
St	-2707
ha	-2708
oh	-2709
ala	-2710
aph	-2711
fit	-2712
hel	-2713
ins	-2714
nin	-2715
vey	-2716
▁Of	-2717
fact	-2718
gest	-2719
inal	-2720
inas	-2721
ltim	-2722
oman	-2723
plic	-2724
serv	-2725
umed	-2726
unch	-2727
▁Ari	-2728
▁Mar	-2729
▁cop	-2730
▁def	-2731
▁den	-2732
▁esc	-2733
▁gri	-2734
▁law	-2735
▁pay	-2736
▁tou	-2737
▁van	-2738
▁wat	-2739
aries	-2740
asion	-2741
ddamn	-2742
itous	-2743
light	-2744
odern	-2745
olute	-2746
rious	-2747
ustry	-2748
uteur	-2749
▁Phil	-2750
▁Publ	-2751
▁Shit	-2752
▁Than	-2753
▁bott	-2754
▁draw	-2755
▁four	-2756
▁infl	-2757
▁king	-2758
▁pool	-2759
▁shot	-2760
▁slow	-2761
alking	-2762
ension	-2763
ording	-2764
▁Petey	-2765
▁accur	-2766
▁board	-2767
▁breat	-2768
▁daily	-2769
▁finds	-2770
▁lines	-2771
▁loved	-2772
▁moved	-2773
▁myths	-2774
▁pages	-2775
▁paper	-2776
▁revol	-2777
▁shoot	-2778
▁signs	-2779
▁teeth	-2780
▁three	-2781
▁twist	-2782
▁ultim	-2783
▁works	-2784
iculous	-2785
osition	-2786
▁Revene	-2787
▁Valent	-2788
▁cliche	-2789
▁filled	-2790
▁killed	-2791
▁member	-2792
▁passed	-2793
▁patter	-2794
▁repeat	-2795
▁theory	-2796
▁unable	-2797
▁weight	-2798
▁Rainbow	-2799
▁alright	-2800
▁beautif	-2801
▁becomes	-2802
▁changed	-2803
▁details	-2804
▁fairies	-2805
▁goddamn	-2806
▁hearing	-2807
▁introdu	-2808
▁leaving	-2809
▁picture	-2810
▁quality	-2811
▁usually	-2812
▁working	-2813
▁worried	-2814
ification	-2815
▁American	-2816
▁Thanatos	-2817
▁choosing	-2818
▁distance	-2819
▁external	-2820
▁industry	-2821
▁involved	-2822
▁replaced	-2823
▁training	-2824
▁violence	-2825
empestuous	-2826
▁currently	-2827
▁intention	-2828
▁procedure	-2829
▁Everything	-2830
▁Princhetta	-2831
▁challenges	-2832
▁connection	-2833
▁narratives	-2834
▁perspective	-2835
▁scaffolding	-2836
▁temporarily	-2837
IA	-2838
Can	-2839
aft	-2840
erv	-2841
ibr	-2842
ift	-2843
jor	-2844
ony	-2845
oom	-2846
oth	-2847
riv	-2848
sed	-2849
ung	-2850
▁Tw	-2851
▁cu	-2852
aded	-2853
ades	-2854
alib	-2855
alse	-2856
avor	-2857
held	-2858
ouds	-2859
raft	-2860
ries	-2861
tens	-2862
▁Dri	-2863
▁Isn	-2864
▁age	-2865
▁arr	-2866
▁bar	-2867
▁cod	-2868
▁exc	-2869
▁hur	-2870
▁lad	-2871
▁log	-2872
▁lur	-2873
▁pan	-2874
▁pet	-2875
▁wit	-2876
aling	-2877
astic	-2878
cient	-2879
eling	-2880
iment	-2881
ledge	-2882
ossib	-2883
othes	-2884
ounds	-2885
ticip	-2886
which	-2887
▁Look	-2888
▁cell	-2889
▁dang	-2890
▁jour	-2891
▁pick	-2892
▁plat	-2893
▁plot	-2894
▁prec	-2895
▁priv	-2896
▁rece	-2897
▁stat	-2898
▁stre	-2899
▁sust	-2900
▁swir	-2901
▁tang	-2902
▁term	-2903
▁took	-2904
▁wake	-2905
▁agent	-2906
▁angel	-2907
▁aside	-2908
▁blind	-2909
▁chaos	-2910
▁contr	-2911
▁false	-2912
▁floor	-2913
▁happy	-2914
▁influ	-2915
▁named	-2916
▁prete	-2917
▁prove	-2918
▁scale	-2919
▁shock	-2920
▁sorry	-2921
▁tears	-2922
▁tremb	-2923
ressive	-2924
resting	-2925
viously	-2926
▁Agency	-2927
▁Backst	-2928
▁Report	-2929
▁actual	-2930
▁amount	-2931
▁cannot	-2932
▁combin	-2933
▁convey	-2934
▁deeply	-2935
▁desire	-2936
▁doctor	-2937
▁extens	-2938
▁losing	-2939
▁metaph	-2940
▁proper	-2941
▁shapes	-2942
▁social	-2943
▁stands	-2944
▁surely	-2945
▁talked	-2946
▁thinks	-2947
attering	-2948
emporary	-2949
▁Another	-2950
▁anticip	-2951
▁digital	-2952
▁evening	-2953
▁include	-2954
▁machine	-2955
▁matters	-2956
▁morning	-2957
▁painted	-2958
▁surface	-2959
▁walking	-2960
▁describe	-2961
▁director	-2962
▁function	-2963
▁lectures	-2964
▁platform	-2965
▁pressure	-2966
▁produced	-2967
▁sections	-2968
▁shifting	-2969
▁struggle	-2970
▁subjects	-2971
▁described	-2972
▁initially	-2973
▁knowledge	-2974
▁Gibseyland	-2975
▁Subversion	-2976
▁Valentinas	-2977
▁publishing	-2978
▁repetitive	-2979
▁separation	-2980
▁subversive	-2981
▁technology	-2982
▁Gibstorical	-2983
▁represented	-2984
▁unconscious	-2985
▁contemporary	-2986
▁responsibility	-2987
,'	-2988
.'	-2989
No	-2990
Th	-2991
bs	-2992
dy	-2993
ho	-2994
pr	-2995
rt	-2996
Hey	-2997
asp	-2998
cho	-2999
elf	-3000
gun	-3001
inc	-3002
oah	-3003
omm	-3004
ped	-3005
pse	-3006
pth	-3007
ral	-3008
ric	-3009
ury	-3010
▁TV	-3011
That	-3012
anch	-3013
iest	-3014
igot	-3015
ills	-3016
ilty	-3017
inks	-3018
ison	-3019
itud	-3020
olom	-3021
oser	-3022
real	-3023
reds	-3024
ship	-3025
ules	-3026
well	-3027
▁Big	-3028
▁Dog	-3029
▁Wel	-3030
▁die	-3031
▁dyn	-3032
▁ens	-3033
▁lib	-3034
▁mur	-3035
▁net	-3036
▁odd	-3037
▁sch	-3038
▁spo	-3039
▁vol	-3040
▁vul	-3041
▁Dead	-3042
▁Does	-3043
▁Fish	-3044
▁Fuck	-3045
▁Have	-3046
▁Over	-3047
▁Town	-3048
▁fell	-3049
▁frag	-3050
▁half	-3051
▁insp	-3052
▁none	-3053
▁pill	-3054
▁puts	-3055
▁root	-3056
▁sake	-3057
▁spot	-3058
▁tend	-3059
▁vibr	-3060
▁whom	-3061
ailing	-3062
anding	-3063
ection	-3064
ressed	-3065
ulated	-3066
vering	-3067
▁Drive	-3068
▁asked	-3069
▁depth	-3070
▁favor	-3071
▁large	-3072
▁limit	-3073
▁major	-3074
▁newly	-3075
▁pulls	-3076
▁sales	-3077
▁shown	-3078
▁sweat	-3079
▁texts	-3080
▁track	-3081
▁woman	-3082
ossible	-3083
ruction	-3084
▁Philip	-3085
▁Surely	-3086
▁affect	-3087
▁astute	-3088
▁camera	-3089
▁clouds	-3090
▁friend	-3091
▁guilty	-3092
▁iconic	-3093
▁layers	-3094
▁market	-3095
▁mining	-3096
▁mornin	-3097
▁mystic	-3098
▁pauses	-3099
▁report	-3100
▁search	-3101
▁spigot	-3102
▁spring	-3103
▁turned	-3104
▁vulner	-3105
▁walked	-3106
lessness	-3107
▁authors	-3108
▁coaster	-3109
▁convers	-3110
▁journey	-3111
▁oneself	-3112
▁passage	-3113
▁reaches	-3114
▁teacher	-3115
▁witness	-3116
▁Backstar	-3117
▁absolute	-3118
▁accurate	-3119
▁appeared	-3120
▁confused	-3121
▁contains	-3122
▁entrance	-3123
▁floating	-3124
▁overwhel	-3125
▁positive	-3126
▁reminder	-3127
▁revealed	-3128
▁separate	-3129
▁suddenly	-3130
▁thematic	-3131
▁continued	-3132
▁innocence	-3133
▁organized	-3134
▁realizing	-3135
▁scattered	-3136
▁situation	-3137
▁transport	-3138
▁uncertain	-3139
ultaneously	-3140
▁constantly	-3141
▁definitely	-3142
▁perception	-3143
▁ridiculous	-3144
organization	-3145
▁development	-3146
▁experienced	-3147
▁remembering	-3148
▁conversation	-3149
▁experiencing	-3150
▁publications	-3151
▁subconscious	-3152
▁understanding	-3153
An	-3154
Are	-3155
RIA	-3156
aby	-3157
eds	-3158
end	-3159
hmm	-3160
inn	-3161
lus	-3162
pet	-3163
ray	-3164
set	-3165
tin	-3166
you	-3167
▁Cl	-3168
▁Ye	-3169
▁na	-3170
Yeah	-3171
alth	-3172
asis	-3173
bing	-3174
bled	-3175
bone	-3176
enty	-3177
ests	-3178
onse	-3179
otch	-3180
otic	-3181
pend	-3182
shif	-3183
type	-3184
ulpt	-3185
vert	-3186
xual	-3187
▁fol	-3188
▁iss	-3189
▁joy	-3190
▁mus	-3191
▁pat	-3192
▁pot	-3193
▁saw	-3194
▁son	-3195
▁sym	-3196
▁vac	-3197
amily	-3198
aming	-3199
ander	-3200
andom	-3201
atory	-3202
azade	-3203
ember	-3204
ently	-3205
haust	-3206
icles	-3207
ongue	-3208
order	-3209
osite	-3210
stead	-3211
▁Come	-3212
▁Hell	-3213
▁Puff	-3214
▁Tobi	-3215
▁argu	-3216
▁ball	-3217
▁burn	-3218
▁carr	-3219
▁ears	-3220
▁echo	-3221
▁feet	-3222
▁loop	-3223
▁loud	-3224
▁mass	-3225
▁pack	-3226
▁post	-3227
▁radi	-3228
▁soul	-3229
▁tree	-3230
▁twir	-3231
▁weep	-3232
apping	-3233
arrass	-3234
atever	-3235
enture	-3236
iation	-3237
olomon	-3238
▁Notes	-3239
▁Talib	-3240
▁begun	-3241
▁blank	-3242
▁books	-3243
▁domin	-3244
▁dynam	-3245
▁grand	-3246
▁grass	-3247
▁inner	-3248
▁notes	-3249
▁revel	-3250
▁short	-3251
▁stick	-3252
▁sweet	-3253
▁terms	-3254
▁waves	-3255
▁wrote	-3256
▁Second	-3257
▁asking	-3258
▁aspect	-3259
▁barely	-3260
▁breath	-3261
▁caused	-3262
▁exists	-3263
▁growth	-3264
▁hardly	-3265
▁horrif	-3266
▁ignore	-3267
▁intens	-3268
▁mental	-3269
▁placed	-3270
▁plenty	-3271
▁remake	-3272
▁result	-3273
▁scroll	-3274
▁sculpt	-3275
▁smiles	-3276
▁tongue	-3277
▁unlike	-3278
▁window	-3279
ceptions	-3280
herazade	-3281
ronistic	-3282
▁Flooded	-3283
▁Instead	-3284
▁Welcome	-3285
▁automat	-3286
▁beneath	-3287
▁claimed	-3288
▁display	-3289
▁exhaust	-3290
▁glasses	-3291
▁learned	-3292
▁library	-3293
▁variety	-3294
▁watches	-3295
▁DreamRIA	-3296
▁Fishbone	-3297
▁ailments	-3298
▁backward	-3299
▁business	-3300
▁confront	-3301
▁dialogic	-3302
▁directly	-3303
▁dripping	-3304
▁entities	-3305
▁extended	-3306
▁monument	-3307
▁purposes	-3308
▁response	-3309
▁returned	-3310
▁spinning	-3311
▁stranger	-3312
▁sweating	-3313
▁versions	-3314
▁according	-3315
▁batteries	-3316
▁beautiful	-3317
▁breathing	-3318
▁container	-3319
▁depending	-3320
▁emotional	-3321
▁multiplic	-3322
▁observing	-3323
▁sensation	-3324
▁thousands	-3325
▁appearance	-3326
▁impossible	-3327
▁mentioning	-3328
▁repetition	-3329
▁subjective	-3330
▁imagination	-3331
▁individuals	-3332
▁simultaneously	-3333
bi	-3334
ec	-3335
ug	-3336
Sub	-3337
Why	-3338
alm	-3339
den	-3340
ema	-3341
gth	-3342
ief	-3343
ipp	-3344
oke	-3345
pre	-3346
pri	-3347
ram	-3348
row	-3349
run	-3350
vis	-3351
zen	-3352
▁Ex	-3353
▁Lo	-3354
▁Ob	-3355
▁Sc	-3356
▁um	-3357
Wait	-3358
ants	-3359
cend	-3360
ench	-3361
ened	-3362
ield	-3363
iver	-3364
look	-3365
miss	-3366
omed	-3367
ompl	-3368
onym	-3369
osen	-3370
path	-3371
pond	-3372
sert	-3373
uman	-3374
▁Art	-3375
▁Bun	-3376
▁Det	-3377
▁Its	-3378
▁Let	-3379
▁amb	-3380
▁anx	-3381
▁arm	-3382
▁bub	-3383
▁cou	-3384
▁dry	-3385
▁eng	-3386
▁gen	-3387
▁lik	-3388
▁lon	-3389
▁mic	-3390
▁nod	-3391
▁spl	-3392
▁tor	-3393
▁tub	-3394
▁und	-3395
▁yep	-3396
eness	-3397
erson	-3398
gener	-3399
iddle	-3400
idian	-3401
inary	-3402
inema	-3403
inter	-3404
odies	-3405
ribut	-3406
stood	-3407
▁Didn	-3408
▁Many	-3409
▁Post	-3410
▁Step	-3411
▁Summ	-3412
▁base	-3413
▁cann	-3414
▁capt	-3415
▁cars	-3416
▁clog	-3417
▁cold	-3418
▁deal	-3419
▁desk	-3420
▁dirt	-3421
▁ends	-3422
▁feat	-3423
▁hers	-3424
▁hous	-3425
▁idol	-3426
▁isol	-3427
▁knob	-3428
▁labe	-3429
▁laws	-3430
▁lose	-3431
▁nerv	-3432
▁perf	-3433
▁puff	-3434
▁scen	-3435
▁sent	-3436
▁sets	-3437
▁side	-3438
▁year	-3439
action	-3440
imilar	-3441
opping	-3442
overed	-3443
▁Bound	-3444
▁Sking	-3445
▁Which	-3446
▁analy	-3447
▁anger	-3448
▁assum	-3449
▁avoid	-3450
▁clean	-3451
▁color	-3452
▁colum	-3453
▁escap	-3454
▁etern	-3455
▁falls	-3456
▁freak	-3457
▁grasp	-3458
▁heavy	-3459
▁infin	-3460
▁intim	-3461
▁manip	-3462
▁metal	-3463
▁minim	-3464
▁model	-3465
▁multi	-3466
▁opens	-3467
▁paint	-3468
▁plumm	-3469
▁ready	-3470
▁spark	-3471
▁spoil	-3472
▁stuff	-3473
▁synch	-3474
▁thank	-3475
▁theat	-3476
▁tight	-3477
▁walks	-3478
▁weeks	-3479
▁wheel	-3480
▁whose	-3481
aryland	-3482
▁Family	-3483
▁Markus	-3484
▁acting	-3485
▁anonym	-3486
▁bright	-3487
▁carpet	-3488
▁chosen	-3489
▁cursed	-3490
▁fallen	-3491
▁forces	-3492
▁laughs	-3493
▁looked	-3494
▁mirror	-3495
▁months	-3496
▁murder	-3497
▁parody	-3498
▁random	-3499
▁riding	-3500
▁sexual	-3501
▁simple	-3502
ological	-3503
▁Biggest	-3504
▁Solomon	-3505
▁abandon	-3506
▁ability	-3507
▁absence	-3508
▁central	-3509
▁classes	-3510
▁clothes	-3511
▁curious	-3512
▁driving	-3513
▁finding	-3514
▁heading	-3515
▁letting	-3516
▁nervous	-3517
▁plastic	-3518
▁proceed	-3519
▁pulling	-3520
▁pushing	-3521
▁readers	-3522
▁replace	-3523
▁reverse	-3524
▁suppose	-3525
▁sustain	-3526
▁theming	-3527
▁thereof	-3528
▁tunnels	-3529
▁turning	-3530
▁visited	-3531
▁animated	-3532
▁creative	-3533
▁entirety	-3534
▁favorite	-3535
▁haunting	-3536
▁imagined	-3537
▁innocent	-3538
▁interior	-3539
▁internal	-3540
▁metaphor	-3541
▁movement	-3542
▁narrator	-3543
▁observed	-3544
▁observer	-3545
▁opposite	-3546
▁patterns	-3547
▁perceive	-3548
▁provides	-3549
▁recorded	-3550
▁signific	-3551
▁wondered	-3552
plications	-3553
▁Skingraft	-3554
▁attempted	-3555
▁concerned	-3556
▁correctly	-3557
▁embarrass	-3558
▁literally	-3559
▁monologic	-3560
▁monologue	-3561
▁projected	-3562
▁published	-3563
▁shoulders	-3564
▁waterfall	-3565
▁Imaginator	-3566
▁Publishing	-3567
▁adaptation	-3568
▁boundaries	-3569
▁collection	-3570
▁formations	-3571
▁importance	-3572
▁recreation	-3573
▁structures	-3574
▁supposedly	-3575
▁transition	-3576
▁comfortable	-3577
▁considering	-3578
▁perceptions	-3579
▁Boundaryland	-3580
▁observations	-3581
▁communication	-3582
▁consciousness	-3583
▁investigation	-3584
▁reorganization	-3585
Ch	-3586
ee	-3587
fl	-3588
no	-3589
ux	-3590
alg	-3591
amm	-3592
can	-3593
ici	-3594
ids	-3595
iet	-3596
ler	-3597
let	-3598
ley	-3599
lls	-3600
oll	-3601
oor	-3602
pie	-3603
pro	-3604
ses	-3605
she	-3606
▁Le	-3607
▁Up	-3608
▁bi	-3609
▁cy	-3610
Stop	-3611
acts	-3612
ague	-3613
ails	-3614
ansc	-3615
anus	-3616
ards	-3617
augh	-3618
cent	-3619
chen	-3620
empl	-3621
fuck	-3622
hent	-3623
ires	-3624
irth	-3625
itch	-3626
izza	-3627
leas	-3628
okes	-3629
oney	-3630
reci	-3631
rief	-3632
tere	-3633
they	-3634
uing	-3635
▁Cut	-3636
▁Des	-3637
▁Our	-3638
▁aff	-3639
▁eff	-3640
▁inh	-3641
▁jud	-3642
▁kit	-3643
▁leg	-3644
▁low	-3645
▁opt	-3646
▁ord	-3647
▁ten	-3648
▁wel	-3649
ament	-3650
aning	-3651
aught	-3652
aware	-3653
bered	-3654
ckets	-3655
eless	-3656
galow	-3657
going	-3658
oning	-3659
posed	-3660
quare	-3661
stage	-3662
ufact	-3663
ulate	-3664
ushed	-3665
▁Comp	-3666
▁Here	-3667
▁Wasn	-3668
▁Were	-3669
▁Yeah	-3670
▁adap	-3671
▁bull	-3672
▁clut	-3673
▁copy	-3674
▁edge	-3675
▁flow	-3676
▁glim	-3677
▁grab	-3678
▁heat	-3679
▁legs	-3680
▁lens	-3681
▁lock	-3682
▁mere	-3683
▁page	-3684
▁prep	-3685
▁rein	-3686
▁rele	-3687
▁risk	-3688
▁save	-3689
▁sees	-3690
▁send	-3691
▁sequ	-3692
▁shad	-3693
▁snap	-3694
▁snow	-3695
▁soci	-3696
▁soft	-3697
▁swim	-3698
▁trap	-3699
▁wish	-3700
Gibsey	-3701
encies	-3702
idence	-3703
integr	-3704
itudes	-3705
rences	-3706
▁Ariel	-3707
▁Being	-3708
▁Daily	-3709
▁Death	-3710
▁Front	-3711
▁Gibsy	-3712
▁Janus	-3713
▁achie	-3714
▁brand	-3715
▁buddy	-3716
▁cases	-3717
▁conce	-3718
▁count	-3719
▁craft	-3720
▁dread	-3721
▁edges	-3722
▁fault	-3723
▁flash	-3724
▁flood	-3725
▁guide	-3726
▁hotel	-3727
▁ignor	-3728
▁incor	-3729
▁knock	-3730
▁lonel	-3731
▁reads	-3732
▁share	-3733
▁stars	-3734
▁storm	-3735
▁stuck	-3736
▁third	-3737
▁types	-3738
▁visit	-3739
▁walls	-3740
▁yours	-3741
connect	-3742
lection	-3743
respond	-3744
ulation	-3745
umbling	-3746
undreds	-3747
▁Always	-3748
▁Marvin	-3749
▁Modern	-3750
▁Wouldn	-3751
▁Yearly	-3752
▁animal	-3753
▁chimes	-3754
▁climax	-3755
▁ending	-3756
▁enters	-3757
▁expand	-3758
▁frozen	-3759
▁fucker	-3760
▁ghosts	-3761
▁haunts	-3762
▁insane	-3763
▁lights	-3764
▁locate	-3765
▁manner	-3766
▁medias	-3767
▁mentor	-3768
▁middle	-3769
▁motion	-3770
▁rising	-3771
▁ritual	-3772
▁rivers	-3773
▁select	-3774
▁slowly	-3775
▁titled	-3776
▁travel	-3777
▁warned	-3778
▁writer	-3779
entially	-3780
▁Stephen	-3781
▁accompl	-3782
▁address	-3783
▁anybody	-3784
▁appreci	-3785
▁authent	-3786
▁causing	-3787
▁conserv	-3788
▁consist	-3789
▁cutting	-3790
▁episode	-3791
▁forming	-3792
▁general	-3793
▁greater	-3794
▁highway	-3795
▁imagine	-3796
▁kitchen	-3797
▁liminal	-3798
▁lurches	-3799
▁perfect	-3800
▁pouring	-3801
▁putting	-3802
▁quickly	-3803
▁respect	-3804
▁shaking	-3805
▁welcome	-3806
artmental	-3807
generated	-3808
▁Bungalow	-3809
▁Frontier	-3810
▁addition	-3811
▁approach	-3812
▁chattere	-3813
▁combined	-3814
▁everyday	-3815
▁finished	-3816
▁illusion	-3817
▁infinity	-3818
▁manufact	-3819
▁obsessed	-3820
▁pathways	-3821
▁physical	-3822
▁planning	-3823
▁promised	-3824
▁restroom	-3825
▁symbolic	-3826
▁ultimate	-3827
▁Detection	-3828
▁anonymity	-3829
▁childhood	-3830
▁confusion	-3831
▁contribut	-3832
▁discussed	-3833
▁inability	-3834
▁partially	-3835
▁recognize	-3836
▁screening	-3837
▁searching	-3838
▁Artificial	-3839
▁authorship	-3840
▁correspond	-3841
▁discovered	-3842
▁everywhere	-3843
▁expression	-3844
▁identified	-3845
▁inevitable	-3846
▁interrupts	-3847
▁loneliness	-3848
▁maintained	-3849
▁organizing	-3850
▁traditions	-3851
▁Tempestuous	-3852
▁consciously	-3853
▁hallucination	-3854
▁investigating	-3855
▁possibilities	-3856
▁Subversionists	-3857
!-	-3858
?)	-3859
Ah	-3860
br	-3861
ov	-3862
ya	-3863
ze	-3864
zz	-3865
?--	-3866
bby	-3867
dom	-3868
erc	-3869
fer	-3870
iot	-3871
mon	-3872
mth	-3873
rue	-3874
ule	-3875
▁Ah	-3876
▁Ap	-3877
▁Bl	-3878
▁En	-3879
▁Go	-3880
▁ax	-3881
This	-3882
With	-3883
athe	-3884
ball	-3885
cast	-3886
cony	-3887
dern	-3888
ibal	-3889
ites	-3890
life	-3891
ores	-3892
ptom	-3893
rick	-3894
rill	-3895
sels	-3896
uity	-3897
umin	-3898
ustr	-3899
wait	-3900
with	-3901
writ	-3902
▁Fin	-3903
▁Has	-3904
▁New	-3905
▁Rem	-3906
▁Str	-3907
▁ago	-3908
▁bed	-3909
▁eat	-3910
▁enj	-3911
▁gle	-3912
▁hat	-3913
▁med	-3914
▁mel	-3915
▁nor	-3916
▁psy	-3917
▁rip	-3918
▁unn	-3919
▁wid	-3920
There	-3921
affic	-3922
apped	-3923
ateur	-3924
attle	-3925
eding	-3926
encil	-3927
erous	-3928
eterm	-3929
eting	-3930
eyser	-3931
iated	-3932
ivers	-3933
lines	-3934
oming	-3935
ommun	-3936
ssess	-3937
style	-3938
wness	-3939
works	-3940
ysers	-3941
▁Flor	-3942
▁From	-3943
▁Gill	-3944
▁Inte	-3945
▁Kala	-3946
▁Last	-3947
▁Mine	-3948
▁Most	-3949
▁None	-3950
▁Once	-3951
▁Plus	-3952
▁Sche	-3953
▁asce	-3954
▁bill	-3955
▁blog	-3956
▁bran	-3957
▁busy	-3958
▁code	-3959
▁cran	-3960
▁dust	-3961
▁enem	-3962
▁foot	-3963
▁free	-3964
▁gift	-3965
▁grin	-3966
▁grip	-3967
▁halt	-3968
▁hamm	-3969
▁hole	-3970
▁hung	-3971
▁keys	-3972
▁laid	-3973
▁maps	-3974
▁meet	-3975
▁nost	-3976
▁pure	-3977
▁redu	-3978
▁requ	-3979
▁rule	-3980
▁says	-3981
▁shel	-3982
▁shop	-3983
▁sigh	-3984
▁star	-3985
▁subs	-3986
▁suff	-3987
▁test	-3988
▁thro	-3989
▁torn	-3990
▁wear	-3991
▁week	-3992
▁west	-3993
alysts	-3994
arison	-3995
ectual	-3996
herent	-3997
iences	-3998
rarily	-3999
rified	-4000
urally	-4001
▁Might	-4002
▁Train	-4003
▁Water	-4004
▁awake	-4005
▁birth	-4006
▁brief	-4007
▁calls	-4008
▁cards	-4009
▁carry	-4010
▁cells	-4011
▁disgu	-4012
▁doors	-4013
▁exerc	-4014
▁faces	-4015
▁field	-4016
▁folks	-4017
▁guilt	-4018
▁horiz	-4019
▁kinds	-4020
▁lobby	-4021
▁mixed	-4022
▁monop	-4023
▁reput	-4024
▁reven	-4025
▁sight	-4026
▁skull	-4027
▁spook	-4028
▁stamm	-4029
▁stead	-4030
▁surpr	-4031
▁touch	-4032
▁trick	-4033
▁unrel	-4034
▁utter	-4035
▁waste	-4036
▁wrink	-4037
astical	-4038
created	-4039
ference	-4040
ication	-4041
inction	-4042
itating	-4043
shifter	-4044
sidered	-4045
▁Nights	-4046
▁Sounds	-4047
▁adjust	-4048
▁agents	-4049
▁assume	-4050
▁auteur	-4051
▁beings	-4052
▁bodies	-4053
▁brings	-4054
▁closer	-4055
▁compan	-4056
▁desert	-4057
▁events	-4058
▁filing	-4059
▁franch	-4060
▁frustr	-4061
▁golden	-4062
▁height	-4063
▁houses	-4064
▁intent	-4065
▁inward	-4066
▁leaves	-4067
▁master	-4068
▁mixing	-4069
▁modern	-4070
▁mostly	-4071
▁opened	-4072
▁paying	-4073
▁piling	-4074
▁points	-4075
▁roller	-4076
▁scotch	-4077
▁seated	-4078
▁slight	-4079
▁spoken	-4080
▁transc	-4081
▁trauma	-4082
▁twists	-4083
▁unsure	-4084
▁warmth	-4085
ortunity	-4086
▁Company	-4087
▁Grander	-4088
▁Mystery	-4089
▁amateur	-4090
▁anxiety	-4091
▁balance	-4092
▁balcony	-4093
▁bottles	-4094
▁chaotic	-4095
▁chooses	-4096
▁confron	-4097
▁contact	-4098
▁creates	-4099
▁creator	-4100
▁culture	-4101
▁decided	-4102
▁failure	-4103
▁figures	-4104
▁filling	-4105
▁fingers	-4106
▁friends	-4107
▁geysers	-4108
▁intense	-4109
▁letters	-4110
▁literal	-4111
▁located	-4112
▁mirrors	-4113
▁mystics	-4114
▁newness	-4115
▁privile	-4116
▁product	-4117
▁promise	-4118
▁reached	-4119
▁returns	-4120
▁sadness	-4121
▁shocked	-4122
▁special	-4123
▁symptom	-4124
▁tangled	-4125
▁traffic	-4126
▁viewers	-4127
▁wanting	-4128
▁willing	-4129
connected	-4130
ellectual	-4131
▁Whatever	-4132
▁anywhere	-4133
▁arguably	-4134
▁branches	-4135
▁breaking	-4136
▁classics	-4137
▁clogging	-4138
▁conjured	-4139
▁contempl	-4140
▁contrast	-4141
▁decision	-4142
▁distract	-4143
▁hundreds	-4144
▁misunder	-4145
▁passages	-4146
▁presence	-4147
▁problems	-4148
▁property	-4149
▁provided	-4150
▁shoulder	-4151
▁skipping	-4152
▁Floridian	-4153
▁arbitrary	-4154
▁authentic	-4155
▁certainty	-4156
▁direction	-4157
▁disasters	-4158
▁disintegr	-4159
▁implement	-4160
▁including	-4161
▁intensity	-4162
▁listening	-4163
▁naturally	-4164
▁splitting	-4165
▁absolutely	-4166
▁attempting	-4167
▁chattering	-4168
▁collecting	-4169
▁comparison	-4170
▁considered	-4171
▁continuing	-4172
▁developing	-4173
▁multitudes	-4174
▁reflection	-4175
▁repeatedly	-4176
▁stretching	-4177
▁struggling	-4178
▁Information	-4179
▁Interesting	-4180
▁arbitrarily	-4181
▁essentially	-4182
▁established	-4183
▁fantastical	-4184
▁investigate	-4185
▁opportunity	-4186
▁responsible	-4187
▁traditional	-4188
▁uncertainty	-4189
▁Scheherazade	-4190
▁Synchronistic	-4191
▁compartmental	-4192
▁multiplicitous	-4193
Is	-4194
OV	-4195
Or	-4196
pa	-4197
yl	-4198
▁x	-4199
Did	-4200
ear	-4201
eed	-4202
igo	-4203
ken	-4204
lly	-4205
mak	-4206
mes	-4207
oly	-4208
put	-4209
rib	-4210
udd	-4211
uit	-4212
upp	-4213
was	-4214
▁Sa	-4215
▁ce	-4216
▁od	-4217
Hell	-4218
Look	-4219
acle	-4220
angs	-4221
ault	-4222
bear	-4223
bell	-4224
cart	-4225
down	-4226
iled	-4227
ique	-4228
irts	-4229
lear	-4230
pled	-4231
quid	-4232
soci	-4233
ster	-4234
uild	-4235
utes	-4236
vent	-4237
vial	-4238
▁Ant	-4239
▁Hmm	-4240
▁POV	-4241
▁Whe	-4242
▁cyc	-4243
▁deb	-4244
▁div	-4245
▁fan	-4246
▁fix	-4247
▁hig	-4248
▁mid	-4249
▁mud	-4250
▁oft	-4251
▁sat	-4252
▁scr	-4253
▁sea	-4254
▁sib	-4255
▁tow	-4256
▁unl	-4257
▁unw	-4258
▁ves	-4259
▁wis	-4260
Glyph	-4261
algia	-4262
anced	-4263
anges	-4264
anted	-4265
apses	-4266
entle	-4267
human	-4268
icing	-4269
ictor	-4270
lings	-4271
oking	-4272
onely	-4273
ouldn	-4274
rough	-4275
umble	-4276
vered	-4277
▁Cont	-4278
▁Damn	-4279
▁Loss	-4280
▁Only	-4281
▁Read	-4282
▁Upon	-4283
▁acid	-4284
▁acts	-4285
▁arch	-4286
▁beam	-4287
▁cred	-4288
▁dise	-4289
▁disp	-4290
▁doll	-4291
▁dull	-4292
▁embr	-4293
▁excl	-4294
▁food	-4295
▁fool	-4296
▁harm	-4297
▁hour	-4298
▁link	-4299
▁mill	-4300
▁myth	-4301
▁ours	-4302
▁peak	-4303
▁phot	-4304
▁pile	-4305
▁size	-4306
▁sket	-4307
▁suck	-4308
▁tabl	-4309
▁tale	-4310
▁task	-4311
▁tele	-4312
▁tray	-4313
▁trou	-4314
▁valu	-4315
▁whis	-4316
change	-4317
iaries	-4318
icated	-4319
iously	-4320
isible	-4321
itated	-4322
lights	-4323
ograph	-4324
ounter	-4325
soever	-4326
struct	-4327
terior	-4328
umbles	-4329
umping	-4330
verage	-4331
▁Enter	-4332
▁Pizza	-4333
▁Power	-4334
▁Start	-4335
▁Storm	-4336
▁Under	-4337
▁Words	-4338
▁added	-4339
▁areas	-4340
▁behav	-4341
▁bench	-4342
▁blame	-4343
▁bones	-4344
▁chest	-4345
▁clust	-4346
▁cover	-4347
▁cross	-4348
▁cryst	-4349
▁dance	-4350
▁drive	-4351
▁dwell	-4352
▁elect	-4353
▁enjoy	-4354
▁explo	-4355
▁guard	-4356
▁hired	-4357
▁inhab	-4358
▁irony	-4359
▁items	-4360
▁keeps	-4361
▁learn	-4362
▁lived	-4363
▁moves	-4364
▁names	-4365
▁nause	-4366
▁newer	-4367
▁pleas	-4368
▁quiet	-4369
▁resur	-4370
▁scrap	-4371
▁slide	-4372
▁slipp	-4373
▁steel	-4374
▁tells	-4375
▁trash	-4376
▁trees	-4377
▁vague	-4378
▁worst	-4379
▁young	-4380
Chapter	-4381
ailable	-4382
atively	-4383
ierarch	-4384
iration	-4385
panding	-4386
▁Before	-4387
▁aching	-4388
▁associ	-4389
▁attach	-4390
▁clicks	-4391
▁compet	-4392
▁corpor	-4393
▁denial	-4394
▁errors	-4395
▁father	-4396
▁fellow	-4397
▁finger	-4398
▁groups	-4399
▁guests	-4400
▁highly	-4401
▁invent	-4402
▁ladies	-4403
▁lately	-4404
▁laying	-4405
▁locked	-4406
▁lonely	-4407
▁missed	-4408
▁normal	-4409
▁occurs	-4410
▁palace	-4411
▁papers	-4412
▁passes	-4413
▁pencil	-4414
▁played	-4415
▁preced	-4416
▁preser	-4417
▁relief	-4418
▁rumors	-4419
▁skills	-4420
▁speaks	-4421
▁spells	-4422
▁spread	-4423
▁strate	-4424
▁strong	-4425
▁viewer	-4426
▁worked	-4427
ictorian	-4428
izations	-4429
ressions	-4430
▁Waiting	-4431
▁ancient	-4432
▁animate	-4433
▁burning	-4434
▁columns	-4435
▁critics	-4436
▁descend	-4437
▁element	-4438
▁emptied	-4439
▁excited	-4440
▁forcing	-4441
▁harness	-4442
▁hitting	-4443
▁horizon	-4444
▁illumin	-4445
▁insight	-4446
▁minutes	-4447
▁network	-4448
▁ongoing	-4449
▁peeling	-4450
▁pillars	-4451
▁possess	-4452
▁radiant	-4453
▁respond	-4454
▁ringing	-4455
▁rumored	-4456
▁seeming	-4457
▁sliding	-4458
▁society	-4459
▁support	-4460
▁weather	-4461
▁whoever	-4462
asionally	-4463
etermined	-4464
▁Remember	-4465
▁appropri	-4466
▁arranged	-4467
▁bringing	-4468
▁cannibal	-4469
▁clicking	-4470
▁commonly	-4471
▁delusion	-4472
▁designed	-4473
▁doubling	-4474
▁eternity	-4475
▁existing	-4476
▁features	-4477
▁fragment	-4478
▁mistakes	-4479
▁mountain	-4480
▁ordinary	-4481
▁particip	-4482
▁sequence	-4483
▁shooting	-4484
▁somebody	-4485
▁students	-4486
▁warnings	-4487
ronicities	-4488
▁Financial	-4489
▁authority	-4490
▁colonized	-4491
▁condition	-4492
▁considers	-4493
▁copyright	-4494
▁creations	-4495
▁endlessly	-4496
▁following	-4497
▁franchise	-4498
▁generated	-4499
▁hopefully	-4500
▁influence	-4501
▁occurring	-4502
▁perceived	-4503
▁practices	-4504
▁processes	-4505
▁recreated	-4506
▁repeating	-4507
▁temporary	-4508
▁trembling	-4509
▁wondering	-4510
▁Extraction	-4511
▁commitment	-4512
▁conclusion	-4513
▁conditions	-4514
▁discussing	-4515
▁discussion	-4516
▁exhaustion	-4517
▁exposition	-4518
▁literature	-4519
▁reflecting	-4520
▁remembered	-4521
▁repression	-4522
▁reputation	-4523
▁revolution	-4524
▁successful	-4525
▁whatsoever	-4526
▁description	-4527
▁familiarity	-4528
▁information	-4529
▁originality	-4530
▁practically	-4531
▁transformed	-4532
▁Intelligence	-4533
▁accumulating	-4534
▁construction	-4535
▁intellectual	-4536
▁interrupting	-4537
▁professional	-4538
▁predetermined	-4539
▁disappearances	-4540
▁transportation	-4541
?'	-4542
Ok	-4543
co	-4544
ek	-4545
fs	-4546
gl	-4547
ik	-4548
nu	-4549
pm	-4550
po	-4551
Don	-4552
add	-4553
ado	-4554
agg	-4555
ags	-4556
amp	-4557
arm	-4558
aze	-4559
bec	-4560
cav	-4561
cco	-4562
cor	-4563
eep	-4564
ees	-4565
eks	-4566
eps	-4567
ffe	-4568
gor	-4569
ico	-4570
irm	-4571
now	-4572
oel	-4573
osp	-4574
ref	-4575
rop	-4576
unk	-4577
zed	-4578
▁Ad	-4579
▁Tr	-4580
▁et	-4581
▁ir	-4582
▁ok	-4583
▁ur	-4584
aked	-4585
amil	-4586
aroo	-4587
arot	-4588
biqu	-4589
chan	-4590
exas	-4591
hers	-4592
ivan	-4593
ltra	-4594
noon	-4595
pire	-4596
pple	-4597
romy	-4598
seen	-4599
sequ	-4600
spir	-4601
tell	-4602
ties	-4603
time	-4604
uted	-4605
▁Abd	-4606
▁Dad	-4607
▁Ind	-4608
▁See	-4609
▁Two	-4610
▁bin	-4611
▁boy	-4612
▁bro	-4613
▁cry	-4614
▁din	-4615
▁dot	-4616
▁ele	-4617
▁equ	-4618
▁fac	-4619
▁flu	-4620
▁god	-4621
▁jew	-4622
▁kid	-4623
▁lam	-4624
▁lif	-4625
▁reb	-4626
▁rhy	-4627
▁rub	-4628
▁six	-4629
▁wan	-4630
Laugh	-4631
acity	-4632
adict	-4633
ading	-4634
annel	-4635
ashed	-4636
ashes	-4637
ctory	-4638
enced	-4639
espie	-4640
incip	-4641
isses	-4642
jects	-4643
level	-4644
maker	-4645
mmhmm	-4646
neath	-4647
omach	-4648
ource	-4649
oving	-4650
rical	-4651
ushes	-4652
ustom	-4653
▁"...	-4654
▁Anti	-4655
▁Both	-4656
▁Ecco	-4657
▁Into	-4658
▁Lake	-4659
▁Main	-4660
▁Pict	-4661
▁Show	-4662
▁Such	-4663
▁Will	-4664
▁axis	-4665
▁baby	-4666
▁bast	-4667
▁bath	-4668
▁bats	-4669
▁bond	-4670
▁born	-4671
▁calm	-4672
▁damp	-4673
▁diag	-4674
▁dizz	-4675
▁doub	-4676
▁exit	-4677
▁fast	-4678
▁faux	-4679
▁fine	-4680
▁fold	-4681
▁fund	-4682
▁gate	-4683
▁harr	-4684
▁hide	-4685
▁inse	-4686
▁judg	-4687
▁lake	-4688
▁ling	-4689
▁lips	-4690
▁moon	-4691
▁push	-4692
▁rage	-4693
▁rail	-4694
▁ring	-4695
▁rust	-4696
▁shut	-4697
▁snif	-4698
▁stal	-4699
▁summ	-4700
▁toil	-4701
▁tool	-4702
▁usel	-4703
▁vide	-4704
▁wild	-4705
▁wine	-4706
Laughs	-4707
ashing	-4708
atural	-4709
damnit	-4710
ership	-4711
essing	-4712
icking	-4713
idding	-4714
levant	-4715
linear	-4716
olving	-4717
omfort	-4718
ooking	-4719
rowave	-4720
shirts	-4721
stance	-4722
versal	-4723
▁Beaut	-4724
▁Hello	-4725
▁Ifrit	-4726
▁Legal	-4727
▁Tarot	-4728
▁Texas	-4729
▁angle	-4730
▁artif	-4731
▁awful	-4732
▁catch	-4733
▁chair	-4734
▁codes	-4735
▁coinc	-4736
▁cream	-4737
▁creat	-4738
▁cried	-4739
▁defic	-4740
▁deser	-4741
▁drool	-4742
▁enfor	-4743
▁error	-4744
▁excav	-4745
▁extre	-4746
▁faced	-4747
▁faith	-4748
▁films	-4749
▁fract	-4750
▁gasps	-4751
▁grabs	-4752
▁heads	-4753
▁hears	-4754
▁hoped	-4755
▁impro	-4756
▁innov	-4757
▁issue	-4758
▁kinda	-4759
▁loses	-4760
▁media	-4761
▁modes	-4762
▁money	-4763
▁older	-4764
▁party	-4765
▁peers	-4766
▁recon	-4767
▁relax	-4768
▁resol	-4769
▁rules	-4770
▁shame	-4771
▁sides	-4772
▁stack	-4773
▁stain	-4774
▁store	-4775
▁table	-4776
▁tales	-4777
▁ubiqu	-4778
▁using	-4779
▁yells	-4780
agement	-4781
ameless	-4782
amiliar	-4783
ctually	-4784
ediment	-4785
iciency	-4786
ishment	-4787
ography	-4788
ulating	-4789
ullivan	-4790
▁Misses	-4791
▁Scient	-4792
▁Square	-4793
▁Tunnel	-4794
▁angles	-4795
▁announ	-4796
▁assert	-4797
▁bottom	-4798
▁caught	-4799
▁causes	-4800
▁consum	-4801
▁crying	-4802
▁custom	-4803
▁deaths	-4804
▁desper	-4805
▁determ	-4806
▁dinner	-4807
▁dissip	-4808
▁doomed	-4809
▁drives	-4810
▁echoes	-4811
▁episod	-4812
▁exceed	-4813
▁except	-4814
▁expans	-4815
▁facing	-4816
▁famous	-4817
▁fourth	-4818
▁gentle	-4819
▁gibsey	-4820
▁helped	-4821
▁hiding	-4822
▁higher	-4823
▁incess	-4824
▁inform	-4825
▁intend	-4826
▁liquid	-4827
▁lovers	-4828
▁mechan	-4829
▁medley	-4830
▁merely	-4831
▁movies	-4832
▁nobody	-4833
▁portal	-4834
▁purity	-4835
▁purple	-4836
▁regret	-4837
▁ridden	-4838
▁sacrif	-4839
▁scenes	-4840
▁school	-4841
▁shadow	-4842
▁shifts	-4843
▁silver	-4844
▁spiral	-4845
▁stares	-4846
▁throat	-4847
▁transl	-4848
▁underw	-4849
▁winter	-4850
inations	-4851
ountered	-4852
▁Despite	-4853
▁Subject	-4854
▁Summary	-4855
▁Whether	-4856
▁allowed	-4857
▁artific	-4858
▁average	-4859
▁battery	-4860
▁calling	-4861
▁channel	-4862
▁clarity	-4863
▁cloning	-4864
▁colored	-4865
▁comment	-4866
▁conspir	-4867
▁corrupt	-4868
▁courses	-4869
▁crafted	-4870
▁decides	-4871
▁discour	-4872
▁dismiss	-4873
▁distant	-4874
▁dreamed	-4875
▁escaped	-4876
▁explore	-4877
▁extract	-4878
▁figured	-4879
▁flowing	-4880
▁greatly	-4881
▁invaded	-4882
▁justify	-4883
▁keeping	-4884
▁leaking	-4885
▁managed	-4886
▁mindset	-4887
▁monopol	-4888
▁nearing	-4889
▁neither	-4890
▁obvious	-4891
▁phrases	-4892
▁planned	-4893
▁pointed	-4894
▁pretend	-4895
▁princip	-4896
▁rainbow	-4897
▁reinfor	-4898
▁related	-4899
▁remains	-4900
▁repeats	-4901
▁running	-4902
▁screams	-4903
▁shelter	-4904
▁showing	-4905
▁spinner	-4906
▁sputter	-4907
▁stomach	-4908
▁subvert	-4909
▁tablets	-4910
▁twisted	-4911
▁typical	-4912
▁useless	-4913
▁vertigo	-4914
▁vessels	-4915
▁winding	-4916
expanding	-4917
istically	-4918
▁Mystical	-4919
▁Thousand	-4920
▁achieved	-4921
▁animates	-4922
▁articles	-4923
▁detached	-4924
▁drinking	-4925
▁dynamite	-4926
▁exercise	-4927
▁families	-4928
▁focusing	-4929
▁greatest	-4930
▁honestly	-4931
▁included	-4932
▁inspired	-4933
▁invasion	-4934
▁learning	-4935
▁minecart	-4936
▁promises	-4937
▁siblings	-4938
▁smallest	-4939
▁spoilers	-4940
▁stopping	-4941
▁sunlight	-4942
▁surfaces	-4943
▁suspects	-4944
▁swirling	-4945
▁symptoms	-4946
▁telepath	-4947
▁unfortun	-4948
Subversion	-4949
▁Gillespie	-4950
▁Synchromy	-4951
▁Victorian	-4952
▁abandoned	-4953
▁accepting	-4954
▁afternoon	-4955
▁automatic	-4956
▁automaton	-4957
▁available	-4958
▁backstage	-4959
▁basically	-4960
▁cluttered	-4961
▁dangerous	-4962
▁extension	-4963
▁fundament	-4964
▁harrowing	-4965
▁ignorance	-4966
▁interview	-4967
▁invisible	-4968
▁isolation	-4969
▁microwave	-4970
▁mountains	-4971
▁obviously	-4972
▁petrified	-4973
▁popularly	-4974
▁positions	-4975
▁powerless	-4976
▁practiced	-4977
▁professor	-4978
▁protected	-4979
▁resurrect	-4980
▁screaming	-4981
▁scrolling	-4982
▁spiritual	-4983
▁stretched	-4984
▁suggested	-4985
▁thrusting	-4986
▁uncomfort	-4987
▁witnessed	-4988
▁Conclusion	-4989
▁appreciate	-4990
▁associated	-4991
▁background	-4992
▁definitive	-4993
▁department	-4994
▁digressive	-4995
▁horrifying	-4996
▁initiation	-4997
▁intentions	-4998
▁meaningful	-4999
▁mechanical	-5000
▁underneath	-5001
▁understood	-5002
▁unfamiliar	-5003
▁unreliable	-5004
▁communicate	-5005
▁corporation	-5006
▁encountered	-5007
▁incessantly	-5008
▁maintaining	-5009
▁performance	-5010
▁significant	-5011
▁singularity	-5012
▁accidentally	-5013
▁artificially	-5014
▁chatterering	-5015
▁conservative	-5016
▁disappearing	-5017
▁expositional	-5018
▁implications	-5019
▁introductory	-5020
▁occasionally	-5021
▁overwhelming	-5022
▁powerlessness	-5023
▁technological	-5024
▁interconnected	-5025
▁representation	-5026
?!	-5027
If	-5028
PS	-5029
Re	-5030
do	-5031
--"	-5032
?),	-5033
Huh	-5034
aky	-5035
ama	-5036
att	-5037
aws	-5038
bel	-5039
cur	-5040
cut	-5041
gue	-5042
hod	-5043
ias	-5044
lec	-5045
omb	-5046
omy	-5047
ope	-5048
oph	-5049
rel	-5050
rog	-5051
see	-5052
upt	-5053
who	-5054
yss	-5055
▁"'	-5056
▁By	-5057
▁Ca	-5058
▁Fe	-5059
▁Fu	-5060
▁NO	-5061
▁Sl	-5062
▁Us	-5063
▁Ut	-5064
▁ah	-5065
▁ec	-5066
When	-5067
abor	-5068
aids	-5069
ancy	-5070
apse	-5071
aret	-5072
awed	-5073
azed	-5074
bles	-5075
bows	-5076
char	-5077
cket	-5078
eted	-5079
ffee	-5080
fied	-5081
gies	-5082
hhhh	-5083
hole	-5084
inds	-5085
ingu	-5086
irds	-5087
kind	-5088
mark	-5089
ners	-5090
odge	-5091
pair	-5092
ples	-5093
pret	-5094
prov	-5095
rous	-5096
scre	-5097
sive	-5098
spic	-5099
umps	-5100
unct	-5101
vern	-5102
vive	-5103
▁AIs	-5104
▁Att	-5105
▁Car	-5106
▁Era	-5107
▁GPS	-5108
▁Too	-5109
▁Yep	-5110
▁asc	-5111
▁avo	-5112
▁bul	-5113
▁ded	-5114
▁fem	-5115
▁fis	-5116
▁gar	-5117
▁hom	-5118
▁hyp	-5119
▁len	-5120
▁mat	-5121
▁men	-5122
▁pin	-5123
▁pod	-5124
▁pul	-5125
▁rom	-5126
▁roy	-5127
▁sal	-5128
▁sin	-5129
▁ske	-5130
▁sle	-5131
▁squ	-5132
▁tag	-5133
▁tip	-5134
▁unm	-5135
▁unp	-5136
▁vir	-5137
agrap	-5138
alley	-5139
azing	-5140
bably	-5141
bitch	-5142
books	-5143
ected	-5144
esque	-5145
getic	-5146
ifest	-5147
ioned	-5148
iring	-5149
ising	-5150
itter	-5151
ltraP	-5152
novel	-5153
ocaly	-5154
opted	-5155
orous	-5156
place	-5157
power	-5158
rible	-5159
tical	-5160
ultip	-5161
using	-5162
vices	-5163
▁Bank	-5164
▁Book	-5165
▁CEOs	-5166
▁Chat	-5167
▁Code	-5168
▁Hear	-5169
▁Keep	-5170
▁King	-5171
▁Life	-5172
▁Nope	-5173
▁Tell	-5174
▁Then	-5175
▁Very	-5176
▁Wind	-5177
▁arts	-5178
▁beat	-5179
▁belt	-5180
▁chor	-5181
▁clar	-5182
▁cris	-5183
▁crum	-5184
▁debt	-5185
▁deer	-5186
▁defe	-5187
▁dumb	-5188
▁emph	-5189
▁extr	-5190
▁fade	-5191
▁fork	-5192
▁glad	-5193
▁glow	-5194
▁grim	-5195
▁hang	-5196
▁hero	-5197
▁holl	-5198
▁hosp	-5199
▁inde	-5200
▁intu	-5201
▁jinn	-5202
▁joke	-5203
▁jump	-5204
▁laby	-5205
▁lift	-5206
▁male	-5207
▁merm	-5208
▁nods	-5209
▁odor	-5210
▁pair	-5211
▁pond	-5212
▁prim	-5213
▁purg	-5214
▁purs	-5215
▁quot	-5216
▁rise	-5217
▁salt	-5218
▁skip	-5219
▁sque	-5220
▁stab	-5221
▁thou	-5222
▁unst	-5223
▁warn	-5224
▁went	-5225
▁woah	-5226
▁zoom	-5227
alance	-5228
alling	-5229
ancing	-5230
apable	-5231
asures	-5232
commun	-5233
estern	-5234
iguity	-5235
inting	-5236
isions	-5237
itical	-5238
itting	-5239
oulder	-5240
ounded	-5241
rength	-5242
▁Brand	-5243
▁Caves	-5244
▁Doesn	-5245
▁Hmmmm	-5246
▁Lodge	-5247
▁Never	-5248
▁Other	-5249
▁Think	-5250
▁abyss	-5251
▁adult	-5252
▁balls	-5253
▁basin	-5254
▁basis	-5255
▁beast	-5256
▁brass	-5257
▁carts	-5258
▁chalk	-5259
▁click	-5260
▁clips	-5261
▁costs	-5262
▁court	-5263
▁crank	-5264
▁curve	-5265
▁devil	-5266
▁drain	-5267
▁dress	-5268
▁drink	-5269
▁email	-5270
▁fills	-5271
▁flick	-5272
▁games	-5273
▁goers	-5274
▁greet	-5275
▁grown	-5276
▁hopes	-5277
▁hours	-5278
▁idiot	-5279
▁imbec	-5280
▁liked	-5281
▁local	-5282
▁logic	-5283
▁loves	-5284
▁lunch	-5285
▁match	-5286
▁minds	-5287
▁molec	-5288
▁motiv	-5289
▁motto	-5290
▁noise	-5291
▁pause	-5292
▁plain	-5293
▁plays	-5294
▁plots	-5295
▁print	-5296
▁psych	-5297
▁reass	-5298
▁reloc	-5299
▁serve	-5300
▁shake	-5301
▁shine	-5302
▁shows	-5303
▁shuff	-5304
▁smoke	-5305
▁souls	-5306
▁spect	-5307
▁speed	-5308
▁spent	-5309
▁spray	-5310
▁stone	-5311
▁stood	-5312
▁swear	-5313
▁telev	-5314
▁tired	-5315
▁versa	-5316
▁vivid	-5317
▁wings	-5318
alistic	-5319
anation	-5320
fulness	-5321
igation	-5322
inating	-5323
itching	-5324
meaning	-5325
retched	-5326
unction	-5327
▁Arioel	-5328
▁Auteur	-5329
▁Beauty	-5330
▁Cinema	-5331
▁Mmmhmm	-5332
▁Multip	-5333
▁Nature	-5334
▁Object	-5335
▁Profit	-5336
▁Review	-5337
▁Safety	-5338
▁UltraP	-5339
▁accrue	-5340
▁adding	-5341
▁aliens	-5342
▁assess	-5343
▁badass	-5344
▁battle	-5345
▁became	-5346
▁bottle	-5347
▁broken	-5348
▁carved	-5349
▁closed	-5350
▁coding	-5351
▁coffee	-5352
▁convin	-5353
▁copies	-5354
▁corner	-5355
▁cycles	-5356
▁damned	-5357
▁depths	-5358
▁dreamt	-5359
▁embell	-5360
▁empire	-5361
▁engine	-5362
▁ensure	-5363
▁etched	-5364
▁fairly	-5365
▁female	-5366
▁gender	-5367
▁hammer	-5368
▁headph	-5369
▁issues	-5370
▁jovial	-5371
▁labels	-5372
▁ladder	-5373
▁length	-5374
▁losses	-5375
▁maroon	-5376
▁method	-5377
▁myster	-5378
▁novels	-5379
▁orange	-5380
▁packed	-5381
▁pertin	-5382
▁pillar	-5383
▁prefer	-5384
▁profit	-5385
▁prompt	-5386
▁pushed	-5387
▁redund	-5388
▁reject	-5389
▁relate	-5390
▁remote	-5391
▁review	-5392
▁rights	-5393
▁scient	-5394
▁senses	-5395
▁sister	-5396
▁sniffs	-5397
▁splash	-5398
▁spokes	-5399
▁spooky	-5400
▁steady	-5401
▁street	-5402
▁strike	-5403
▁strung	-5404
▁suffer	-5405
▁taught	-5406
▁therap	-5407
▁titles	-5408
▁toilet	-5409
▁unbear	-5410
▁volume	-5411
▁wealth	-5412
▁widely	-5413
ensitive	-5414
ictional	-5415
▁Fucking	-5416
▁Picture	-5417
▁Strange	-5418
▁Through	-5419
▁Usually	-5420
▁Windows	-5421
▁adapted	-5422
▁amongst	-5423
▁bastard	-5424
▁benefit	-5425
▁boulder	-5426
▁capable	-5427
▁capture	-5428
▁century	-5429
▁chatter	-5430
▁cigaret	-5431
▁conjure	-5432
▁counter	-5433
▁despair	-5434
▁disease	-5435
▁doorway	-5436
▁encased	-5437
▁enemies	-5438
▁envelop	-5439
▁exploit	-5440
▁feature	-5441
▁forgive	-5442
▁ghostly	-5443
▁glimpse	-5444
▁heavily	-5445
▁honesty	-5446
▁kidding	-5447
▁labyrin	-5448
▁legally	-5449
▁mentors	-5450
▁mission	-5451
▁novelty	-5452
▁options	-5453
▁outward	-5454
▁overall	-5455
▁parking	-5456
▁prepare	-5457
▁private	-5458
▁railing	-5459
▁reasons	-5460
▁refrain	-5461
▁reminds	-5462
▁repetit	-5463
▁reports	-5464
▁restore	-5465
▁revenge	-5466
▁shifted	-5467
▁shouldn	-5468
▁silence	-5469
▁sockets	-5470
▁spirits	-5471
▁stained	-5472
▁stalact	-5473
▁statues	-5474
▁streets	-5475
▁stretch	-5476
▁stuffed	-5477
▁tension	-5478
▁trained	-5479
▁unaware	-5480
▁wearing	-5481
▁weeping	-5482
▁windows	-5483
abilities	-5484
organized	-5485
ructuring	-5486
▁Actually	-5487
▁Anything	-5488
▁Expected	-5489
▁Hierarch	-5490
▁Probably	-5491
▁Withheld	-5492
▁admitted	-5493
▁agencies	-5494
▁assigned	-5495
▁believed	-5496
▁birthday	-5497
▁blessing	-5498
▁boundary	-5499
▁capacity	-5500
▁creators	-5501
▁critical	-5502
▁discover	-5503
▁dominate	-5504
▁dwelling	-5505
▁elements	-5506
▁entering	-5507
▁episodes	-5508
▁exchange	-5509
▁exterior	-5510
▁failures	-5511
▁followed	-5512
▁hallways	-5513
▁hovering	-5514
▁incorpor	-5515
▁increase	-5516
▁interpre	-5517
▁involves	-5518
▁machines	-5519
▁magician	-5520
▁manifest	-5521
▁mermaids	-5522
▁mindless	-5523
▁networks	-5524
▁normally	-5525
▁paragrap	-5526
▁precious	-5527
▁profound	-5528
▁proposed	-5529
▁recreate	-5530
▁released	-5531
▁resemble	-5532
▁screened	-5533
▁selected	-5534
▁slipping	-5535
▁snapping	-5536
▁somewhat	-5537
▁strained	-5538
▁strength	-5539
▁stronger	-5540
▁subsumed	-5541
▁surprise	-5542
▁twirling	-5543
▁twisting	-5544
▁uniquely	-5545
▁universe	-5546
▁vertical	-5547
▁whenever	-5548
▁wrinkled	-5549
ographical	-5550
▁Everybody	-5551
▁alongside	-5552
▁animating	-5553
▁artifacts	-5554
▁ascension	-5555
▁believing	-5556
▁committed	-5557
▁community	-5558
▁companies	-5559
▁completed	-5560
▁darkening	-5561
▁destroyed	-5562
▁everybody	-5563
▁exceeding	-5564
▁extensive	-5565
▁fantasies	-5566
▁filmmaker	-5567
▁fragments	-5568
▁intensely	-5569
▁interpret	-5570
▁involving	-5571
▁linearity	-5572
▁monuments	-5573
▁movements	-5574
▁ownership	-5575
▁political	-5576
▁potential	-5577
▁presented	-5578
▁principal	-5579
▁privilege	-5580
▁purgatory	-5581
▁realistic	-5582
▁receiving	-5583
▁reception	-5584
▁sensitive	-5585
▁sexuality	-5586
▁strangest	-5587
▁struggles	-5588
▁substance	-5589
▁technique	-5590
▁traumatic	-5591
▁vibrating	-5592
▁wonderful	-5593
interesting	-5594
▁Appearance	-5595
▁Bankruptcy	-5596
▁Gibseydamn	-5597
▁accessible	-5598
▁accomplish	-5599
▁accumulate	-5600
▁approaches	-5601
▁assignment	-5602
▁complexity	-5603
▁conflicted	-5604
▁consistent	-5605
▁contradict	-5606
▁creativity	-5607
▁definition	-5608
▁detectives	-5609
▁disappears	-5610
▁dissimilar	-5611
▁experiment	-5612
▁explaining	-5613
▁innovative	-5614
▁interested	-5615
▁interjects	-5616
▁motivation	-5617
▁occurrence	-5618
▁perceiving	-5619
▁plummeting	-5620
▁previously	-5621
▁questioned	-5622
▁screenplay	-5623
▁stammering	-5624
▁television	-5625
▁transcript	-5626
▁ultimately	-5627
▁unbearable	-5628
▁underworld	-5629
▁vulnerable	-5630
▁Imaginators	-5631
▁UltraPerson	-5632
▁abandonment	-5633
▁adaptations	-5634
▁clothesline	-5635
▁confronting	-5636
▁definitions	-5637
▁differences	-5638
▁explanation	-5639
▁intentional	-5640
▁manufacture	-5641
▁monologuing	-5642
▁overwhelmed	-5643
▁problematic	-5644
▁progressive	-5645
▁questioning	-5646
▁researching	-5647
▁revelations	-5648
▁surrounding	-5649
▁tempestuous	-5650
▁threatening	-5651
▁transparent	-5652
communication	-5653
▁authenticity	-5654
▁communicated	-5655
▁embarrassing	-5656
▁establishing	-5657
▁performances	-5658
▁unexpectedly	-5659
▁entertainment	-5660
▁externalities	-5661
▁misunderstand	-5662
▁observational	-5663
▁vulnerability	-5664
▁identification	-5665
▁representative	-5666
.,	-5667
Sh	-5668
eg	-5669
my	-5670
ti	-5671
yr	-5672
!?"	-5673
All	-5674
How	-5675
Mal	-5676
Man	-5677
Pre	-5678
She	-5679
Who	-5680
ald	-5681
arc	-5682
arn	-5683
arp	-5684
asy	-5685
ato	-5686
azz	-5687
ban	-5688
cel	-5689
col	-5690
did	-5691
emb	-5692
eop	-5693
err	-5694
eve	-5695
has	-5696
het	-5697
hil	-5698
ica	-5699
imm	-5700
iny	-5701
irl	-5702
kay	-5703
lay	-5704
lim	-5705
obs	-5706
off	-5707
ohn	-5708
oir	-5709
olf	-5710
osm	-5711
owd	-5712
phy	-5713
poo	-5714
rec	-5715
reg	-5716
rer	-5717
tes	-5718
ugs	-5719
uzz	-5720
val	-5721
wan	-5722
xes	-5723
yay	-5724
ysf	-5725
▁Dr	-5726
▁Fr	-5727
▁Gl	-5728
▁Kn	-5729
▁Sp	-5730
▁Ty	-5731
▁eh	-5732
▁ju	-5733
Oren	-5734
Then	-5735
aint	-5736
alic	-5737
ands	-5738
apid	-5739
arls	-5740
arsh	-5741
aste	-5742
back	-5743
cano	-5744
cont	-5745
cure	-5746
dark	-5747
enry	-5748
eral	-5749
fits	-5750
gram	-5751
gree	-5752
grow	-5753
iate	-5754
into	-5755
ipes	-5756
isms	-5757
itor	-5758
lled	-5759
ocal	-5760
omes	-5761
oons	-5762
open	-5763
orig	-5764
orph	-5765
oved	-5766
ploy	-5767
rawl	-5768
rawn	-5769
reek	-5770
resh	-5771
roud	-5772
shit	-5773
shot	-5774
sing	-5775
uced	-5776
uest	-5777
urry	-5778
usal	-5779
uter	-5780
valu	-5781
wood	-5782
your	-5783
yram	-5784
▁Ang	-5785
▁Bet	-5786
▁Cle	-5787
▁Com	-5788
▁Eng	-5789
▁Exp	-5790
▁Fun	-5791
▁Kub	-5792
▁Mem	-5793
▁Mur	-5794
▁Oak	-5795
▁Old	-5796
▁Par	-5797
▁Unt	-5798
▁adm	-5799
▁ain	-5800
▁ant	-5801
▁awk	-5802
▁cal	-5803
▁cat	-5804
▁der	-5805
▁dim	-5806
▁dur	-5807
▁gul	-5808
▁gut	-5809
▁hey	-5810
▁hun	-5811
▁ing	-5812
▁jow	-5813
▁mad	-5814
▁mut	-5815
▁oil	-5816
▁pru	-5817
▁pun	-5818
▁rot	-5819
▁sne	-5820
▁spr	-5821
▁tab	-5822
▁tap	-5823
▁ton	-5824
▁upd	-5825
▁zig	-5826
Malik	-5827
acies	-5828
actic	-5829
again	-5830
aging	-5831
alled	-5832
amber	-5833
amous	-5834
angle	-5835
anite	-5836
arted	-5837
being	-5838
burst	-5839
child	-5840
crete	-5841
cross	-5842
eches	-5843
ented	-5844
essim	-5845
germs	-5846
ician	-5847
ipped	-5848
itled	-5849
itors	-5850
ittle	-5851
lling	-5852
ocked	-5853
owned	-5854
point	-5855
rehen	-5856
rying	-5857
seman	-5858
sides	-5859
while	-5860
▁Cast	-5861
▁Date	-5862
▁Each	-5863
▁Game	-5864
▁Hadn	-5865
▁Init	-5866
▁Jinn	-5867
▁John	-5868
▁Lord	-5869
▁Make	-5870
▁Nice	-5871
▁Nost	-5872
▁Text	-5873
▁Thru	-5874
▁Utah	-5875
▁abst	-5876
▁adds	-5877
▁appl	-5878
▁baff	-5879
▁bars	-5880
▁bear	-5881
▁boun	-5882
▁butt	-5883
▁cact	-5884
▁clay	-5885
▁conv	-5886
▁cool	-5887
▁craw	-5888
▁crun	-5889
▁cuts	-5890
▁date	-5891
▁dogs	-5892
▁drop	-5893
▁drum	-5894
▁dysf	-5895
▁ease	-5896
▁ecst	-5897
▁educ	-5898
▁emer	-5899
▁enth	-5900
▁eons	-5901
▁epic	-5902
▁esot	-5903
▁fake	-5904
▁firm	-5905
▁five	-5906
▁fuzz	-5907
▁gain	-5908
▁gems	-5909
▁gest	-5910
▁grac	-5911
▁grav	-5912
▁gust	-5913
▁hate	-5914
▁host	-5915
▁hurd	-5916
▁hurt	-5917
▁icon	-5918
▁info	-5919
▁jack	-5920
▁luck	-5921
▁mode	-5922
▁noun	-5923
▁obsc	-5924
▁pink	-5925
▁pots	-5926
▁prey	-5927
▁prop	-5928
▁puzz	-5929
▁rect	-5930
▁reli	-5931
▁rico	-5932
▁ship	-5933
▁shru	-5934
▁sink	-5935
▁sire	-5936
▁slos	-5937
▁stif	-5938
▁stir	-5939
▁styl	-5940
▁suit	-5941
▁tens	-5942
▁thin	-5943
▁tile	-5944
▁tone	-5945
▁uses	-5946
▁vain	-5947
▁vint	-5948
▁wart	-5949
▁whim	-5950
Please	-5951
asting	-5952
father	-5953
ferent	-5954
ilarly	-5955
isfied	-5956
itches	-5957
kayama	-5958
living	-5959
mitted	-5960
modern	-5961
oddamn	-5962
ogical	-5963
ollect	-5964
orious	-5965
parent	-5966
ptions	-5967
quired	-5968
rouded	-5969
urning	-5970
usting	-5971
utters	-5972
within	-5973
yramid	-5974
▁About	-5975
▁Blood	-5976
▁Cause	-5977
▁Earth	-5978
▁Entry	-5979
▁Great	-5980
▁Haven	-5981
▁Henry	-5982
▁River	-5983
▁Stick	-5984
▁Weren	-5985
▁Whole	-5986
▁allow	-5987
▁angry	-5988
▁annoy	-5989
▁apart	-5990
▁bangs	-5991
▁beams	-5992
▁beard	-5993
▁bunch	-5994
▁cared	-5995
▁carve	-5996
▁caves	-5997
▁cling	-5998
▁clone	-5999
▁condu	-6000
▁crowd	-6001
▁demol	-6002
▁dizzy	-6003
▁erupt	-6004
▁extra	-6005
▁facts	-6006
▁faded	-6007
▁figur	-6008
▁fresh	-6009
▁golly	-6010
▁grind	-6011
▁grins	-6012
▁hover	-6013
▁knees	-6014
▁layer	-6015
▁leads	-6016
▁liber	-6017
▁licks	-6018
▁lifet	-6019
▁likes	-6020
▁lower	-6021
▁lying	-6022
▁memor	-6023
▁micro	-6024
▁paras	-6025
▁patio	-6026
▁peace	-6027
▁peaks	-6028
▁plans	-6029
▁pores	-6030
▁proof	-6031
▁purch	-6032
▁recur	-6033
▁refer	-6034
▁repur	-6035
▁reson	-6036
▁retre	-6037
▁round	-6038
▁saved	-6039
▁scrib	-6040
▁simpl	-6041
▁slack	-6042
▁slips	-6043
▁spend	-6044
▁sport	-6045
▁steam	-6046
▁strip	-6047
▁swall	-6048
▁taste	-6049
▁throw	-6050
▁thumb	-6051
▁tough	-6052
▁trail	-6053
▁treas	-6054
▁twirl	-6055
▁unden	-6056
▁urban	-6057
▁usual	-6058
▁views	-6059
▁waits	-6060
▁wanna	-6061
▁wider	-6062
▁wound	-6063
▁wrest	-6064
Analyst	-6065
astrous	-6066
athered	-6067
forming	-6068
herents	-6069
inguish	-6070
orphous	-6071
pendent	-6072
reading	-6073
sequent	-6074
similar	-6075
tenance	-6076
uestion	-6077
uilding	-6078
written	-6079
▁Better	-6080
▁Couldn	-6081
▁Geyser	-6082
▁Marwan	-6083
▁Murphy	-6084
▁Person	-6085
▁Public	-6086
▁Unlike	-6087
▁Unprov	-6088
▁advert	-6089
▁affair	-6090
▁analyz	-6091
▁angels	-6092
▁appeal	-6093
▁applic	-6094
▁attend	-6095
▁beauty	-6096
▁behold	-6097
▁belong	-6098
▁blinds	-6099
▁brains	-6100
▁bubble	-6101
▁buckle	-6102
▁bursts	-6103
▁chords	-6104
▁chorus	-6105
▁cinema	-6106
▁circle	-6107
▁clones	-6108
▁corpse	-6109
▁couple	-6110
▁covers	-6111
▁damsel	-6112
▁darker	-6113
▁define	-6114
▁degree	-6115
▁dotted	-6116
▁embark	-6117
▁encour	-6118
▁exclus	-6119
▁explos	-6120
▁fading	-6121
▁faulty	-6122
▁flames	-6123
▁framed	-6124
▁geyser	-6125
▁glimps	-6126
▁handle	-6127
▁heaven	-6128
▁immers	-6129
▁indist	-6130
▁insert	-6131
▁integr	-6132
▁intric	-6133
▁ironic	-6134
▁jewels	-6135
▁killer	-6136
▁knobby	-6137
▁knocks	-6138
▁larger	-6139
▁lenses	-6140
▁levels	-6141
▁limits	-6142
▁linear	-6143
▁loudly	-6144
▁minute	-6145
▁option	-6146
▁passen	-6147
▁pessim	-6148
▁powers	-6149
▁purely	-6150
▁reform	-6151
▁reserv	-6152
▁reveal	-6153
▁romant	-6154
▁rooted	-6155
▁rushes	-6156
▁seized	-6157
▁selves	-6158
▁served	-6159
▁shakes	-6160
▁shared	-6161
▁shoots	-6162
▁silent	-6163
▁smells	-6164
▁source	-6165
▁spirit	-6166
▁stains	-6167
▁stared	-6168
▁states	-6169
▁statue	-6170
▁struck	-6171
▁studio	-6172
▁sucker	-6173
▁suspic	-6174
▁thrown	-6175
▁traces	-6176
▁tracks	-6177
▁transf	-6178
▁unfore	-6179
▁unless	-6180
▁useful	-6181
▁waking	-6182
▁wisdom	-6183
▁yellow	-6184
Gibseyan	-6185
Withheld	-6186
changing	-6187
crossing	-6188
elligent	-6189
entional	-6190
ronicity	-6191
stantial	-6192
▁Chatbot	-6193
▁Gibsyan	-6194
▁Kubrick	-6195
▁Reports	-6196
▁Summers	-6197
▁Theater	-6198
▁Without	-6199
▁advance	-6200
▁analyst	-6201
▁artists	-6202
▁asshole	-6203
▁avoided	-6204
▁awkward	-6205
▁blended	-6206
▁blowing	-6207
▁blurred	-6208
▁cameras	-6209
▁cartoon	-6210
▁changes	-6211
▁circles	-6212
▁clarify	-6213
▁conceiv	-6214
▁contend	-6215
▁costume	-6216
▁covered	-6217
▁defined	-6218
▁demonic	-6219
▁drawing	-6220
▁dreaded	-6221
▁easiest	-6222
▁facades	-6223
▁feeding	-6224
▁flooded	-6225
▁furious	-6226
▁glances	-6227
▁hanging	-6228
▁heavier	-6229
▁hurries	-6230
▁incline	-6231
▁insides	-6232
▁instant	-6233
▁involve	-6234
▁leaning	-6235
▁lessons	-6236
▁longing	-6237
▁looping	-6238
▁manages	-6239
▁markets	-6240
▁monster	-6241
▁pattern	-6242
▁peoples	-6243
▁placing	-6244
▁planted	-6245
▁pockets	-6246
▁podcast	-6247
▁printed	-6248
▁program	-6249
▁radical	-6250
▁raining	-6251
▁realism	-6252
▁records	-6253
▁refract	-6254
▁refusal	-6255
▁refuses	-6256
▁regular	-6257
▁removed	-6258
▁rushing	-6259
▁science	-6260
▁scrolls	-6261
▁singing	-6262
▁smashed	-6263
▁smiling	-6264
▁smoking	-6265
▁streams	-6266
▁surreal	-6267
▁survive	-6268
▁thunder	-6269
▁tornado	-6270
▁trusted	-6271
▁unclear	-6272
▁unnamed	-6273
▁utterly	-6274
▁vintage	-6275
▁violent	-6276
▁volcano	-6277
▁wanders	-6278
▁whisper	-6279
▁writers	-6280
▁yellows	-6281
notations	-6282
▁Disorder	-6283
▁Fukayama	-6284
▁Multiple	-6285
▁Overview	-6286
▁Redacted	-6287
▁Sullivan	-6288
▁abstract	-6289
▁adapting	-6290
▁affected	-6291
▁attached	-6292
▁bathroom	-6293
▁behavior	-6294
▁benefits	-6295
▁brightly	-6296
▁changing	-6297
▁chapters	-6298
▁claiming	-6299
▁clinging	-6300
▁collabor	-6301
▁collapse	-6302
▁concrete	-6303
▁constant	-6304
▁contexts	-6305
▁costumed	-6306
▁cranking	-6307
▁creature	-6308
▁crumpled	-6309
▁dangling	-6310
▁devilish	-6311
▁disguise	-6312
▁disorder	-6313
▁doubting	-6314
▁duration	-6315
▁earliest	-6316
▁ecstatic	-6317
▁electric	-6318
▁emotions	-6319
▁emphasis	-6320
▁energies	-6321
▁escaping	-6322
▁evolving	-6323
▁familial	-6324
▁guardian	-6325
▁horrible	-6326
▁horseman	-6327
▁hospital	-6328
▁inferred	-6329
▁informal	-6330
▁internet	-6331
▁location	-6332
▁mentally	-6333
▁mistaken	-6334
▁observes	-6335
▁organize	-6336
▁outburst	-6337
▁overhead	-6338
▁paneling	-6339
▁petition	-6340
▁pictured	-6341
▁reaching	-6342
▁receiver	-6343
▁relevant	-6344
▁reported	-6345
▁requires	-6346
▁secretly	-6347
▁sediment	-6348
▁shrouded	-6349
▁sickness	-6350
▁sketches	-6351
▁sounding	-6352
▁stalling	-6353
▁strategy	-6354
▁striking	-6355
▁stylized	-6356
▁synapses	-6357
▁themself	-6358
▁troubled	-6359
▁vacation	-6360
▁wandered	-6361
▁withheld	-6362
▁wretched	-6363
Previously	-6364
identified	-6365
performing	-6366
▁Nostalgia	-6367
▁Represent	-6368
▁Scientist	-6369
▁absurdity	-6370
▁adherents	-6371
▁adventure	-6372
▁ambiguity	-6373
▁animation	-6374
▁ascending	-6375
▁audiences	-6376
▁blackness	-6377
▁breakdown	-6378
▁buildings	-6379
▁cigarette	-6380
▁conflicts	-6381
▁dedicated	-6382
▁detection	-6383
▁determine	-6384
▁disguised	-6385
▁distances	-6386
▁excavated	-6387
▁follicles	-6388
▁happiness	-6389
▁interests	-6390
▁labyrinth	-6391
▁localized	-6392
▁mysticism	-6393
▁narrating	-6394
▁notebooks	-6395
▁obsession	-6396
▁obsessive	-6397
▁paragraph	-6398
▁perceives	-6399
▁perfectly	-6400
▁pertinent	-6401
▁practical	-6402
▁preserved	-6403
▁providing	-6404
▁reflected	-6405
▁regularly	-6406
▁resembles	-6407
▁scripture	-6408
▁seemingly	-6409
▁similarly	-6410
▁slippages	-6411
▁spiraling	-6412
▁standards	-6413
▁streaming	-6414
▁struggled	-6415
▁terrifies	-6416
▁twitching	-6417
▁universal	-6418
▁unnatural	-6419
▁Unprovided	-6420
▁acceptable	-6421
▁additional	-6422
▁amateurish	-6423
▁assumption	-6424
▁attachment	-6425
▁clustering	-6426
▁conspiracy	-6427
▁containing	-6428
▁difficulty	-6429
▁disastrous	-6430
▁documented	-6431
▁efficiency	-6432
▁functional	-6433
▁heightened	-6434
▁increasing	-6435
▁internally	-6436
▁introduced	-6437
▁ironically	-6438
▁nightmares	-6439
▁performing	-6440
▁positively	-6441
▁processing	-6442
▁production	-6443
▁protection	-6444
▁purposeful	-6445
▁represents	-6446
▁resolution	-6447
▁revelation	-6448
▁scientific	-6449
▁scriptures	-6450
▁sculptures	-6451
▁subsequent	-6452
▁telepathic	-6453
▁undeniable	-6454
▁unforeseen	-6455
▁vertically	-6456
ronistically	-6457
▁coincidence	-6458
▁combination	-6459
▁contributed	-6460
▁desperation	-6461
▁distinction	-6462
▁dysfunction	-6463
▁embarrassed	-6464
▁excessively	-6465
▁existential	-6466
▁expressions	-6467
▁frustration	-6468
▁generations	-6469
▁grandfather	-6470
▁grandparent	-6471
▁importantly	-6472
▁inspiration	-6473
▁interpreted	-6474
▁interrupted	-6475
▁limitations	-6476
▁objectivity	-6477
▁proceedings	-6478
▁realization	-6479
▁stalactites	-6480
▁strangeness	-6481
▁sustainable	-6482
▁Hierarchical	-6483
▁anticipation	-6484
▁continuously	-6485
▁difficulties	-6486
▁expectations	-6487
▁experimental	-6488
▁manufacturer	-6489
▁organization	-6490
▁particularly	-6491
▁subjectively	-6492
▁subsidiaries	-6493
▁Subversionist	-6494
▁automatically	-6495
▁consideration	-6496
▁disintegrated	-6497
▁hallucinating	-6498
▁inevitability	-6499
▁restructuring	-6500
▁revolutionary	-6501
▁individualized	-6502
▁Synchronicities	-6503
lo	-6504
oi	-6505
!!"	-6506
!).	-6507
Boi	-6508
CEO	-6509
acc	-6510
ael	-6511
auc	-6512
azy	-6513
eye	-6514
fty	-6515
haw	-6516
iac	-6517
icy	-6518
iev	-6519
ige	-6520
igg	-6521
ios	-6522
ixt	-6523
low	-6524
nag	-6525
nes	-6526
niv	-6527
oft	-6528
ops	-6529
ste	-6530
uge	-6531
ugg	-6532
vig	-6533
▁Co	-6534
▁DP	-6535
▁OH	-6536
▁VH	-6537
▁il	-6538
▁ra	-6539
Dick	-6540
Pear	-6541
They	-6542
Woah	-6543
Your	-6544
ares	-6545
aunt	-6546
axes	-6547
bits	-6548
case	-6549
cogn	-6550
corn	-6551
dead	-6552
door	-6553
edia	-6554
elve	-6555
eria	-6556
ffin	-6557
fill	-6558
gers	-6559
gged	-6560
happ	-6561
idue	-6562
iere	-6563
igns	-6564
ihil	-6565
inns	-6566
irls	-6567
keep	-6568
lers	-6569
math	-6570
olts	-6571
omen	-6572
onts	-6573
osop	-6574
pain	-6575
peak	-6576
plex	-6577
plif	-6578
pour	-6579
rils	-6580
ruly	-6581
sets	-6582
than	-6583
tory	-6584
umph	-6585
umst	-6586
upon	-6587
vice	-6588
west	-6589
▁Cap	-6590
▁Meg	-6591
▁Rel	-6592
▁Spl	-6593
▁Ter	-6594
▁VHS	-6595
▁Vac	-6596
▁ban	-6597
▁biz	-6598
▁box	-6599
Let	-6600
ean	-6601
got	-6602
oof	-6603
roc	-6604
rum	-6605
ued	-6606
▁Te	-6607
alue	-6608
bage	-6609
inct	-6610
olen	-6611
oles	-6612
oooo	-6613
some	-6614
very	-6615
will	-6616
▁Get	-6617
▁bow	-6618
▁bra	-6619
▁cul	-6620
▁cup	-6621
▁dog	-6622
▁eer	-6623
▁era	-6624
▁fle	-6625
▁fog	-6626
▁fut	-6627
▁gab	-6628
▁guy	-6629
▁ilk	-6630
▁jag	-6631
▁lun	-6632
▁lyr	-6633
▁nav	-6634
▁oak	-6635
▁sof	-6636
▁sto	-6637
▁thw	-6638
▁tro	-6639
▁tyr	-6640
▁wag	-6641
▁wow	-6642
Hello	-6643
State	-6644
Where	-6645
acles	-6646
adequ	-6647
after	-6648
alian	-6649
anger	-6650
anyon	-6651
aping	-6652
asses	-6653
astas	-6654
athed	-6655
atics	-6656
ayden	-6657
azine	-6658
balls	-6659
black	-6660
celer	-6661
chers	-6662
class	-6663
conds	-6664
cript	-6665
death	-6666
embod	-6667
enery	-6668
enses	-6669
eople	-6670
eprec	-6671
epsie	-6672
erate	-6673
eriol	-6674
gated	-6675
gging	-6676
ginal	-6677
gling	-6678
hered	-6679
hevel	-6680
hmmmm	-6681
ifies	-6682
imace	-6683
inder	-6684
itect	-6685
itude	-6686
ivist	-6687
lined	-6688
mical	-6689
nagog	-6690
named	-6691
niest	-6692
night	-6693
oding	-6694
olved	-6695
ommon	-6696
onism	-6697
oresc	-6698
oured	-6699
As	-6700
Not	-6701
Sit	-6702
ads	-6703
bes	-6704
chy	-6705
etr	-6706
his	-6707
och	-6708
rew	-6709
rid	-6710
ros	-6711
une	-6712
urb	-6713
zag	-6714
▁om	-6715
Like	-6716
aper	-6717
avel	-6718
cult	-6719
eshy	-6720
ians	-6721
ibst	-6722
init	-6723
iors	-6724
made	-6725
rier	-6726
rist	-6727
▁Imp	-6728
▁Spe	-6729
▁cot	-6730
▁mim	-6731
▁nut	-6732
▁wed	-6733
Gibst	-6734
allic	-6735
alore	-6736
ficit	-6737
pathy	-6738
reeze	-6739
riage	-6740
sorry	-6741
there	-6742
uated	-6743
ucing	-6744
wered	-6745
white	-6746
words	-6747
▁Area	-6748
▁Aust	-6749
▁Bell	-6750
▁Bill	-6751
▁Buck	-6752
▁Calm	-6753
▁Conf	-6754
▁Duck	-6755
▁Econ	-6756
▁Fant	-6757
▁Fool	-6758
▁Fore	-6759
▁Happ	-6760
▁Hate	-6761
▁Hold	-6762
▁Holy	-6763
▁Move	-6764
▁Much	-6765
▁Name	-6766
▁Oper	-6767
▁Pain	-6768
▁Pref	-6769
▁Room	-6770
▁Shot	-6771
▁Shut	-6772
▁Slop	-6773
▁Sort	-6774
▁Spec	-6775
▁Supp	-6776
▁Sure	-6777
▁Ways	-6778
▁West	-6779
▁Woah	-6780
▁Writ	-6781
▁abdu	-6782
▁ages	-6783
▁agre	-6784
▁amok	-6785
▁atom	-6786
▁atte	-6787
▁beer	-6788
▁bias	-6789
▁bite	-6790
▁brid	-6791
▁brow	-6792
▁burd	-6793
▁cack	-6794
▁cake	-6795
▁calc	-6796
▁cash	-6797
▁clue	-6798
▁cosm	-6799
Al	-6800
Of	-6801
Ph	-6802
Se	-6803
Was	-6804
asc	-6805
ked	-6806
kes	-6807
ork	-6808
▁Po	-6809
▁ba	-6810
aser	-6811
etic	-6812
hery	-6813
icer	-6814
icle	-6815
lish	-6816
nger	-6817
odal	-6818
olic	-6819
oose	-6820
oral	-6821
umes	-6822
uper	-6823
▁Ain	-6824
▁Wow	-6825
▁bor	-6826
▁ink	-6827
▁lan	-6828
▁rab	-6829
athem	-6830
orate	-6831
ptive	-6832
ravel	-6833
▁Morm	-6834
▁Prit	-6835
▁crad	-6836
▁cram	-6837
▁cure	-6838
▁deem	-6839
▁degr	-6840
▁disg	-6841
▁dish	-6842
▁doct	-6843
▁drun	-6844
▁dual	-6845
▁elev	-6846
▁ench	-6847
▁ende	-6848
▁exec	-6849
▁eyed	-6850
▁fash	-6851
▁folk	-6852
▁fort	-6853
▁gaps	-6854
▁gaze	-6855
▁girl	-6856
▁grew	-6857
▁hath	-6858
▁hint	-6859
▁hire	-6860
▁hits	-6861
▁hunt	-6862
▁inqu	-6863
▁join	-6864
▁kept	-6865
▁kick	-6866
▁lamb	-6867
▁lays	-6868
▁lets	-6869
▁loos	-6870
▁lots	-6871
▁magn	-6872
▁mala	-6873
▁meat	-6874
▁mini	-6875
▁moth	-6876
▁neon	-6877
▁nest	-6878
▁neur	-6879
▁nice	-6880
▁nose	-6881
▁pale	-6882
▁peek	-6883
▁plug	-6884
▁pois	-6885
▁poke	-6886
▁prem	-6887
▁prod	-6888
▁rate	-6889
▁ridd	-6890
▁road	-6891
▁role	-6892
▁rope	-6893
▁rows	-6894
▁safe	-6895
▁sale	-6896
▁sear	-6897
▁seek	-6898
▁sett	-6899
He	-6900
Tr	-6901
ws	-6902
Cor	-6903
bor	-6904
ege	-6905
had	-6906
hem	-6907
jud	-6908
new	-6909
arts	-6910
ateg	-6911
atin	-6912
ding	-6913
ette	-6914
iven	-6915
oted	-6916
▁Day	-6917
▁Got	-6918
▁Tol	-6919
▁Tre	-6920
▁fum	-6921
Maybe	-6922
asons	-6923
istle	-6924
ology	-6925
uding	-6926
▁Anim	-6927
▁Poor	-6928
▁brag	-6929
▁dart	-6930
▁lean	-6931
▁mamn	-6932
▁poly	-6933
▁pose	-6934
▁rode	-6935
▁slap	-6936
▁slob	-6937
▁sole	-6938
▁solo	-6939
▁spun	-6940
▁sway	-6941
▁tall	-6942
▁team	-6943
▁tied	-6944
▁twin	-6945
▁verb	-6946
▁vica	-6947
▁vice	-6948
▁wadd	-6949
▁wave	-6950
▁wore	-6951
▁zone	-6952
Arieol	-6953
alties	-6954
aneous	-6955
anking	-6956
antage	-6957
arshly	-6958
atable	-6959
aterer	-6960
coming	-6961
contin	-6962
deprec	-6963
elling	-6964
ements	-6965
ertips	-6966
gorith	-6967
growth	-6968
herman	-6969
iances	-6970
icians	-6971
icular	-6972
icured	-6973
inated	-6974
istory	-6975
ixture	-6976
mester	-6977
omatic	-6978
onally	-6979
orange	-6980
orical	-6981
orient	-6982
osedly	-6983
perial	-6984
preced	-6985
quered	-6986
rawled	-6987
rickle	-6988
ritory	-6989
stacle	-6990
stream	-6991
teller	-6992
ulence	-6993
utions	-6994
velace	-6995
versed	-6996
writer	-6997
ysical	-6998
▁Above	-6999
▁Angel	-7000
▁Child	-7001
▁Could	-7002
▁Funny	-7003
▁Goose	-7004
▁Light	-7005
▁Order	-7006
▁Since	-7007
▁Sleep	-7008
▁Sound	-7009
▁State	-7010
▁Thank	-7011
▁Tower	-7012
▁Truly	-7013
▁Vault	-7014
▁Weird	-7015
▁accru	-7016
▁agree	-7017
▁alche	-7018
▁alike	-7019
▁aloft	-7020
▁arrog	-7021
▁basic	-7022
▁birds	-7023
▁bitch	-7024
▁bleed	-7025
▁blend	-7026
▁bloom	-7027
▁blown	-7028
▁bonds	-7029
▁bored	-7030
▁brown	-7031
▁brush	-7032
▁buses	-7033
▁cacti	-7034
▁cheek	-7035
▁chunk	-7036
▁cited	-7037
▁claws	-7038
▁climb	-7039
▁clock	-7040
▁comic	-7041
▁compl	-7042
▁cough	-7043
▁crazy	-7044
▁creed	-7045
▁cries	-7046
▁crime	-7047
▁criss	-7048
▁crown	-7049
▁debts	-7050
▁decre	-7051
▁deity	-7052
▁desce	-7053
▁diagn	-7054
▁drawn	-7055
▁drops	-7056
▁eaten	-7057
▁eerie	-7058
▁enact	-7059
▁ended	-7060
▁enemy	-7061
▁entry	-7062
▁exits	-7063
▁fears	-7064
▁fence	-7065
▁fight	-7066
▁files	-7067
▁flies	-7068
▁flows	-7069
▁folds	-7070
▁foxes	-7071
▁glory	-7072
▁goods	-7073
▁grace	-7074
▁grips	-7075
▁guest	-7076
▁gulps	-7077
▁hated	-7078
▁hills	-7079
▁illus	-7080
▁imply	-7081
▁indic	-7082
▁ingen	-7083
▁input	-7084
▁joint	-7085
▁jowls	-7086
▁judge	-7087
▁jumps	-7088
▁knife	-7089
▁knobs	-7090
▁lacks	-7091
▁lasts	-7092
▁limbs	-7093
▁lones	-7094
▁loose	-7095
▁loser	-7096
▁lover	-7097
▁manus	-7098
▁mirth	-7099
▁mound	-7100
▁music	-7101
▁naive	-7102
▁nodes	-7103
▁occas	-7104
▁orbit	-7105
▁paran	-7106
▁phase	-7107
▁photo	-7108
▁picks	-7109
▁pipes	-7110
▁plush	-7111
▁poles	-7112
▁price	-7113
▁rapid	-7114
▁react	-7115
▁realm	-7116
▁rhyth	-7117
▁rocks	-7118
▁roots	-7119
▁schol	-7120
▁scram	-7121
▁scrat	-7122
▁shack	-7123
▁shaky	-7124
▁sharp	-7125
▁shell	-7126
▁shimm	-7127
▁shirt	-7128
▁shops	-7129
▁shots	-7130
▁songs	-7131
▁sorta	-7132
▁spont	-7133
▁stacc	-7134
▁stair	-7135
▁study	-7136
▁swims	-7137
▁swing	-7138
▁swirl	-7139
▁sworn	-7140
▁swung	-7141
▁tense	-7142
▁theor	-7143
▁tools	-7144
▁tower	-7145
▁trade	-7146
▁trips	-7147
▁twice	-7148
▁unres	-7149
▁untam	-7150
▁value	-7151
▁video	-7152
▁virus	-7153
▁wears	-7154
▁weepy	-7155
Phillip	-7156
Seconds	-7157
ainable	-7158
atching	-7159
aughter	-7160
avering	-7161
capable	-7162
colored	-7163
correct	-7164
endless	-7165
entimes	-7166
fucking	-7167
heveled	-7168
ictable	-7169
ifiable	-7170
istance	-7171
looking	-7172
mbolism	-7173
mission	-7174
nagogic	-7175
ountain	-7176
pically	-7177
plifier	-7178
rection	-7179
ructive	-7180
sidiary	-7181
uations	-7182
ulative	-7183
undated	-7184
versity	-7185
voluted	-7186
working	-7187
▁Action	-7188
▁Aeriol	-7189
▁Almost	-7190
▁Anyone	-7191
▁Brandi	-7192
▁Canyon	-7193
▁Contin	-7194
▁Donald	-7195
▁During	-7196
▁Forget	-7197
▁Future	-7198
▁Mining	-7199
▁Mister	-7200
▁Mystic	-7201
▁People	-7202
▁Rather	-7203
▁Spring	-7204
▁Valley	-7205
▁Vision	-7206
▁Willis	-7207
▁Within	-7208
▁actors	-7209
▁afford	-7210
▁apolog	-7211
▁assets	-7212
▁attack	-7213
▁autobi	-7214
▁behalf	-7215
▁belief	-7216
▁bitter	-7217
▁blurts	-7218
▁bother	-7219
▁career	-7220
▁carniv	-7221
▁causal	-7222
▁cavern	-7223
▁cement	-7224
▁cheeks	-7225
▁clever	-7226
▁closes	-7227
▁coffin	-7228
▁column	-7229
▁condem	-7230
▁conver	-7231
▁crisis	-7232
▁damage	-7233
▁debate	-7234
▁deeper	-7235
▁depend	-7236
▁disord	-7237
▁doubts	-7238
▁effort	-7239
▁emerge	-7240
▁employ	-7241
▁erupts	-7242
▁exited	-7243
▁extend	-7244
▁fields	-7245
▁financ	-7246
▁flawed	-7247
▁fleshy	-7248
▁floats	-7249
▁flying	-7250
▁follow	-7251
▁fronts	-7252
▁galore	-7253
▁gaslit	-7254
▁gettin	-7255
▁glance	-7256
▁gravel	-7257
▁habits	-7258
▁harder	-7259
▁hatred	-7260
▁headed	-7261
▁health	-7262
▁hollow	-7263
▁homage	-7264
▁hovers	-7265
▁hunger	-7266
▁hungry	-7267
▁jagged	-7268
▁latter	-7269
▁linked	-7270
▁lyrics	-7271
▁marble	-7272
▁marvel	-7273
▁mathem	-7274
▁midway	-7275
▁nausea	-7276
▁nearby	-7277
▁notion	-7278
▁orient	-7279
▁output	-7280
▁overth	-7281
▁paraly	-7282
▁pearls	-7283
▁perman	-7284
▁petals	-7285
▁plates	-7286
▁pocket	-7287
▁police	-7288
▁posing	-7289
▁poured	-7290
▁prepar	-7291
▁pulled	-7292
▁refers	-7293
▁remade	-7294
▁resist	-7295
▁riders	-7296
▁ripple	-7297
▁scenar	-7298
▁shitty	-7299
▁shoved	-7300
▁sketch	-7301
▁sleeve	-7302
▁spills	-7303
▁sprawl	-7304
▁square	-7305
▁stable	-7306
▁stasis	-7307
▁status	-7308
▁stolen	-7309
▁stoned	-7310
▁stones	-7311
▁string	-7312
▁swirls	-7313
▁switch	-7314
▁tables	-7315
▁talent	-7316
▁thrill	-7317
▁tricks	-7318
▁tumble	-7319
▁twitch	-7320
▁unorig	-7321
▁values	-7322
▁videos	-7323
▁viewed	-7324
▁visage	-7325
▁warped	-7326
▁wasted	-7327
▁watery	-7328
▁wheels	-7329
▁writes	-7330
ccording	-7331
controll	-7332
ffectual	-7333
itecture	-7334
ocalypse	-7335
organize	-7336
peakable	-7337
pendence	-7338
position	-7339
referent	-7340
ructions	-7341
shifting	-7342
▁America	-7343
▁Brayden	-7344
▁Captain	-7345
▁Certain	-7346
▁Descent	-7347
▁Diaries	-7348
▁English	-7349
▁Grimace	-7350
▁Happens	-7351
▁Initial	-7352
▁Italian	-7353
▁Preface	-7354
▁Prickle	-7355
▁Special	-7356
▁Tempest	-7357
▁Whoever	-7358
▁Writing	-7359
▁acceler	-7360
▁account	-7361
▁adopted	-7362
▁annoyed	-7363
▁anytime	-7364
▁articul	-7365
▁ascends	-7366
▁baffled	-7367
▁biggest	-7368
▁blazing	-7369
▁briefly	-7370
▁brittle	-7371
▁brother	-7372
▁careful	-7373
▁chamber	-7374
▁chronic	-7375
▁closely	-7376
▁college	-7377
▁concern	-7378
▁consume	-7379
▁coupled	-7380
▁crosses	-7381
▁crystal	-7382
▁curtain	-7383
▁dancing	-7384
▁dealing	-7385
▁defunct	-7386
▁descent	-7387
▁designs	-7388
▁digging	-7389
▁dollars	-7390
▁dreamer	-7391
▁drivers	-7392
▁dynamic	-7393
▁echoing	-7394
▁enforce	-7395
▁entrain	-7396
▁essence	-7397
▁exiting	-7398
▁exposed	-7399
▁extreme	-7400
▁factual	-7401
▁flashes	-7402
▁follows	-7403
▁fractal	-7404
▁framing	-7405
▁freaked	-7406
▁funding	-7407
▁garbage	-7408
▁gestalt	-7409
▁granite	-7410
▁gravity	-7411
▁harshly	-7412
▁heaving	-7413
▁helpful	-7414
▁history	-7415
▁ignited	-7416
▁ignored	-7417
▁inadequ	-7418
▁induced	-7419
▁inhabit	-7420
▁intimid	-7421
▁kingdom	-7422
▁labeled	-7423
▁limited	-7424
▁lingers	-7425
▁linking	-7426
▁logging	-7427
▁malaise	-7428
▁massive	-7429
▁melting	-7430
▁message	-7431
▁musical	-7432
▁mutters	-7433
▁nestled	-7434
▁nowhere	-7435
▁obscure	-7436
▁outline	-7437
▁painful	-7438
▁plunder	-7439
▁popcorn	-7440
▁pulsing	-7441
▁quietly	-7442
▁rebuild	-7443
▁recover	-7444
▁rectang	-7445
▁residue	-7446
▁resorts	-7447
▁revenue	-7448
▁reviews	-7449
▁rolling	-7450
▁scatter	-7451
▁scenery	-7452
▁secrecy	-7453
▁secrets	-7454
▁shadows	-7455
▁shivers	-7456
▁sincere	-7457
▁snaking	-7458
▁snapped	-7459
▁stacked	-7460
▁staying	-7461
▁stopped	-7462
▁stumble	-7463
▁swaying	-7464
▁tensing	-7465
▁textual	-7466
▁theatre	-7467
▁tonight	-7468
▁touches	-7469
▁trailbl	-7470
▁triumph	-7471
▁unravel	-7472
▁unstrap	-7473
▁updated	-7474
▁vaguely	-7475
▁venture	-7476
▁viewing	-7477
▁western	-7478
▁wishing	-7479
▁yelling	-7480
▁younger	-7481
Corporate	-7482
Situation	-7483
construct	-7484
fictional	-7485
initiated	-7486
modernism	-7487
rehensive	-7488
screening	-7489
umstances	-7490
velopment	-7491
▁Analysts	-7492
▁Everyone	-7493
▁Jackaroo	-7494
▁Language	-7495
▁Lovelace	-7496
▁Movement	-7497
▁Speaking	-7498
▁accessed	-7499
▁acquired	-7500
▁advances	-7501
▁algorith	-7502
▁allowing	-7503
▁analysts	-7504
▁answered	-7505
▁applying	-7506
▁billions	-7507
▁blending	-7508
▁blinking	-7509
▁bubbling	-7510
▁centered	-7511
▁churning	-7512
▁climbing	-7513
▁clusters	-7514
▁coasters	-7515
▁colonial	-7516
▁computer	-7517
▁concerns	-7518
▁connects	-7519
▁consumed	-7520
▁consumer	-7521
▁contrary	-7522
▁cradling	-7523
▁crawling	-7524
▁crevices	-7525
▁crystall	-7526
▁cultural	-7527
▁customer	-7528
▁deciding	-7529
▁declared	-7530
▁defeated	-7531
▁deficits	-7532
▁deserves	-7533
▁detailed	-7534
▁disembod	-7535
▁division	-7536
▁downpour	-7537
▁drooling	-7538
▁embraced	-7539
▁esoteric	-7540
▁evaluate	-7541
▁evidence	-7542
▁exciting	-7543
▁eyeballs	-7544
▁eyesight	-7545
▁featured	-7546
▁firework	-7547
▁flapping	-7548
▁fluoresc	-7549
▁forehead	-7550
▁frontier	-7551
▁funniest	-7552
▁gleaming	-7553
▁glimpses	-7554
▁gracious	-7555
▁grasping	-7556
▁grinding	-7557
▁grumbles	-7558
▁highways	-7559
▁horrific	-7560
▁humanity	-7561
▁ignoring	-7562
▁imbecile	-7563
▁impacted	-7564
▁imperial	-7565
▁improvis	-7566
▁incident	-7567
▁infamous	-7568
▁interact	-7569
▁intimacy	-7570
▁intimate	-7571
▁isolated	-7572
▁laughter	-7573
▁lighting	-7574
▁listened	-7575
▁lonesome	-7576
▁marriage	-7577
▁meanings	-7578
▁mentions	-7579
▁metastas	-7580
▁millions	-7581
▁mythical	-7582
▁nameless	-7583
▁nostrils	-7584
▁noticing	-7585
▁pictures	-7586
▁pleasure	-7587
▁plummets	-7588
▁prepared	-7589
▁prompted	-7590
▁railings	-7591
▁railroad	-7592
▁register	-7593
▁rejected	-7594
▁remotely	-7595
▁retreats	-7596
▁rotating	-7597
▁searches	-7598
▁semester	-7599
▁sinister	-7600
▁slightly	-7601
▁slippage	-7602
▁sloshing	-7603
▁sneaking	-7604
▁softness	-7605
▁solution	-7606
▁speeding	-7607
▁splinter	-7608
▁steering	-7609
▁stifling	-7610
▁suggests	-7611
▁swimming	-7612
▁tendency	-7613
▁theaters	-7614
▁threaten	-7615
▁throwing	-7616
▁totality	-7617
▁trailing	-7618
▁trembles	-7619
▁tumbling	-7620
▁unmoving	-7621
▁unpreced	-7622
▁variance	-7623
▁worrying	-7624
▁wrinkles	-7625
elligences	-7626
ifications	-7627
▁Attention	-7628
▁Corporate	-7629
▁Documents	-7630
▁Mormonism	-7631
▁Sensitive	-7632
▁Treasures	-7633
▁Waterfall	-7634
▁achieving	-7635
▁adjusting	-7636
▁advantage	-7637
▁aftermath	-7638
▁amorphous	-7639
▁amplifier	-7640
▁analyzing	-7641
▁announcer	-7642
▁appealing	-7643
▁backwards	-7644
▁behaviors	-7645
▁believers	-7646
▁brightens	-7647
▁capturing	-7648
▁challenge	-7649
▁chatterer	-7650
▁collector	-7651
▁conceived	-7652
▁conjuring	-7653
▁conquered	-7654
▁contacted	-7655
▁continual	-7656
▁corrected	-7657
▁creditors	-7658
▁customers	-7659
▁declining	-7660
▁designers	-7661
▁developer	-7662
▁dishonest	-7663
▁dismissal	-7664
▁displayed	-7665
▁diversity	-7666
▁dominated	-7667
▁effective	-7668
▁elsewhere	-7669
▁emptiness	-7670
▁energetic	-7671
▁enveloped	-7672
▁establish	-7673
▁eternally	-7674
▁expansion	-7675
▁expansive	-7676
▁expecting	-7677
▁fisherman	-7678
▁functions	-7679
▁headphone	-7680
▁immediate	-7681
▁immersion	-7682
▁increased	-7683
▁inhabited	-7684
▁locations	-7685
▁magically	-7686
▁manicured	-7687
▁masterpie	-7688
▁memorable	-7689
▁minimally	-7690
▁molecules	-7691
▁nostalgia	-7692
▁notorious	-7693
▁operators	-7694
▁organisms	-7695
▁overworld	-7696
▁parenting	-7697
▁performed	-7698
▁pretended	-7699
▁recording	-7700
▁referring	-7701
▁relegated	-7702
▁replacing	-7703
▁reservoir	-7704
▁respected	-7705
▁royalties	-7706
▁sacrifice	-7707
▁secondary	-7708
▁slightest	-7709
▁spotlight	-7710
▁stability	-7711
▁suffering	-7712
▁surrounds	-7713
▁sustained	-7714
▁symbolism	-7715
▁symbolize	-7716
▁talkative	-7717
▁territory	-7718
▁therapist	-7719
▁unknowing	-7720
▁vacations	-7721
▁variation	-7722
▁whereupon	-7723
inguishable	-7724
referential	-7725
▁Gibstorial	-7726
▁Scherazade	-7727
▁Subsidiary	-7728
▁acceptance	-7729
▁accidental	-7730
▁addressing	-7731
▁admittedly	-7732
▁alchemical	-7733
▁analytical	-7734
▁anticipate	-7735
▁circulated	-7736
▁clattering	-7737
▁comforting	-7738
▁companions	-7739
▁conference	-7740
▁containers	-7741
▁continuous	-7742
▁convoluted	-7743
▁describing	-7744
▁destroying	-7745
▁diagonally	-7746
▁directions	-7747
▁disgusting	-7748
▁disheveled	-7749
▁distracted	-7750
▁extinction	-7751
▁fingertips	-7752
▁foreground	-7753
▁frustrated	-7754
▁gibseydamn	-7755
▁harnessing	-7756
▁hypnagogic	-7757
▁iconically	-7758
▁illuminate	-7759
▁immaterial	-7760
▁impression	-7761
▁infinitely	-7762
▁influenced	-7763
▁inwardness	-7764
▁mainstream	-7765
▁manipulate	-7766
▁manuscript	-7767
▁monumental	-7768
▁mysterious	-7769
▁mystically	-7770
▁objectives	-7771
▁oftentimes	-7772
▁operations	-7773
▁personhood	-7774
▁physically	-7775
▁popularity	-7776
▁possession	-7777
▁practicing	-7778
▁productive	-7779
▁programmed	-7780
▁properties	-7781
▁recognized	-7782
▁recognizes	-7783
▁redundancy	-7784
▁regretting	-7785
▁reinforced	-7786
▁relatively	-7787
▁scribbling	-7788
▁sensations	-7789
▁shimmering	-7790
▁singularly	-7791
▁sputtering	-7792
▁surrounded	-7793
▁transforms	-7794
▁typewriter	-7795
▁ubiquitous	-7796
▁unresolved	-7797
▁vibrations	-7798
▁waterfalls	-7799
▁anticipated	-7800
▁appreciated	-7801
▁assumptions	-7802
▁beautifully	-7803
▁cannibalism	-7804
▁collectives	-7805
▁communities	-7806
▁conceivable	-7807
▁conditioned	-7808
▁destruction	-7809
▁destructive	-7810
▁differently	-7811
▁discussions	-7812
▁financially	-7813
▁fundamental	-7814
▁implemented	-7815
▁incorporate	-7816
▁independent	-7817
▁ineffectual	-7818
▁interviewer	-7819
▁maintenance	-7820
▁monopolized	-7821
▁multiplying	-7822
▁pessimistic	-7823
▁preparation	-7824
▁progression	-7825
▁recognition	-7826
▁reconstruct	-7827
▁reliability	-7828
▁repetitions	-7829
▁speculative	-7830
▁storyteller	-7831
▁substantial	-7832
▁transcripts	-7833
▁transported	-7834
▁unfortunate	-7835
▁unrealistic	-7836
▁unspeakable	-7837
Subversionist	-7838
▁Subjectivity	-7839
▁accomplished	-7840
▁anticipating	-7841
▁architecture	-7842
▁colonization	-7843
▁communicator	-7844
▁complexities	-7845
▁consistently	-7846
▁constructing	-7847
▁contemplated	-7848
▁contributing	-7849
▁definitively	-7850
▁gibseydamnit	-7851
▁grandparents	-7852
▁individually	-7853
▁instructions	-7854
▁interpretive	-7855
▁investigator	-7856
▁manipulation	-7857
▁metaphysical	-7858
▁multiplicity	-7859
▁necessitated	-7860
▁resurrecting	-7861
▁similarities	-7862
▁successfully	-7863
Subversionists	-7864
▁Gibstorically	-7865
▁cannibalistic	-7866
▁civilizations	-7867
▁communicative	-7868
▁comprehensive	-7869
▁contradiction	-7870
▁corresponding	-7871
▁incorporating	-7872
▁misunderstood	-7873
▁organizations	-7874
▁repetitiously	-7875
▁significantly	-7876
▁uncomfortable	-7877
▁unfamiliarity	-7878
▁unfortunately	-7879
▁unprecedented	-7880
▁classification	-7881
▁considerations	-7882
▁entertainments	-7883
▁instantaneously	-7884
▁meaninglessness	-7885
▁representations	-7886
▁synchronicities	-7887
▁underperforming	-7888
!),	-7889
?)-	-7890
See	-7891
ncy	-7892
oia	-7893
Year	-7894
afts	-7895
argu	-7896
aucr	-7897
aykh	-7898
bomb	-7899
born	-7900
comp	-7901
coon	-7902
didn	-7903
ehaw	-7904
kins	-7905
know	-7906
lets	-7907
lock	-7908
mend	-7909
note	-7910
oked	-7911
otee	-7912
ouns	-7913
ovie	-7914
rigu	-7915
ropy	-7916
true	-7917
uddy	-7918
uffs	-7919
wolf	-7920
▁Abs	-7921
▁Boy	-7922
▁Bye	-7923
▁Doe	-7924
▁Haw	-7925
▁Kab	-7926
▁nuc	-7927
▁rib	-7928
▁ugl	-7929
Sorry	-7930
agedy	-7931
agger	-7932
agues	-7933
alesc	-7934
algic	-7935
asket	-7936
bbing	-7937
chiev	-7938
cores	-7939
deaky	-7940
elids	-7941
enetr	-7942
ernal	-7943
evalu	-7944
event	-7945
faced	-7946
flies	-7947
floor	-7948
glass	-7949
hangs	-7950
hesia	-7951
hetic	-7952
icule	-7953
ideth	-7954
iforn	-7955
invis	-7956
iotic	-7957
leton	-7958
marks	-7959
omaly	-7960
onomy	-7961
oofus	-7962
orcel	-7963
ounce	-7964
rials	-7965
rilli	-7966
rison	-7967
ritch	-7968
ropic	-7969
shift	-7970
shirt	-7971
stein	-7972
stige	-7973
stros	-7974
uests	-7975
uffed	-7976
umped	-7977
vigil	-7978
▁Also	-7979
▁Club	-7980
▁Ferr	-7981
▁Gael	-7982
▁Hawa	-7983
▁Indo	-7984
▁July	-7985
▁Keds	-7986
▁Lamp	-7987
▁Serv	-7988
▁Used	-7989
▁Vert	-7990
▁auto	-7991
▁axes	-7992
▁babe	-7993
▁bags	-7994
▁bane	-7995
▁bird	-7996
▁bobs	-7997
▁bomb	-7998
▁bowl	-7999
azer	-8000
eyes	-8001
half	-8002
iano	-8003
ibey	-8004
iian	-8005
show	-8006
▁zer	-8007
aints	-8008
empty	-8009
jawed	-8010
plets	-8011
▁Deep	-8012
▁Dian	-8013
▁Mega	-8014
▁Slip	-8015
▁Tree	-8016
▁boys	-8017
▁chec	-8018
▁cups	-8019
▁dazz	-8020
▁deny	-8021
▁diam	-8022
▁dips	-8023
▁drag	-8024
▁drew	-8025
▁dumm	-8026
▁eros	-8027
▁flew	-8028
▁fung	-8029
▁genu	-8030
▁glee	-8031
▁huge	-8032
▁hurl	-8033
▁irre	-8034
▁jury	-8035
▁lapt	-8036
▁limb	-8037
▁mesh	-8038
▁mugs	-8039
▁mumm	-8040
▁musk	-8041
▁narc	-8042
▁navy	-8043
▁palp	-8044
▁pops	-8045
▁pupp	-8046
▁rags	-8047
▁rede	-8048
▁reds	-8049
▁rhet	-8050
▁roof	-8051
▁ruin	-8052
▁rupt	-8053
▁rush	-8054
▁sobs	-8055
▁tenn	-8056
▁tiny	-8057
▁unfl	-8058
▁urge	-8059
▁warp	-8060
▁wigg	-8061
Italic	-8062
Really	-8063
andler	-8064
apsing	-8065
arched	-8066
arency	-8067
avings	-8068
bottle	-8069
device	-8070
fallen	-8071
icient	-8072
icksil	-8073
ighbor	-8074
iphery	-8075
itates	-8076
keeper	-8077
lusive	-8078
member	-8079
nament	-8080
ocused	-8081
office	-8082
ources	-8083
pended	-8084
piring	-8085
placed	-8086
priate	-8087
rafted	-8088
rained	-8089
ruised	-8090
script	-8091
source	-8092
tached	-8093
uccess	-8094
udders	-8095
ulfill	-8096
umulus	-8097
vernor	-8098
▁Abdil	-8099
ahl	-8100
oby	-8101
asks	-8102
boat	-8103
fash	-8104
have	-8105
oops	-8106
agina	-8107
anken	-8108
apons	-8109
boats	-8110
ishes	-8111
ouder	-8112
ribly	-8113
terns	-8114
until	-8115
▁Moby	-8116
▁Noir	-8117
▁Sahl	-8118
▁jazz	-8119
▁mono	-8120
▁yank	-8121
Fishes	-8122
eering	-8123
fering	-8124
iarail	-8125
irming	-8126
uckles	-8127
▁Bench	-8128
▁Cargo	-8129
▁Clubs	-8130
▁Elect	-8131
▁Evalu	-8132
▁Feels	-8133
▁Gates	-8134
▁Glass	-8135
▁Going	-8136
▁Greek	-8137
▁Infit	-8138
▁Jinns	-8139
▁Latin	-8140
▁Leave	-8141
▁Media	-8142
▁Movie	-8143
▁Oasis	-8144
▁Paral	-8145
▁Puffy	-8146
▁Signs	-8147
▁Techn	-8148
▁Third	-8149
▁Twink	-8150
▁absol	-8151
▁admon	-8152
▁ambit	-8153
▁argue	-8154
▁arrow	-8155
▁aston	-8156
▁banal	-8157
▁beats	-8158
▁blasp	-8159
▁blows	-8160
▁blues	-8161
▁blurs	-8162
▁boney	-8163
▁boots	-8164
▁broad	-8165
▁brute	-8166
▁bucks	-8167
▁carou	-8168
▁categ	-8169
▁chief	-8170
▁chomp	-8171
▁cragg	-8172
▁crani	-8173
▁cults	-8174
▁cumul	-8175
▁cycle	-8176
▁decim	-8177
▁demon	-8178
▁desec	-8179
▁divid	-8180
▁doctr	-8181
▁droop	-8182
▁drunk	-8183
▁dummy	-8184
▁duper	-8185
▁embal	-8186
▁enthr	-8187
▁epist	-8188
▁fails	-8189
▁fired	-8190
▁fixer	-8191
▁float	-8192
▁flush	-8193
▁fools	-8194
▁frequ	-8195
▁funds	-8196
▁gains	-8197
▁genre	-8198
▁glove	-8199
raz	-8200
egal	-8201
laim	-8202
razy	-8203
text	-8204
then	-8205
unge	-8206
▁Sho	-8207
▁awh	-8208
▁buy	-8209
▁vin	-8210
alism	-8211
antra	-8212
ronom	-8213
sider	-8214
since	-8215
venge	-8216
▁Syst	-8217
▁Talk	-8218
▁Vist	-8219
▁bits	-8220
▁drif	-8221
▁evac	-8222
▁fish	-8223
▁fiss	-8224
▁hyst	-8225
▁succ	-8226
▁tome	-8227
▁unav	-8228
cerity	-8229
create	-8230
fluous	-8231
heless	-8232
iently	-8233
ieties	-8234
issors	-8235
▁Crazy	-8236
▁Organ	-8237
▁Shoot	-8238
▁Twain	-8239
▁Vista	-8240
▁assim	-8241
▁couch	-8242
▁erode	-8243
▁fades	-8244
▁gates	-8245
▁glint	-8246
▁golem	-8247
▁grits	-8248
▁gusto	-8249
▁halts	-8250
▁helps	-8251
▁hurts	-8252
▁immin	-8253
▁incap	-8254
▁incom	-8255
▁ineff	-8256
▁joyed	-8257
▁juicy	-8258
▁label	-8259
▁lamps	-8260
▁laser	-8261
▁locom	-8262
▁loops	-8263
▁lucky	-8264
▁lungs	-8265
▁miles	-8266
▁miner	-8267
▁mixes	-8268
▁month	-8269
▁mules	-8270
▁nonet	-8271
▁nouns	-8272
▁optim	-8273
▁paces	-8274
▁panic	-8275
▁parad	-8276
▁param	-8277
▁patch	-8278
▁piano	-8279
▁piled	-8280
▁piles	-8281
▁pinch	-8282
▁pinks	-8283
▁plugs	-8284
▁pours	-8285
▁prair	-8286
▁puffs	-8287
▁punch	-8288
▁query	-8289
▁rabid	-8290
▁raven	-8291
▁redis	-8292
▁regul	-8293
▁rhyme	-8294
▁rigor	-8295
▁risks	-8296
▁royal	-8297
▁sadly	-8298
▁schna	-8299
fles	-8300
idst	-8301
ircl	-8302
ooth	-8303
ruff	-8304
veys	-8305
▁Try	-8306
▁cic	-8307
▁pee	-8308
▁rob	-8309
▁rod	-8310
ainty	-8311
arden	-8312
ckled	-8313
flesh	-8314
idesp	-8315
igned	-8316
ilder	-8317
odles	-8318
yssey	-8319
▁Blue	-8320
▁Full	-8321
▁Lead	-8322
▁Note	-8323
▁aest	-8324
▁ants	-8325
▁bing	-8326
▁elim	-8327
▁entr	-8328
▁fury	-8329
▁mild	-8330
▁peel	-8331
ansion	-8332
ircled	-8333
ompous	-8334
▁bolts	-8335
▁bulbs	-8336
▁cicad	-8337
▁clink	-8338
▁gibey	-8339
▁handc	-8340
▁intro	-8341
▁leans	-8342
▁oppon	-8343
▁screw	-8344
▁seats	-8345
▁sends	-8346
▁ships	-8347
▁shits	-8348
▁shove	-8349
▁sighs	-8350
▁sinks	-8351
▁skept	-8352
▁slept	-8353
▁smugg	-8354
▁snaps	-8355
▁sofas	-8356
▁softy	-8357
▁solar	-8358
▁solid	-8359
▁spans	-8360
▁spots	-8361
▁squee	-8362
▁stagg	-8363
▁steak	-8364
▁stirs	-8365
▁stock	-8366
▁supre	-8367
▁surge	-8368
▁swarm	-8369
▁swell	-8370
▁tails	-8371
▁taint	-8372
▁talks	-8373
▁twins	-8374
▁unlim	-8375
▁vanqu	-8376
▁vital	-8377
▁wallp	-8378
▁whips	-8379
▁whisp	-8380
▁woken	-8381
Darling	-8382
Goddamn	-8383
anderas	-8384
arrings	-8385
assured	-8386
emorate	-8387
ernails	-8388
estries	-8389
holders	-8390
however	-8391
ilizing	-8392
imposed	-8393
itorial	-8394
itoring	-8395
itously	-8396
iveness	-8397
lighted	-8398
mendous	-8399
FO	-8400
My	-8401
Uh	-8402
mo	-8403
xy	-8404
Sir	-8405
Aren	-8406
Hold	-8407
abus	-8408
etti	-8409
iley	-8410
ival	-8411
onde	-8412
onds	-8413
osis	-8414
sick	-8415
▁Col	-8416
▁UFO	-8417
athom	-8418
chest	-8419
ilman	-8420
ronts	-8421
udget	-8422
▁Aren	-8423
▁Gold	-8424
▁Howl	-8425
▁Shay	-8426
▁Stan	-8427
▁bile	-8428
▁bron	-8429
▁crag	-8430
▁file	-8431
▁slit	-8432
▁slog	-8433
▁subt	-8434
▁taps	-8435
▁vict	-8436
▁weft	-8437
athart	-8438
fronts	-8439
llabus	-8440
▁Bonds	-8441
▁Watch	-8442
▁adore	-8443
▁amber	-8444
▁chick	-8445
▁enorm	-8446
▁lands	-8447
▁lofty	-8448
▁relie	-8449
▁stark	-8450
▁tasks	-8451
▁thick	-8452
▁varic	-8453
arlance	-8454
estival	-8455
ictated	-8456
natural	-8457
ocalypt	-8458
odeling	-8459
omiting	-8460
oubling	-8461
pending	-8462
realism	-8463
reality	-8464
rically	-8465
rollers	-8466
section	-8467
telling	-8468
terrier	-8469
through	-8470
ulatory	-8471
urgling	-8472
vention	-8473
volving	-8474
wearing	-8475
▁Austin	-8476
▁Brains	-8477
▁Christ	-8478
▁Doofus	-8479
▁Dreams	-8480
▁Filing	-8481
▁Flying	-8482
▁Gaelic	-8483
▁Guests	-8484
▁Hmmmmm	-8485
▁Impact	-8486
▁Inside	-8487
▁Kaball	-8488
▁Likely	-8489
▁Market	-8490
▁Paraln	-8491
▁Really	-8492
▁Resear	-8493
▁Scotch	-8494
▁Shayak	-8495
▁Swords	-8496
▁absent	-8497
▁acuity	-8498
▁admire	-8499
De	-8500
To	-8501
ma	-8502
mi	-8503
Dog	-8504
mag	-8505
ogs	-8506
ubh	-8507
?...	-8508
dest	-8509
mbre	-8510
pose	-8511
▁Aud	-8512
▁Lad	-8513
▁Ugh	-8514
▁blu	-8515
▁bun	-8516
▁hub	-8517
▁osc	-8518
▁tun	-8519
heres	-8520
icket	-8521
idens	-8522
oseph	-8523
stack	-8524
▁Down	-8525
▁Stat	-8526
▁caps	-8527
▁clam	-8528
▁fasc	-8529
▁forb	-8530
▁furn	-8531
▁pref	-8532
▁sail	-8533
▁semi	-8534
▁thor	-8535
▁wast	-8536
▁wrap	-8537
health	-8538
iative	-8539
mbrell	-8540
mother	-8541
uddles	-8542
verber	-8543
▁Ahhhh	-8544
▁Knell	-8545
▁dying	-8546
▁flame	-8547
▁flust	-8548
▁gleam	-8549
▁livel	-8550
▁repro	-8551
▁scary	-8552
▁smart	-8553
▁unten	-8554
▁users	-8555
▁vinyl	-8556
achment	-8557
adation	-8558
cessing	-8559
itional	-8560
▁Joseph	-8561
▁Ladies	-8562
▁Mother	-8563
▁Native	-8564
▁agreed	-8565
▁allows	-8566
▁amidst	-8567
▁annual	-8568
▁arrang	-8569
▁ascent	-8570
▁asleep	-8571
▁awhile	-8572
▁beasts	-8573
▁behave	-8574
▁biases	-8575
▁bigger	-8576
▁branch	-8577
▁breaks	-8578
▁breeze	-8579
▁bridge	-8580
▁brilli	-8581
▁builds	-8582
▁bullet	-8583
▁button	-8584
▁cannon	-8585
▁charge	-8586
▁checks	-8587
▁clamor	-8588
▁climbs	-8589
▁clings	-8590
▁coales	-8591
▁cocoon	-8592
▁colder	-8593
▁corpus	-8594
▁cracks	-8595
▁creamy	-8596
▁crowds	-8597
▁demand	-8598
▁deplet	-8599
oop	-8600
oqu	-8601
▁Es	-8602
Just	-8603
akin	-8604
good	-8605
lies	-8606
link	-8607
oday	-8608
olio	-8609
pood	-8610
reak	-8611
▁Inf	-8612
▁Sun	-8613
▁owe	-8614
▁pen	-8615
▁ram	-8616
agine	-8617
folio	-8618
grown	-8619
hound	-8620
inine	-8621
ooden	-8622
osity	-8623
osoph	-8624
otted	-8625
pling	-8626
▁Dick	-8627
▁Dise	-8628
▁Pent	-8629
▁Song	-8630
▁acad	-8631
▁arri	-8632
▁cele	-8633
▁ines	-8634
▁mood	-8635
▁poet	-8636
▁vamp	-8637
Mother	-8638
aching	-8639
atical	-8640
during	-8641
irring	-8642
linked	-8643
poodle	-8644
ulting	-8645
volity	-8646
▁Today	-8647
▁archa	-8648
▁drips	-8649
▁grain	-8650
▁inart	-8651
▁rings	-8652
▁seeps	-8653
▁shore	-8654
▁slice	-8655
▁spare	-8656
aliforn	-8657
charine	-8658
entious	-8659
faction	-8660
ilosoph	-8661
ortions	-8662
▁Castle	-8663
▁Wooden	-8664
▁academ	-8665
▁bathed	-8666
▁celebr	-8667
▁desecr	-8668
▁devast	-8669
▁devoid	-8670
▁dishes	-8671
▁elbows	-8672
▁endeav	-8673
▁ensues	-8674
▁enthus	-8675
▁exclam	-8676
▁excuse	-8677
▁execut	-8678
▁explic	-8679
▁explor	-8680
▁extras	-8681
▁factor	-8682
▁filmed	-8683
▁filter	-8684
▁fixing	-8685
▁floral	-8686
▁flurry	-8687
▁formal	-8688
▁garage	-8689
▁garden	-8690
▁gather	-8691
▁glitch	-8692
▁graven	-8693
▁greens	-8694
▁halted	-8695
▁headac	-8696
▁hearts	-8697
▁heaves	-8698
▁heliot	-8699
)-	-8700
aza	-8701
cul	-8702
die	-8703
iqu	-8704
jac	-8705
▁Ne	-8706
elow	-8707
ixed	-8708
park	-8709
quit	-8710
rish	-8711
▁Yet	-8712
▁awn	-8713
▁cac	-8714
▁lux	-8715
▁wip	-8716
ailed	-8717
alted	-8718
arsed	-8719
assic	-8720
bated	-8721
essir	-8722
isten	-8723
olves	-8724
orbit	-8725
▁Body	-8726
▁Cond	-8727
▁Feel	-8728
▁Land	-8729
▁Park	-8730
▁Take	-8731
▁beds	-8732
▁econ	-8733
▁feed	-8734
▁pace	-8735
▁tits	-8736
Author	-8737
Yessir	-8738
adence	-8739
always	-8740
assion	-8741
ortune	-8742
▁Below	-8743
▁Irish	-8744
▁clots	-8745
▁funer	-8746
▁helix	-8747
▁lifts	-8748
▁oblit	-8749
▁pulse	-8750
▁rumor	-8751
▁solve	-8752
▁uneth	-8753
▁weeds	-8754
▁youth	-8755
ectonic	-8756
erbated	-8757
▁Saving	-8758
▁boards	-8759
▁claims	-8760
▁housed	-8761
▁hurdle	-8762
▁ignite	-8763
▁impact	-8764
▁indeed	-8765
▁infect	-8766
▁insect	-8767
▁island	-8768
▁knives	-8769
▁laptop	-8770
▁learnt	-8771
▁legacy	-8772
▁lesson	-8773
▁longed	-8774
▁loosen	-8775
▁luxury	-8776
▁makeup	-8777
▁mantra	-8778
▁marked	-8779
▁messed	-8780
▁metals	-8781
▁mighty	-8782
▁mounds	-8783
▁multim	-8784
▁mutual	-8785
▁mythic	-8786
▁nights	-8787
▁onward	-8788
▁oscill	-8789
▁outlet	-8790
▁overly	-8791
▁paused	-8792
▁phones	-8793
▁physic	-8794
▁player	-8795
▁plunge	-8796
▁poorly	-8797
▁porcel	-8798
▁potato	-8799
!—	-8800
Ab	-8801
MS	-8802
Abd	-8803
del	-8804
eys	-8805
fig	-8806
ipt	-8807
opt	-8808
▁CP	-8809
▁Cr	-8810
▁Ma	-8811
izer	-8812
much	-8813
▁GMS	-8814
▁Mus	-8815
▁Non	-8816
▁Opp	-8817
▁fri	-8818
▁pil	-8819
▁ups	-8820
After	-8821
arded	-8822
arder	-8823
based	-8824
obser	-8825
unter	-8826
▁Cred	-8827
▁Typh	-8828
▁Vill	-8829
▁ador	-8830
▁clot	-8831
▁dies	-8832
▁impl	-8833
▁nove	-8834
▁poem	-8835
▁ripp	-8836
▁shed	-8837
▁span	-8838
▁synt	-8839
▁unif	-8840
▁vast	-8841
▁vent	-8842
itance	-8843
▁Moses	-8844
▁block	-8845
▁comin	-8846
▁domed	-8847
▁goals	-8848
▁links	-8849
ivities	-8850
▁anarch	-8851
▁mouths	-8852
▁novell	-8853
▁precip	-8854
▁prices	-8855
▁prodig	-8856
▁proved	-8857
▁pruned	-8858
▁pursue	-8859
▁puzzle	-8860
▁raises	-8861
▁rattle	-8862
▁recoll	-8863
▁redisc	-8864
▁refuse	-8865
▁region	-8866
▁relent	-8867
▁reside	-8868
▁respun	-8869
▁rhythm	-8870
▁robust	-8871
▁rugged	-8872
▁ruined	-8873
▁runnin	-8874
▁rusted	-8875
▁scales	-8876
▁schnau	-8877
▁scruff	-8878
▁scurry	-8879
▁sealed	-8880
▁secure	-8881
▁sender	-8882
▁sensed	-8883
▁serves	-8884
▁sevent	-8885
▁sheets	-8886
▁shined	-8887
▁shoves	-8888
▁showed	-8889
▁shreds	-8890
▁sirens	-8891
▁sleeps	-8892
▁slides	-8893
▁slowed	-8894
▁smiled	-8895
▁snakes	-8896
▁soaked	-8897
▁sparks	-8898
▁sprint	-8899
ete	-8900
onf	-8901
Date	-8902
aped	-8903
bous	-8904
ersp	-8905
esty	-8906
eyed	-8907
greg	-8908
only	-8909
rait	-8910
ribe	-8911
▁Hey	-8912
▁arg	-8913
▁cas	-8914
▁dug	-8915
▁hes	-8916
▁lap	-8917
▁sly	-8918
▁sty	-8919
amers	-8920
arant	-8921
arled	-8922
enter	-8923
ersed	-8924
erses	-8925
inely	-8926
oodoo	-8927
rigue	-8928
thood	-8929
▁Past	-8930
▁bury	-8931
▁chim	-8932
▁dail	-8933
▁grad	-8934
▁nort	-8935
▁pity	-8936
▁prol	-8937
enment	-8938
narled	-8939
pelled	-8940
▁Persp	-8941
▁blade	-8942
▁decay	-8943
▁draws	-8944
▁jokes	-8945
▁north	-8946
▁oasis	-8947
▁prone	-8948
▁tract	-8949
▁winds	-8950
▁women	-8951
adopted	-8952
cheting	-8953
ulthood	-8954
uminous	-8955
▁Verses	-8956
▁borrow	-8957
▁facial	-8958
▁flings	-8959
▁gamers	-8960
▁imagin	-8961
▁picked	-8962
▁proven	-8963
▁proves	-8964
▁saving	-8965
▁squint	-8966
▁strain	-8967
▁strewn	-8968
▁synest	-8969
▁techno	-8970
▁tenure	-8971
▁thirst	-8972
▁thread	-8973
▁ticket	-8974
▁topple	-8975
▁towers	-8976
▁trades	-8977
▁transm	-8978
▁truths	-8979
▁tuning	-8980
▁twirls	-8981
▁unders	-8982
▁unfair	-8983
▁unjust	-8984
▁unknow	-8985
▁unleas	-8986
▁unlock	-8987
▁unseen	-8988
▁vagina	-8989
▁valley	-8990
▁valued	-8991
▁victim	-8992
▁waited	-8993
▁wastes	-8994
▁waters	-8995
▁weekly	-8996
▁wholly	-8997
▁widens	-8998
▁widesp	-8999
box	-9000
hin	-9001
urs	-9002
zes	-9003
▁Op	-9004
▁Pl	-9005
Name	-9006
arte	-9007
holy	-9008
ilic	-9009
▁Man	-9010
▁Pan	-9011
▁aid	-9012
▁jer	-9013
acked	-9014
alice	-9015
asies	-9016
imens	-9017
inate	-9018
modal	-9019
venir	-9020
▁Gibs	-9021
▁Give	-9022
▁Hand	-9023
▁cans	-9024
▁enab	-9025
▁hiss	-9026
▁item	-9027
▁outl	-9028
▁rout	-9029
▁sack	-9030
▁shor	-9031
▁sout	-9032
▁tand	-9033
▁tent	-9034
▁worn	-9035
dimens	-9036
entive	-9037
▁barte	-9038
▁chart	-9039
▁resta	-9040
▁roars	-9041
▁shout	-9042
▁sizes	-9043
▁stake	-9044
▁tombs	-9045
▁whome	-9046
alesque	-9047
ndering	-9048
▁Moving	-9049
▁expert	-9050
▁maniac	-9051
▁retain	-9052
▁tandem	-9053
▁unsust	-9054
▁violin	-9055
▁wiping	-9056
▁wishes	-9057
▁wolves	-9058
Bversive	-9059
Gibstory	-9060
Sullivan	-9061
acitated	-9062
actually	-9063
analysts	-9064
ancholic	-9065
astlines	-9066
atisfied	-9067
aucratic	-9068
ceptible	-9069
chievous	-9070
creation	-9071
distance	-9072
ferences	-9073
flooring	-9074
forement	-9075
herently	-9076
igations	-9077
infinite	-9078
isioning	-9079
issistic	-9080
istering	-9081
ittering	-9082
iversity	-9083
ognition	-9084
oleskins	-9085
orbitant	-9086
ordingly	-9087
oriously	-9088
reaction	-9089
redacted	-9090
ropriate	-9091
strosity	-9092
theistic	-9093
utionary	-9094
utomatic	-9095
uttering	-9096
vigilant	-9097
whatever	-9098
ymbolism	-9099
",	-9100
NT	-9101
cou	-9102
huh	-9103
ilm	-9104
too	-9105
ums	-9106
upe	-9107
▁Sm	-9108
▁VI	-9109
film	-9110
hern	-9111
hero	-9112
ibly	-9113
irps	-9114
rapt	-9115
▁...	-9116
▁Jen	-9117
▁Min	-9118
▁Pre	-9119
▁Sim	-9120
▁TNT	-9121
▁blo	-9122
▁fib	-9123
▁rev	-9124
arian	-9125
asing	-9126
relig	-9127
▁Jenn	-9128
▁Stop	-9129
▁avid	-9130
▁culp	-9131
▁joys	-9132
▁lies	-9133
▁meas	-9134
▁news	-9135
▁pion	-9136
▁sere	-9137
▁shat	-9138
▁toys	-9139
cloned	-9140
formed	-9141
otally	-9142
verted	-9143
▁Beast	-9144
▁Birds	-9145
▁clues	-9146
▁habit	-9147
▁indec	-9148
▁recip	-9149
▁stupe	-9150
▁trace	-9151
itively	-9152
ldritch	-9153
logical	-9154
setting	-9155
▁Jennif	-9156
▁angled	-9157
▁border	-9158
▁chains	-9159
▁chirps	-9160
▁freaky	-9161
▁humble	-9162
▁louder	-9163
▁serend	-9164
▁static	-9165
branding	-9166
▁Alright	-9167
▁Brother	-9168
▁Christm	-9169
▁Clearly	-9170
▁Clothes	-9171
▁Collect	-9172
▁Complex	-9173
▁Content	-9174
▁Credits	-9175
▁Deficit	-9176
▁Diarail	-9177
▁Economy	-9178
▁Fantasy	-9179
▁Forever	-9180
▁Franken	-9181
▁Goddamn	-9182
▁History	-9183
▁Imagine	-9184
▁Introdu	-9185
▁Knowing	-9186
▁Members	-9187
▁Opening	-9188
▁Painted	-9189
▁Pyramid	-9190
▁Respect	-9191
▁Shouldn	-9192
▁Somehow	-9193
▁Someone	-9194
▁Stanley	-9195
▁Stilman	-9196
▁Totally	-9197
▁Twinker	-9198
▁Various	-9199
Now	-9200
aks	-9201
bur	-9202
cha	-9203
lea	-9204
▁SU	-9205
Good	-9206
abot	-9207
adow	-9208
eled	-9209
fess	-9210
otel	-9211
rior	-9212
tage	-9213
ters	-9214
▁Lit	-9215
▁fif	-9216
▁gap	-9217
▁gro	-9218
▁haz	-9219
▁lie	-9220
▁rul	-9221
▁ted	-9222
matic	-9223
maybe	-9224
oster	-9225
plete	-9226
vable	-9227
versa	-9228
▁Ball	-9229
▁Mist	-9230
▁Moon	-9231
▁ache	-9232
▁died	-9233
▁orif	-9234
▁stro	-9235
▁terr	-9236
▁visa	-9237
aneity	-9238
osophy	-9239
▁Grand	-9240
▁Liter	-9241
▁Pange	-9242
▁Trust	-9243
▁amnes	-9244
▁crisp	-9245
▁pools	-9246
▁rooms	-9247
▁trope	-9248
atitude	-9249
reaming	-9250
▁Pangea	-9251
▁dainty	-9252
▁easier	-9253
▁foster	-9254
▁fucked	-9255
▁irises	-9256
▁sliced	-9257
▁thanks	-9258
▁themat	-9259
ceptable	-9260
▁Challen	-9261
▁Venture	-9262
▁abideth	-9263
▁accrued	-9264
▁admired	-9265
▁adorned	-9266
▁aesthet	-9267
▁ambient	-9268
▁annihil	-9269
▁anomaly	-9270
▁anxious	-9271
▁applied	-9272
▁archaic	-9273
▁article	-9274
▁aspects	-9275
▁assimil	-9276
▁assumed	-9277
▁awfully	-9278
▁bedroom	-9279
▁branded	-9280
▁breathe	-9281
▁bubbled	-9282
▁buckles	-9283
▁bulbous	-9284
▁capital	-9285
▁casting	-9286
▁cathart	-9287
▁checked	-9288
▁chicken	-9289
▁choking	-9290
▁cicadas	-9291
▁circled	-9292
▁clogged	-9293
▁closing	-9294
▁compare	-9295
▁conduct	-9296
▁confirm	-9297
▁consequ	-9298
▁cooking	-9299
.-	-9300
la	-9301
awn	-9302
ipe	-9303
nal	-9304
oul	-9305
tap	-9306
Jack	-9307
anim	-9308
laid	-9309
onom	-9310
oven	-9311
▁aim	-9312
▁bay	-9313
▁rif	-9314
▁tem	-9315
essed	-9316
goers	-9317
isely	-9318
▁chur	-9319
▁cush	-9320
▁maze	-9321
▁sham	-9322
arized	-9323
urants	-9324
▁chess	-9325
▁fared	-9326
▁fruit	-9327
▁risky	-9328
▁unpop	-9329
itioned	-9330
usional	-9331
▁Indian	-9332
▁betray	-9333
▁butter	-9334
▁gently	-9335
▁inanim	-9336
▁pounds	-9337
▁retold	-9338
▁solved	-9339
▁stoked	-9340
▁stored	-9341
▁tennis	-9342
▁visual	-9343
itations	-9344
perience	-9345
rational	-9346
▁Typhoid	-9347
▁Wishing	-9348
▁absolut	-9349
▁anyways	-9350
▁corners	-9351
▁cranium	-9352
▁cranked	-9353
▁crowded	-9354
▁crushed	-9355
▁dailies	-9356
▁darkens	-9357
▁deathly	-9358
▁decades	-9359
▁default	-9360
▁denying	-9361
▁depends	-9362
▁derived	-9363
▁destiny	-9364
▁detract	-9365
▁devoted	-9366
▁devotee	-9367
▁directs	-9368
▁distill	-9369
▁diverse	-9370
▁doubled	-9371
▁doubted	-9372
▁dressed	-9373
▁dropped	-9374
▁enchant	-9375
▁endings	-9376
▁engaged	-9377
▁enlight	-9378
▁entropy	-9379
▁envious	-9380
▁epistem	-9381
▁eroding	-9382
▁escapes	-9383
▁exagger	-9384
▁expands	-9385
▁expense	-9386
▁express	-9387
▁eyelids	-9388
▁faction	-9389
▁fearful	-9390
▁fictive	-9391
▁forgets	-9392
▁fulfill	-9393
▁funeral	-9394
▁futures	-9395
▁generic	-9396
▁genetic	-9397
▁gnarled	-9398
▁gripped	-9399
!?	-9400
In	-9401
On	-9402
tr	-9403
ana	-9404
uer	-9405
yed	-9406
Kala	-9407
anse	-9408
ason	-9409
dear	-9410
dent	-9411
iche	-9412
itly	-9413
ping	-9414
▁Bus	-9415
▁bew	-9416
▁fat	-9417
▁fit	-9418
▁mer	-9419
▁obl	-9420
▁sam	-9421
▁vit	-9422
every	-9423
▁Case	-9424
▁bell	-9425
▁deck	-9426
▁exce	-9427
▁leak	-9428
▁seal	-9429
▁tour	-9430
should	-9431
▁Posey	-9432
▁flake	-9433
▁incon	-9434
▁inher	-9435
▁niche	-9436
▁posed	-9437
▁sheet	-9438
▁spear	-9439
▁spell	-9440
▁whale	-9441
layered	-9442
▁Hidden	-9443
▁callig	-9444
▁checke	-9445
▁crunch	-9446
▁filler	-9447
▁hearty	-9448
▁rubies	-9449
▁season	-9450
▁stacks	-9451
▁swells	-9452
▁thwart	-9453
▁uphold	-9454
▁whimsy	-9455
reathing	-9456
▁Western	-9457
▁affairs	-9458
▁asinine	-9459
▁doodles	-9460
▁embrace	-9461
▁failing	-9462
▁fission	-9463
▁grandpa	-9464
▁guarant	-9465
▁guesses	-9466
▁halfway	-9467
▁handler	-9468
▁helping	-9469
▁heroine	-9470
▁hoarded	-9471
▁horrors	-9472
▁hurtles	-9473
▁ignites	-9474
▁ignores	-9475
▁imagery	-9476
▁ironies	-9477
▁killing	-9478
▁lawsuit	-9479
▁leashes	-9480
▁licking	-9481
▁locales	-9482
▁locomot	-9483
▁maidens	-9484
▁marbled	-9485
▁married	-9486
▁matched	-9487
▁messing	-9488
▁methods	-9489
▁million	-9490
▁mixture	-9491
▁neglect	-9492
▁odyssey	-9493
▁officer	-9494
▁ominous	-9495
▁operate	-9496
▁optical	-9497
▁oranges	-9498
▁organal	-9499
)?	-9500
AI	-9501
ii	-9502
rd	-9503
sm	-9504
▁i	-9505
God	-9506
Ind	-9507
dis	-9508
eek	-9509
ien	-9510
kin	-9511
ris	-9512
zer	-9513
▁Wr	-9514
edom	-9515
mind	-9516
pora	-9517
▁Fib	-9518
▁ate	-9519
▁tax	-9520
occur	-9521
▁Circ	-9522
▁bang	-9523
▁dare	-9524
▁neck	-9525
▁rich	-9526
▁trip	-9527
ribing	-9528
▁Creek	-9529
▁Makes	-9530
▁Until	-9531
▁bread	-9532
▁flips	-9533
▁miser	-9534
▁notch	-9535
▁pants	-9536
▁seest	-9537
ttached	-9538
▁Ferris	-9539
▁casket	-9540
▁dangle	-9541
▁denied	-9542
▁finale	-9543
▁liking	-9544
▁pastel	-9545
▁ripped	-9546
▁snatch	-9547
▁sticky	-9548
▁topics	-9549
Attached	-9550
inducing	-9551
▁Firstly	-9552
▁Fortune	-9553
▁carried	-9554
▁complic	-9555
▁courage	-9556
▁credits	-9557
▁dualism	-9558
▁fashion	-9559
▁freedom	-9560
▁frowned	-9561
▁idiotic	-9562
▁painter	-9563
▁palette	-9564
▁panning	-9565
▁partial	-9566
▁parties	-9567
▁passion	-9568
▁peeking	-9569
▁periods	-9570
▁perpend	-9571
▁persist	-9572
▁pertain	-9573
▁phallic	-9574
▁plagues	-9575
▁pompous	-9576
▁popping	-9577
▁portals	-9578
▁portray	-9579
▁preface	-9580
▁primary	-9581
▁prolong	-9582
▁puddles	-9583
▁purples	-9584
▁quoting	-9585
▁ranging	-9586
▁rapidly	-9587
▁readily	-9588
▁reclaim	-9589
▁reconst	-9590
▁reevalu	-9591
▁regener	-9592
▁relates	-9593
▁relaxed	-9594
▁remakes	-9595
▁require	-9596
▁resembl	-9597
▁restful	-9598
▁results	-9599
,,	-9600
,.	-9601
Be	-9602
OK	-9603
cr	-9604
fr	-9605
ja	-9606
ye	-9607
For	-9608
Pss	-9609
cle	-9610
▁IA	-9611
brid	-9612
▁Dut	-9613
▁Ori	-9614
▁Out	-9615
▁bag	-9616
Looks	-9617
alive	-9618
ipper	-9619
osure	-9620
urope	-9621
▁bure	-9622
▁exac	-9623
▁gang	-9624
▁meta	-9625
▁mint	-9626
▁pend	-9627
▁pens	-9628
hemous	-9629
rating	-9630
▁quant	-9631
▁slime	-9632
▁wrist	-9633
balance	-9634
▁Others	-9635
▁acidic	-9636
▁adults	-9637
▁cosmic	-9638
▁drinks	-9639
▁flicks	-9640
▁manage	-9641
▁subtly	-9642
▁twelve	-9643
▁bravery	-9644
▁chalice	-9645
▁nuclear	-9646
▁portion	-9647
▁pyramid	-9648
▁rituals	-9649
▁saddest	-9650
▁scholar	-9651
▁seconds	-9652
▁sending	-9653
▁seventh	-9654
▁severed	-9655
▁shallow	-9656
▁shining	-9657
▁shitter	-9658
▁shorter	-9659
▁simpler	-9660
▁slaught	-9661
▁slipped	-9662
▁sorting	-9663
▁spheres	-9664
▁spreads	-9665
▁squares	-9666
▁stabbed	-9667
▁strands	-9668
▁strateg	-9669
▁student	-9670
▁studied	-9671
▁subsume	-9672
▁succeed	-9673
▁summary	-9674
▁supreme	-9675
▁surgeon	-9676
▁swallow	-9677
▁tearing	-9678
▁terrors	-9679
▁therapy	-9680
▁thereby	-9681
▁threads	-9682
▁tragedy	-9683
▁trapped	-9684
▁traumas	-9685
▁tremble	-9686
▁trouble	-9687
▁tyranny	-9688
▁umbrell	-9689
▁undergo	-9690
▁unfazed	-9691
▁uniform	-9692
▁visible	-9693
▁visions	-9694
▁visitor	-9695
▁warrior	-9696
▁wasting	-9697
▁wedding	-9698
▁weirdly	-9699
▁wherein	-9700
▁whistle	-9701
▁wildest	-9702
▁wishful	-9703
▁worship	-9704
▁wronged	-9705
alescence	-9706
apartment	-9707
awareness	-9708
continued	-9709
ellations	-9710
enetrable	-9711
essential	-9712
fashioned	-9713
icksilver	-9714
iculously	-9715
itization	-9716
landmarks	-9717
linearity	-9718
observing	-9719
ocalyptic	-9720
ronomical	-9721
scription	-9722
sensitive	-9723
uccessful	-9724
▁Absolute	-9725
▁Americas	-9726
▁Banderas	-9727
▁Becoming	-9728
▁Bloodied	-9729
▁Building	-9730
▁Californ	-9731
▁Chandler	-9732
▁Children	-9733
▁Continue	-9734
▁Hawaiian	-9735
▁Inaction	-9736
▁Infinite	-9737
▁Interior	-9738
▁Jennifer	-9739
▁Magazine	-9740
▁Moreover	-9741
▁Mountain	-9742
▁Notebook	-9743
▁Obstacle	-9744
▁Petition	-9745
▁Rainbows	-9746
▁Sediment	-9747
▁Services	-9748
▁Shooting	-9749
▁Shopping	-9750
▁Splitter	-9751
▁Substack	-9752
▁Thinking	-9753
▁Untitled	-9754
▁Yodeling	-9755
▁Yourself	-9756
▁accounts	-9757
▁accuracy	-9758
▁advanced	-9759
▁analyzed	-9760
▁apparent	-9761
▁argument	-9762
▁arrogant	-9763
▁artistic	-9764
▁aspiring	-9765
▁attempts	-9766
▁babeling	-9767
▁baseball	-9768
▁basement	-9769
▁befallen	-9770
▁beholder	-9771
▁believes	-9772
▁blasting	-9773
▁blinding	-9774
▁bloodied	-9775
▁blurring	-9776
▁bouncing	-9777
▁bumbling	-9778
▁cackling	-9779
▁captured	-9780
▁carrying	-9781
▁causally	-9782
▁charming	-9783
▁chaterer	-9784
▁circling	-9785
▁circular	-9786
▁clumping	-9787
▁clutches	-9788
▁coherent	-9789
▁collects	-9790
▁comments	-9791
▁compared	-9792
▁coughing	-9793
▁countert	-9794
▁covering	-9795
▁cracking	-9796
▁crackles	-9797
▁crushing	-9798
▁daughter	-9799
▁decrease	-9800
▁deferred	-9801
▁deluding	-9802
▁departed	-9803
▁destroys	-9804
▁detected	-9805
▁dictated	-9806
▁directed	-9807
▁displays	-9808
▁distress	-9809
▁dominion	-9810
▁draining	-9811
▁drawings	-9812
▁dreaming	-9813
▁drifting	-9814
▁droplets	-9815
▁dropping	-9816
▁dynamics	-9817
▁earrings	-9818
▁embalmed	-9819
▁enormous	-9820
▁ensuring	-9821
▁examples	-9822
▁expanded	-9823
▁expenses	-9824
▁extremes	-9825
▁fanatics	-9826
▁fastened	-9827
▁festival	-9828
▁finality	-9829
▁flashing	-9830
▁flushing	-9831
▁football	-9832
▁footnote	-9833
▁formless	-9834
▁freaking	-9835
▁gathered	-9836
▁glinting	-9837
▁governor	-9838
▁grinning	-9839
▁growling	-9840
▁gurgling	-9841
▁hallowed	-9842
▁handling	-9843
▁happenin	-9844
▁headache	-9845
▁hierarch	-9846
▁hollowed	-9847
▁hysteria	-9848
▁ideology	-9849
▁illusory	-9850
▁improved	-9851
▁inciting	-9852
▁includes	-9853
▁incoming	-9854
▁infected	-9855
▁insecure	-9856
▁instance	-9857
▁invented	-9858
▁invested	-9859
▁keyboard	-9860
▁landmark	-9861
▁lanterns	-9862
▁laughing	-9863
▁lifetime	-9864
▁limiting	-9865
▁lingered	-9866
▁littered	-9867
▁luminous	-9868
▁majority	-9869
▁marching	-9870
▁marginal	-9871
▁mattered	-9872
▁measures	-9873
▁molecule	-9874
▁momentum	-9875
▁monopoly	-9876
▁mounting	-9877
▁neighbor	-9878
▁opponent	-9879
▁optimism	-9880
▁opulence	-9881
▁outlines	-9882
▁outright	-9883
▁overview	-9884
▁paranoia	-9885
▁parasite	-9886
▁partners	-9887
▁pickaxes	-9888
▁pinkness	-9889
▁pleasant	-9890
▁pointing	-9891
▁poisoned	-9892
▁populate	-9893
▁potatoes	-9894
▁premiere	-9895
▁presents	-9896
▁preserve	-9897
▁pressing	-9898
▁prestige	-9899
▁pretends	-9900
▁proceeds	-9901
▁prodigal	-9902
▁products	-9903
▁punching	-9904
▁purchase	-9905
▁pursuing	-9906
▁radiated	-9907
▁reaction	-9908
▁received	-9909
▁reliable	-9910
▁religion	-9911
▁remained	-9912
▁remaking	-9913
▁reminded	-9914
▁research	-9915
▁restless	-9916
▁restored	-9917
▁resulted	-9918
▁reverber	-9919
▁revolves	-9920
▁ricochet	-9921
▁ridicule	-9922
▁ripening	-9923
▁romantic	-9924
▁rounding	-9925
▁scenario	-9926
▁sciences	-9927
▁scissors	-9928
▁scrapped	-9929
▁scrawled	-9930
▁sculpted	-9931
▁selfhood	-9932
▁serendip	-9933
▁settings	-9934
▁shackled	-9935
▁shudders	-9936
▁shuffled	-9937
▁silenced	-9938
▁silently	-9939
▁simulate	-9940
▁skeleton	-9941
▁socially	-9942
▁southern	-9943
▁souvenir	-9944
▁sparkles	-9945
▁speckled	-9946
▁staccato	-9947
▁stammers	-9948
▁starving	-9949
▁stations	-9950
▁steaming	-9951
▁stripped	-9952
▁striving	-9953
▁stumbles	-9954
▁swinging	-9955
▁switches	-9956
▁syllabus	-9957
▁sympathy	-9958
▁teaching	-9959
▁tectonic	-9960
▁thinkers	-9961
▁thorough	-9962
▁thrusted	-9963
▁touching	-9964
▁transfer	-9965
▁treasure	-9966
▁tripping	-9967
▁tumblewe	-9968
▁ubiquity	-9969
▁ugliness	-9970
▁uncommon	-9971
▁unlocked	-9972
▁unrecogn	-9973
▁untitled	-9974
▁unwanted	-9975
▁valuable	-9976
▁varicose	-9977
▁vehicles	-9978
▁visiting	-9979
▁visitors	-9980
▁watering	-9981
▁westward	-9982
▁wherever	-9983
▁whirring	-9984
▁whispers	-9985
▁whomever	-9986
▁windowed	-9987
▁youngest	-9988
Authorized	-9989
acceptable	-9990
correcting	-9991
correction	-9992
eventually	-9993
monitoring	-9994
similarity	-9995
▁According	-9996
▁Ascension	-9997
▁Audiences	-9998
▁Certainly	-9999
▁Christmas	-10000
▁Expansion	-10001
▁Fictional	-10002
▁Gillepsie	-10003
▁Landscape	-10004
▁Literally	-10005
▁Moleskins	-10006
▁Obviously	-10007
▁Organized	-10008
▁Paralance	-10009
▁Pentacles	-10010
▁Symbolism	-10011
▁Technical	-10012
▁Therefore	-10013
▁Typically	-10014
▁Vacations	-10015
▁abduction	-10016
▁accidents	-10017
▁addressed	-10018
▁adulthood	-10019
▁affecting	-10020
▁aforement	-10021
▁algorithm	-10022
▁ambitious	-10023
▁apologize	-10024
▁assertion	-10025
▁assigning	-10026
▁attending	-10027
▁attentive	-10028
▁bartender	-10029
▁blameless	-10030
▁blankness	-10031
▁bloodshot	-10032
▁brilliant	-10033
▁calligrap	-10034
▁cardboard	-10035
▁checkered	-10036
▁classroom	-10037
▁climactic	-10038
▁collapses	-10039
▁comically	-10040
▁competent	-10041
▁complexes	-10042
▁concealed	-10043
▁conductor	-10044
▁confronts	-10045
▁confusing	-10046
▁consuming	-10047
▁convinced	-10048
▁deepening	-10049
▁describes	-10050
▁destroyer	-10051
▁diagnosed	-10052
▁dismissed	-10053
▁disorient	-10054
▁dissipate	-10055
▁efficient	-10056
▁embellish	-10057
▁embracing	-10058
▁employees	-10059
▁encounter	-10060
▁endeavors	-10061
▁engineers	-10062
▁entranced	-10063
▁evaluated	-10064
▁exception	-10065
▁excessive	-10066
▁exclusion	-10067
▁exclusive	-10068
▁exercises	-10069
▁exhausted	-10070
▁expanding	-10071
▁exploited	-10072
▁explosive	-10073
▁extremely	-10074
▁fantastic	-10075
▁figurines	-10076
▁filtering	-10077
▁finalized	-10078
▁fireflies	-10079
▁flashback	-10080
▁freshness	-10081
▁frivolity	-10082
▁gentleman	-10083
▁genuinely	-10084
▁geography	-10085
▁gestaltic	-10086
▁goddamnit	-10087
▁greatness	-10088
▁grimacing	-10089
▁harnessed	-10090
▁horrified	-10091
▁humankind	-10092
▁identical	-10093
▁imaginary	-10094
▁imagining	-10095
▁imbecilic	-10096
▁imitating	-10097
▁imminence	-10098
▁impressed	-10099
▁inarticul	-10100
▁incapable	-10101
▁ingenious	-10102
▁initiated	-10103
▁innocuous	-10104
▁integrity	-10105
▁interacts	-10106
▁intricate	-10107
▁intuition	-10108
▁inundated	-10109
▁inventive	-10110
▁judgement	-10111
▁justified	-10112
▁lettering	-10113
▁lifetimes	-10114
▁lightning	-10115
▁limitless	-10116
▁marvelous	-10117
▁mattering	-10118
▁modernism	-10119
▁mysteries	-10120
▁narrators	-10121
▁nonlinear	-10122
▁nostalgic	-10123
▁operating	-10124
▁operation	-10125
▁outbursts	-10126
▁outgrowth	-10127
▁outsource	-10128
▁painfully	-10129
▁paralysis	-10130
▁paralyzed	-10131
▁paramount	-10132
▁passenger	-10133
▁periphery	-10134
▁personnel	-10135
▁philosoph	-10136
▁physician	-10137
▁physicist	-10138
▁picturing	-10139
▁porcelain	-10140
▁possesses	-10141
▁precedent	-10142
▁precisely	-10143
▁pressures	-10144
▁primarily	-10145
▁proceeded	-10146
▁purchased	-10147
▁quotidian	-10148
▁reactions	-10149
▁reassures	-10150
▁reclusive	-10151
▁recollect	-10152
▁redundant	-10153
▁reference	-10154
▁refracted	-10155
▁regulated	-10156
▁reinforce	-10157
▁rejection	-10158
▁relocated	-10159
▁reminding	-10160
▁repressed	-10161
▁repurpose	-10162
▁resembled	-10163
▁resources	-10164
▁retreated	-10165
▁revealing	-10166
▁revolving	-10167
▁satisfied	-10168
▁schnauzer	-10169
▁scrambles	-10170
▁scratches	-10171
▁screeches	-10172
▁sculpture	-10173
▁selective	-10174
▁sequences	-10175
▁seriously	-10176
▁shrugging	-10177
▁shuffling	-10178
▁sincerity	-10179
▁solutions	-10180
▁specifics	-10181
▁squeaking	-10182
▁startling	-10183
▁strangely	-10184
▁stretches	-10185
▁strollers	-10186
▁stumbling	-10187
▁submitted	-10188
▁superhero	-10189
▁supported	-10190
▁surprised	-10191
▁suspended	-10192
▁suspicion	-10193
▁sweetness	-10194
▁technical	-10195
▁theorists	-10196
▁threatens	-10197
▁transcend	-10198
▁translate	-10199
▁treasured	-10200
▁trickster	-10201
▁underling	-10202
▁unethical	-10203
▁unfocused	-10204
▁unleashed	-10205
▁unlimited	-10206
▁unpopular	-10207
▁untamable	-10208
▁varieties	-10209
▁vibration	-10210
▁visionary	-10211
▁wallpaper	-10212
▁weirdness	-10213
▁wrestling	-10214
appropriate	-10215
conditioned	-10216
deprecating	-10217
development	-10218
dimensional	-10219
▁Apocalypse	-10220
▁Challenges	-10221
▁Conditions	-10222
▁Definitely	-10223
▁Dependence	-10224
▁Especially	-10225
▁Extracting	-10226
▁Extractors	-10227
▁Gibstorian	-10228
▁Perception	-10229
▁SUBversive	-10230
▁Scientists	-10231
▁Subversive	-10232
▁Supposedly	-10233
▁SynchromyS	-10234
▁University	-10235
▁accelerate	-10236
▁admonished	-10237
▁advertised	-10238
▁alienation	-10239
▁appliances	-10240
▁attendance	-10241
▁beginnings	-10242
▁bitterness	-10243
▁blistering	-10244
▁borderline	-10245
▁calculated	-10246
▁cautionary	-10247
▁childhoods	-10248
▁coastlines	-10249
▁coincident	-10250
▁collapsing	-10251
▁commentary	-10252
▁compassion	-10253
▁completing	-10254
▁conception	-10255
▁confounded	-10256
▁connecting	-10257
▁contextual	-10258
▁controvers	-10259
▁converting	-10260
▁convincing	-10261
▁corruption	-10262
▁cumulative	-10263
▁demolished	-10264
▁depressive	-10265
▁descending	-10266
▁despairing	-10267
▁detachment	-10268
▁dishonesty	-10269
▁disordered	-10270
▁dissipated	-10271
▁dissolving	-10272
▁distancing	-10273
▁electrical	-10274
▁eliminated	-10275
▁encouraged	-10276
▁enthralled	-10277
▁essentials	-10278
▁evaluating	-10279
▁evaluation	-10280
▁exhausting	-10281
▁exorbitant	-10282
▁explicitly	-10283
▁explosives	-10284
▁extensions	-10285
▁extraction	-10286
▁extraneous	-10287
▁flickering	-10288
▁fragmented	-10289
▁frameworks	-10290
▁fulfilling	-10291
▁fumigation	-10292
▁generation	-10293
▁generative	-10294
▁groundwork	-10295
▁headphones	-10296
▁highlights	-10297
▁incomplete	-10298
▁indicative	-10299
▁inevitably	-10300
▁infectious	-10301
▁influences	-10302
▁inherently	-10303
▁interviews	-10304
▁investment	-10305
▁irrelevant	-10306
▁judgements	-10307
▁liberation	-10308
▁litigation	-10309
▁liveliness	-10310
▁locomotive	-10311
▁manifested	-10312
▁naturalize	-10313
▁negatively	-10314
▁noticeable	-10315
▁occasional	-10316
▁oppressive	-10317
▁passengers	-10318
▁performers	-10319
▁pioneering	-10320
▁plundering	-10321
▁population	-10322
▁pretending	-10323
▁privileges	-10324
▁procedures	-10325
▁procession	-10326
▁professors	-10327
▁projecting	-10328
▁projection	-10329
▁publicized	-10330
▁readership	-10331
▁redoubling	-10332
▁reflective	-10333
▁refracting	-10334
▁relentless	-10335
▁relocation	-10336
▁repurposed	-10337
▁resembling	-10338
▁retreating	-10339
▁revelatory	-10340
▁saccharine	-10341
▁sacrifices	-10342
▁scratching	-10343
▁screenings	-10344
▁simulation	-10345
▁situations	-10346
▁skepticism	-10347
▁somethings	-10348
▁structured	-10349
▁suspicious	-10350
▁tapestries	-10351
▁temporally	-10352
▁tendencies	-10353
▁theatrical	-10354
▁thresholds	-10355
▁transfixed	-10356
▁tremendous	-10357
▁triumphant	-10358
▁uncontroll	-10359
▁undergoing	-10360
▁underlined	-10361
▁underlying	-10362
▁unknowable	-10363
▁unoriginal	-10364
▁unwavering	-10365
▁widespread	-10366
biographical	-10367
establishing	-10368
▁Gibseyanity	-10369
▁Operational	-10370
▁Researchers	-10371
▁Sedimentary	-10372
▁accordingly	-10373
▁achievement	-10374
▁annotations	-10375
▁appearances	-10376
▁application	-10377
▁approaching	-10378
▁arrangement	-10379
▁authorities	-10380
▁blasphemous	-10381
▁challenging	-10382
▁circulatory	-10383
▁classically	-10384
▁colonialism	-10385
▁commemorate	-10386
▁commonplace	-10387
▁conditioner	-10388
▁containment	-10389
▁contemplate	-10390
▁credibility	-10391
▁deficiently	-10392
▁degradation	-10393
▁departments	-10394
▁depressions	-10395
▁descriptive	-10396
▁discouraged	-10397
▁disembodied	-10398
▁entertained	-10399
▁entrainment	-10400
▁envisioning	-10401
▁evaluations	-10402
▁exacerbated	-10403
▁exclusively	-10404
▁fingernails	-10405
▁fragmentary	-10406
▁fragmenting	-10407
▁functioning	-10408
▁generalized	-10409
▁gibeydamnit	-10410
▁heliotropic	-10411
▁highlighted	-10412
▁ideological	-10413
▁illuminated	-10414
▁inescapable	-10415
▁inheritance	-10416
▁intelligent	-10417
▁intricately	-10418
▁justifiable	-10419
▁liabilities	-10420
▁manipulated	-10421
▁masterpiece	-10422
▁materialize	-10423
▁meaningless	-10424
▁melancholic	-10425
▁mischievous	-10426
▁monstrosity	-10427
▁necessarily	-10428
▁nonetheless	-10429
▁occurrences	-10430
▁orientation	-10431
▁palpitating	-10432
▁participate	-10433
▁permanently	-10434
▁personality	-10435
▁predictable	-10436
▁pretentious	-10437
▁probability	-10438
▁projections	-10439
▁publication	-10440
▁quicksilver	-10441
▁recitations	-10442
▁recreations	-10443
▁reformation	-10444
▁repetitious	-10445
▁restaurants	-10446
▁resurrected	-10447
▁ricocheting	-10448
▁seriousness	-10449
▁slaughtered	-10450
▁splintering	-10451
▁spontaneity	-10452
▁storefronts	-10453
▁suggestions	-10454
▁superfluous	-10455
▁susceptible	-10456
▁synesthesia	-10457
▁trailblazer	-10458
▁underscores	-10459
▁uninitiated	-10460
▁unstrapping	-10461
▁wakefulness	-10462
▁Implications	-10463
▁Introduction	-10464
▁Perspiration	-10465
▁Publications	-10466
▁Respectfully	-10467
▁additionally	-10468
▁advancements	-10469
▁animatronics	-10470
▁annihilation	-10471
▁appropriated	-10472
▁articulation	-10473
▁astonishment	-10474
▁astronomical	-10475
▁breakthrough	-10476
▁bureaucratic	-10477
▁consequences	-10478
▁conventional	-10479
▁destinations	-10480
▁discontinued	-10481
▁disorganized	-10482
▁entertaining	-10483
▁environments	-10484
▁exploitation	-10485
▁exploitative	-10486
▁fluorescence	-10487
▁fundamentals	-10488
▁illuminating	-10489
▁imaginations	-10490
▁impenetrable	-10491
▁inadequacies	-10492
▁incorporated	-10493
▁inefficiency	-10494
▁interruption	-10495
▁labyrinthian	-10496
▁manufactures	-10497
▁mathematical	-10498
▁metastasized	-10499
▁narcissistic	-10500
▁neighborhood	-10501
▁precognition	-10502
▁purposefully	-10503
▁questionable	-10504
▁reevaluating	-10505
▁regeneration	-10506
▁representing	-10507
▁reprocessing	-10508
▁romantically	-10509
▁stupefaction	-10510
▁subjectivist	-10511
▁supernatural	-10512
▁symbolically	-10513
▁terrifyingly	-10514
▁theatrically	-10515
▁thematically	-10516
▁transforming	-10517
▁transmission	-10518
▁uncomforting	-10519
▁youthfulness	-10520
identification	-10521
▁Imaginatoring	-10522
▁Intelligences	-10523
▁Postmodernism	-10524
▁Synchronicity	-10525
▁accumulations	-10526
▁appropriation	-10527
▁artificiality	-10528
▁carnivalesque	-10529
▁circumstances	-10530
▁collaboration	-10531
▁complications	-10532
▁confrontation	-10533
▁contemplating	-10534
▁contradictory	-10535
▁convalescence	-10536
▁differentiate	-10537
▁documentaries	-10538
▁documentation	-10539
▁embellishment	-10540
▁enlightenment	-10541
▁environmental	-10542
▁establishment	-10543
▁incapacitated	-10544
▁intentionally	-10545
▁necessitating	-10546
▁perpendicular	-10547
▁progressively	-10548
▁psychological	-10549
▁relationships	-10550
▁synchronicity	-10551
▁synchronistic	-10552
▁uncertainties	-10553
▁unconsciously	-10554
▁unsustainable	-10555
▁Representative	-10556
▁aforementioned	-10557
▁comfortability	-10558
▁differentiated	-10559
▁disintegrating	-10560
▁investigations	-10561
▁metaphorically	-10562
▁reconstruction	-10563
▁ridiculousness	-10564
▁transformation	-10565
▁transformative	-10566
▁unrecognizable	-10567
▁correspondences	-10568
▁vulnerabilities	-10569
Once	-10570
Trad	-10571
awns	-10572
boro	-10573
burp	-10574
diep	-10575
hasn	-10576
hubh	-10577
jobs	-10578
mole	-10579
regn	-10580
soul	-10581
uete	-10582
ycle	-10583
▁oxy	-10584
Asset	-10585
Every	-10586
Legal	-10587
Pssss	-10588
Super	-10589
Trans	-10590
auete	-10591
beyed	-10592
chlea	-10593
comes	-10594
crast	-10595
derer	-10596
diepy	-10597
drawn	-10598
eehaw	-10599
Also	-10600
hadn	-10601
ydid	-10602
▁CPR	-10603
▁CPU	-10604
alien	-10605
elvet	-10606
fares	-10607
given	-10608
happy	-10609
hilim	-10610
hotel	-10611
ikana	-10612
iosyn	-10613
iques	-10614
jesty	-10615
leeve	-10616
lowly	-10617
ooooo	-10618
osmos	-10619
ptune	-10620
robes	-10621
rocal	-10622
udios	-10623
ugees	-10624
uncul	-10625
woven	-10626
▁Deja	-10627
▁Dutt	-10628
▁Eeek	-10629
▁June	-10630
▁Knew	-10631
▁Lana	-10632
▁Logs	-10633
▁Maas	-10634
▁Mini	-10635
▁Musa	-10636
▁Plan	-10637
▁Play	-10638
▁Warn	-10639
▁York	-10640
▁aflo	-10641
▁aims	-10642
▁baza	-10643
▁deja	-10644
▁dork	-10645
▁dubh	-10646
▁ejac	-10647
▁foul	-10648
▁gtoo	-10649
▁guts	-10650
▁jeop	-10651
▁masc	-10652
▁merr	-10653
▁oxyg	-10654
▁pads	-10655
▁riii	-10656
▁skew	-10657
▁sofa	-10658
▁tarn	-10659
▁turb	-10660
▁wolf	-10661
▁zero	-10662
Budget	-10663
Danger	-10664
Dickie	-10665
Europe	-10666
Indeed	-10667
Pssssh	-10668
Shaykh	-10669
Transp	-10670
aliate	-10671
antrum	-10672
arcity	-10673
arters	-10674
aspora	-10675
atribe	-10676
atydid	-10677
aunted	-10678
avesty	-10679
beatin	-10680
called	-10681
ddlers	-10682
enegot	-10683
enterd	-10684
etooth	-10685
filled	-10686
finder	-10687
hubhan	-10688
icaped	-10689
iggles	-10690
innoch	-10691
ivocal	-10692
judged	-10693
lassic	-10694
loaded	-10695
minded	-10696
nounce	-10697
omenal	-10698
onfire	-10699
abel	-10700
curs	-10701
does	-10702
Ifrit	-10703
accur	-10704
attim	-10705
belts	-10706
ckett	-10707
doesn	-10708
itrog	-10709
kscre	-10710
yrdom	-10711
▁Bomb	-10712
▁Caes	-10713
▁Yama	-10714
▁latt	-10715
Ohhhhh	-10716
charge	-10717
kscrew	-10718
ophone	-10719
opians	-10720
optive	-10721
oquent	-10722
otiate	-10723
ouette	-10724
ovenly	-10725
points	-10726
rarian	-10727
rehens	-10728
rieval	-10729
rocial	-10730
rossel	-10731
runchy	-10732
seeing	-10733
shadow	-10734
shares	-10735
sleeve	-10736
smiley	-10737
transc	-10738
udgets	-10739
ulizer	-10740
upting	-10741
ursors	-10742
▁Alien	-10743
▁Babel	-10744
▁Billy	-10745
▁Busby	-10746
▁Color	-10747
▁Drumm	-10748
▁Girls	-10749
▁Grimm	-10750
▁Heads	-10751
▁Holds	-10752
▁Hotel	-10753
▁Major	-10754
▁Makin	-10755
▁Manor	-10756
▁Megap	-10757
▁Ooooo	-10758
▁Point	-10759
▁Relay	-10760
▁Smart	-10761
▁Split	-10762
▁Tolke	-10763
▁Twirl	-10764
▁Wipes	-10765
▁Wonde	-10766
▁aberr	-10767
▁aglow	-10768
▁aloof	-10769
▁antid	-10770
▁antit	-10771
▁atroc	-10772
▁bloss	-10773
▁choir	-10774
▁clums	-10775
▁cupca	-10776
▁dawns	-10777
▁defec	-10778
▁dogma	-10779
▁domes	-10780
▁epoch	-10781
▁faint	-10782
▁fancy	-10783
▁feral	-10784
▁fifte	-10785
▁focal	-10786
▁gaunt	-10787
▁gazed	-10788
▁girls	-10789
▁globs	-10790
▁grimo	-10791
▁gusts	-10792
▁hazel	-10793
▁hesit	-10794
▁inatt	-10795
▁incel	-10796
▁jacks	-10797
▁jerks	-10798
▁jinns	-10799
limit	-10800
levels	-10801
▁Eccoj	-10802
▁Showb	-10803
▁batht	-10804
▁hidey	-10805
▁jolts	-10806
▁juice	-10807
▁junct	-10808
▁lanes	-10809
▁magma	-10810
▁malic	-10811
▁matri	-10812
▁mercy	-10813
▁mimic	-10814
▁nicer	-10815
▁nihil	-10816
▁nutri	-10817
▁pecul	-10818
▁pilgr	-10819
▁pokes	-10820
▁polym	-10821
▁pumps	-10822
▁rebel	-10823
▁redef	-10824
▁renew	-10825
▁rival	-10826
▁ruled	-10827
▁ruler	-10828
▁rusty	-10829
▁samar	-10830
▁shrub	-10831
▁siree	-10832
▁siren	-10833
▁slyly	-10834
▁smogs	-10835
▁sniff	-10836
▁spews	-10837
▁swoop	-10838
▁taunt	-10839
▁tyran	-10840
▁unbel	-10841
▁unmar	-10842
▁unmot	-10843
▁vapid	-10844
▁venge	-10845
▁whims	-10846
Alright	-10847
Classic	-10848
Devices	-10849
Realism	-10850
Reality	-10851
acelets	-10852
aligned	-10853
aporous	-10854
atchers	-10855
aueteur	-10856
bruised	-10857
changer	-10858
charged	-10859
chipper	-10860
cluding	-10861
crasies	-10862
deficit	-10863
devices	-10864
drafted	-10865
erships	-10866
eternal	-10867
happily	-10868
healthy	-10869
herlock	-10870
idnight	-10871
ighters	-10872
igorous	-10873
ilenced	-10874
inderin	-10875
induced	-10876
iphilim	-10877
itarian	-10878
itrogly	-10879
judging	-10880
lorious	-10881
magical	-10882
markets	-10883
nalists	-10884
odifies	-10885
olesale	-10886
omerate	-10887
onomist	-10888
orrison	-10889
osopher	-10890
pelling	-10891
plitter	-10892
profess	-10893
related	-10894
scathed	-10895
seeable	-10896
soulful	-10897
spotted	-10898
valence	-10899
affe	-10900
coat	-10901
glow	-10902
mosp	-10903
warm	-10904
▁Ada	-10905
addle	-10906
armic	-10907
icoes	-10908
▁Adop	-10909
▁Camp	-10910
▁Trop	-10911
▁bagg	-10912
▁pina	-10913
▁wann	-10914
astrop	-10915
iraffe	-10916
ishers	-10917
kewarm	-10918
nowled	-10919
soaked	-10920
▁Adult	-10921
▁Track	-10922
▁Weeks	-10923
▁alarm	-10924
▁broke	-10925
▁champ	-10926
▁congl	-10927
▁crags	-10928
▁equil	-10929
▁equiv	-10930
▁fluid	-10931
▁glaze	-10932
▁irres	-10933
▁muted	-10934
▁reeks	-10935
▁wafts	-10936
leading	-10937
olluted	-10938
possess	-10939
reflect	-10940
ukewarm	-10941
zagging	-10942
▁Ahhhhh	-10943
▁Animal	-10944
▁Austri	-10945
▁Beasts	-10946
▁Buckle	-10947
▁Comics	-10948
▁Commit	-10949
▁Deeper	-10950
▁Dutton	-10951
▁Excurs	-10952
▁Failed	-10953
▁Forest	-10954
▁Gunter	-10955
▁Infern	-10956
▁Infrit	-10957
▁Lattim	-10958
▁Lighty	-10959
▁Little	-10960
▁Origin	-10961
▁Overlo	-10962
▁System	-10963
▁Tracks	-10964
▁Truman	-10965
▁Trying	-10966
▁Vaults	-10967
▁Villas	-10968
▁Yeehaw	-10969
▁afloat	-10970
▁agrees	-10971
▁amnesi	-10972
▁androg	-10973
▁atmosp	-10974
▁awning	-10975
▁babell	-10976
▁bronze	-10977
▁cackle	-10978
▁cacoon	-10979
▁cacoph	-10980
▁cancel	-10981
▁choral	-10982
▁church	-10983
▁corrid	-10984
▁cosmos	-10985
▁cragle	-10986
▁daddle	-10987
▁defend	-10988
▁deprec	-10989
▁disfig	-10990
▁econom	-10991
▁eleven	-10992
▁emphas	-10993
▁ensued	-10994
▁equals	-10995
▁eraser	-10996
▁esoter	-10997
▁extrem	-10998
▁faints	-10999
aulty	-11000
downs	-11001
iquid	-11002
▁Adam	-11003
▁ceil	-11004
ipster	-11005
uanced	-11006
▁Antar	-11007
▁dazed	-11008
▁debil	-11009
▁fixed	-11010
▁hosts	-11011
▁rifle	-11012
▁satir	-11013
▁scrot	-11014
▁shutt	-11015
ographs	-11016
oolbear	-11017
oranges	-11018
▁Faulty	-11019
▁Hmmhmm	-11020
▁Liquid	-11021
▁Losses	-11022
▁cereal	-11023
▁clangs	-11024
▁danced	-11025
▁divine	-11026
▁dollar	-11027
▁fasten	-11028
▁fibers	-11029
▁firing	-11030
▁fishes	-11031
▁forbid	-11032
▁gravit	-11033
▁grinds	-11034
▁groove	-11035
▁hazard	-11036
▁hoodoo	-11037
▁hooted	-11038
▁horrid	-11039
▁hospit	-11040
▁hubris	-11041
▁hunter	-11042
▁hypnot	-11043
▁incarn	-11044
▁inquir	-11045
▁italic	-11046
▁jumped	-11047
▁karmic	-11048
▁leaned	-11049
▁lifted	-11050
▁madman	-11051
▁magnet	-11052
▁mascot	-11053
▁matrix	-11054
▁meadow	-11055
▁odorif	-11056
▁oxygen	-11057
▁parsed	-11058
▁pendul	-11059
▁photos	-11060
▁poetry	-11061
▁policy	-11062
▁prelim	-11063
▁prints	-11064
▁psychi	-11065
▁pumped	-11066
▁putref	-11067
▁putrid	-11068
▁rabbit	-11069
▁raging	-11070
▁raised	-11071
▁raping	-11072
▁recipe	-11073
▁refurb	-11074
▁rekind	-11075
▁revive	-11076
▁revved	-11077
▁rustic	-11078
▁salary	-11079
▁saloon	-11080
▁satire	-11081
▁scragg	-11082
▁scuffs	-11083
▁seeker	-11084
▁shaman	-11085
▁shaped	-11086
▁shaykh	-11087
▁shrugs	-11088
▁skewed	-11089
▁smooth	-11090
▁socket	-11091
▁soiled	-11092
▁solely	-11093
▁squash	-11094
▁stairs	-11095
▁stalag	-11096
▁stumps	-11097
▁styles	-11098
▁stylus	-11099
Didn	-11100
Kudd	-11101
uddh	-11102
▁xyl	-11103
olmes	-11104
olyte	-11105
ribes	-11106
▁Feed	-11107
▁Mean	-11108
▁Saur	-11109
▁Trad	-11110
Kuddus	-11111
hmmmmm	-11112
makers	-11113
runken	-11114
▁Buddh	-11115
▁Carou	-11116
▁Indic	-11117
▁billy	-11118
▁campa	-11119
▁throb	-11120
compens	-11121
etermin	-11122
ommunic	-11123
▁Coming	-11124
▁Hermes	-11125
▁Holmes	-11126
▁Pencil	-11127
▁Rivers	-11128
▁Sauron	-11129
▁indigo	-11130
▁plumes	-11131
▁steadf	-11132
▁subsum	-11133
▁sucked	-11134
▁summer	-11135
▁syntax	-11136
▁tablet	-11137
▁temple	-11138
▁tested	-11139
▁thumbs	-11140
▁towels	-11141
▁troops	-11142
▁unbrid	-11143
▁unchar	-11144
▁unflin	-11145
▁unpubl	-11146
▁ushers	-11147
▁vampir	-11148
▁ventur	-11149
▁vessel	-11150
▁voodoo	-11151
▁wagons	-11152
▁wannab	-11153
▁warder	-11154
▁whirls	-11155
▁wiggle	-11156
▁yeehaw	-11157
▁zigzag	-11158
Actually	-11159
European	-11160
Splitter	-11161
abotaged	-11162
accurate	-11163
affected	-11164
alogical	-11165
alytical	-11166
arguably	-11167
attlings	-11168
balistic	-11169
blasting	-11170
building	-11171
ceenterd	-11172
cknowled	-11173
cognized	-11174
contract	-11175
creasing	-11176
delusion	-11177
diegetic	-11178
disorder	-11179
ditorial	-11180
dreaming	-11181
entleman	-11182
flatable	-11183
gregious	-11184
igrating	-11185
inderino	-11186
innochio	-11187
isements	-11188
iversary	-11189
izomatic	-11190
mittedly	-11191
nighters	-11192
ocumulus	-11193
ommunity	-11194
oquially	-11195
original	-11196
outhwest	-11197
ployment	-11198
powering	-11199
oze	-11200
!?--	-11201
Debt	-11202
cule	-11203
iota	-11204
▁Blv	-11205
brown	-11206
ibule	-11207
nibal	-11208
▁Blvd	-11209
▁Goat	-11210
▁iota	-11211
▁ooze	-11212
arcast	-11213
culean	-11214
odcast	-11215
▁Apoll	-11216
▁Newer	-11217
▁affix	-11218
▁inhib	-11219
▁itchy	-11220
▁legit	-11221
▁widen	-11222
Podcast	-11223
aseless	-11224
athetic	-11225
casting	-11226
icament	-11227
rilling	-11228
umbered	-11229
upposes	-11230
writers	-11231
▁Apollo	-11232
▁Naught	-11233
▁Strate	-11234
▁harmon	-11235
▁lensed	-11236
▁lockst	-11237
▁orders	-11238
▁psycho	-11239
▁societ	-11240
▁sociop	-11241
▁tapped	-11242
estibule	-11243
nibalism	-11244
numbered	-11245
pathetic	-11246
reaching	-11247
regnable	-11248
religous	-11249
reversed	-11250
romising	-11251
settings	-11252
silenced	-11253
smelling	-11254
strating	-11255
uricular	-11256
uterized	-11257
utopians	-11258
vomiting	-11259
▁Animals	-11260
▁Beautif	-11261
▁Beckett	-11262
▁Budgets	-11263
▁Caesars	-11264
▁Disease	-11265
▁Drowned	-11266
▁Drummer	-11267
▁Envelop	-11268
▁Expanse	-11269
▁Finally	-11270
▁Funding	-11271
▁Getting	-11272
▁Giraffe	-11273
▁Gistory	-11274
▁Glasses	-11275
▁Granite	-11276
▁Haunted	-11277
▁Kidding	-11278
▁Leading	-11279
▁Mineral	-11280
▁Musical	-11281
▁Neptune	-11282
▁Outside	-11283
▁Palance	-11284
▁Pencils	-11285
▁Profess	-11286
▁Readers	-11287
▁Reasons	-11288
▁Renegot	-11289
▁Sitting	-11290
▁Sounded	-11291
▁Studios	-11292
▁Systems	-11293
▁Turning	-11294
▁Weapons	-11295
▁Whatcha	-11296
▁acolyte	-11297
▁archway	-11298
▁arrives	-11299
Need	-11300
ammy	-11301
flow	-11302
rcan	-11303
▁Eno	-11304
▁Pee	-11305
▁cyl	-11306
amkin	-11307
oneym	-11308
pacts	-11309
prove	-11310
rails	-11311
rcana	-11312
rills	-11313
▁Foll	-11314
▁flux	-11315
eeched	-11316
fuckin	-11317
monies	-11318
owards	-11319
▁Enoch	-11320
▁Sammy	-11321
▁Vague	-11322
▁bells	-11323
▁grief	-11324
▁sails	-11325
▁toler	-11326
▁wires	-11327
andards	-11328
anyards	-11329
centric	-11330
fuckers	-11331
towards	-11332
▁Arcana	-11333
▁Lamkin	-11334
▁biased	-11335
▁bronco	-11336
▁cannib	-11337
▁chokes	-11338
▁cylind	-11339
▁exempl	-11340
▁freaks	-11341
▁grails	-11342
▁honeym	-11343
▁plague	-11344
▁scenic	-11345
artyrdom	-11346
eseeched	-11347
mbiguity	-11348
remonies	-11349
▁Follows	-11350
▁autonom	-11351
▁awnings	-11352
▁barrier	-11353
▁bathtub	-11354
▁bearded	-11355
▁begging	-11356
▁bellows	-11357
▁belongs	-11358
▁biograp	-11359
▁blessed	-11360
▁bonfire	-11361
▁bridges	-11362
▁brushes	-11363
▁bubbles	-11364
▁bulging	-11365
▁burials	-11366
▁buttons	-11367
▁casings	-11368
▁ceiling	-11369
▁chiming	-11370
▁chipper	-11371
▁clamber	-11372
▁cleaned	-11373
▁cochlea	-11374
▁compete	-11375
▁conveys	-11376
▁country	-11377
▁craggle	-11378
▁crashed	-11379
▁crossed	-11380
▁dazzles	-11381
▁dealter	-11382
▁deeming	-11383
▁derrick	-11384
▁diametr	-11385
▁diamond	-11386
▁divided	-11387
▁divides	-11388
▁doctors	-11389
▁drafted	-11390
▁drooped	-11391
▁drunken	-11392
▁economy	-11393
▁editors	-11394
▁elevens	-11395
▁embarks	-11396
▁enabled	-11397
▁ensuing	-11398
▁equally	-11399
aoke	-11400
ecid	-11401
rams	-11402
▁Aug	-11403
▁Scr	-11404
▁Tec	-11405
▁jug	-11406
Short	-11407
omedy	-11408
rozen	-11409
▁Buny	-11410
▁Dram	-11411
▁Palm	-11412
▁Scry	-11413
▁anec	-11414
▁tabs	-11415
▁unbi	-11416
▁undo	-11417
▁yoke	-11418
Always	-11419
araoke	-11420
bervis	-11421
cinema	-11422
upants	-11423
utants	-11424
▁Compl	-11425
▁Human	-11426
▁Moral	-11427
▁anecd	-11428
▁armch	-11429
▁choke	-11430
▁evoke	-11431
▁flipp	-11432
▁genoc	-11433
▁rerun	-11434
▁torso	-11435
▁undid	-11436
▁wield	-11437
Subject	-11438
Subvers	-11439
clearly	-11440
ersonal	-11441
iteness	-11442
pathize	-11443
ubervis	-11444
udeness	-11445
ustomed	-11446
visible	-11447
▁Abrams	-11448
▁August	-11449
▁Bunyan	-11450
▁Comedy	-11451
▁Detect	-11452
▁Frozen	-11453
▁Middle	-11454
▁Tecate	-11455
▁armies	-11456
▁ascend	-11457
▁jewell	-11458
▁lunges	-11459
▁quiver	-11460
▁splint	-11461
llutants	-11462
missions	-11463
▁Karaoke	-11464
▁Scratch	-11465
▁breatht	-11466
▁degener	-11467
▁despond	-11468
▁erasing	-11469
▁exalted	-11470
▁expanse	-11471
▁fitting	-11472
▁fixture	-11473
▁flashed	-11474
▁flowers	-11475
▁folders	-11476
▁footage	-11477
▁footing	-11478
▁forbids	-11479
▁fortune	-11480
▁fraught	-11481
▁freezes	-11482
▁gaining	-11483
▁gathers	-11484
▁giggles	-11485
▁grumble	-11486
▁hammers	-11487
▁handleb	-11488
▁harmful	-11489
▁harmony	-11490
▁heaping	-11491
▁helixes	-11492
▁hipster	-11493
▁hurdles	-11494
▁idiosyn	-11495
▁illegal	-11496
▁infancy	-11497
▁insepar	-11498
▁intrigu	-11499
hmmm	-11500
petr	-11501
rays	-11502
trays	-11503
▁dinn	-11504
▁musc	-11505
obbing	-11506
raying	-11507
sexual	-11508
▁Click	-11509
▁Close	-11510
▁brews	-11511
▁burns	-11512
▁crann	-11513
▁feeds	-11514
▁loopy	-11515
▁navig	-11516
▁tests	-11517
▁upend	-11518
▁weeps	-11519
cutting	-11520
hatever	-11521
tapping	-11522
venture	-11523
▁Clouds	-11524
▁grassy	-11525
▁hmmhmm	-11526
▁naught	-11527
▁speeds	-11528
▁zapped	-11529
Whatever	-11530
balloons	-11531
embering	-11532
petrator	-11533
▁Bobbing	-11534
▁Praying	-11535
▁Section	-11536
▁affects	-11537
▁asexual	-11538
▁blaming	-11539
▁dinners	-11540
▁inspire	-11541
▁intuits	-11542
▁jeopard	-11543
▁jerking	-11544
▁jeweled	-11545
▁jugular	-11546
▁katydid	-11547
▁largely	-11548
▁lattice	-11549
▁leeches	-11550
▁lifting	-11551
▁livable	-11552
▁manipul	-11553
▁masterb	-11554
▁matches	-11555
▁measure	-11556
▁medical	-11557
▁minimum	-11558
▁moisten	-11559
▁montage	-11560
▁muscles	-11561
▁naivety	-11562
▁novella	-11563
▁obliter	-11564
▁ordered	-11565
▁orifice	-11566
▁outdoor	-11567
▁outgrow	-11568
▁oversee	-11569
▁paranan	-11570
▁patient	-11571
▁pleasur	-11572
▁plummet	-11573
▁poisons	-11574
▁polyure	-11575
▁ponders	-11576
▁posters	-11577
▁potions	-11578
▁prairie	-11579
▁precede	-11580
▁prepost	-11581
▁prevent	-11582
▁primord	-11583
▁proport	-11584
▁psyched	-11585
▁pumping	-11586
▁pursuit	-11587
▁puzzled	-11588
▁rageful	-11589
▁rebirth	-11590
▁rectify	-11591
▁reduced	-11592
▁reinvig	-11593
▁renamed	-11594
▁reoccur	-11595
▁researc	-11596
▁retains	-11597
▁revital	-11598
▁rhyming	-11599
.'"	-11600
fric	-11601
prot	-11602
amped	-11603
atric	-11604
bsite	-11605
frica	-11606
links	-11607
ooped	-11608
print	-11609
uries	-11610
▁Drip	-11611
▁enjo	-11612
▁lady	-11613
▁logo	-11614
▁lurk	-11615
Sounds	-11616
Though	-11617
entral	-11618
iniest	-11619
priced	-11620
reflex	-11621
▁curbs	-11622
▁draft	-11623
▁hurry	-11624
▁lurks	-11625
▁panes	-11626
▁spoke	-11627
▁winks	-11628
agmatic	-11629
chestra	-11630
othills	-11631
raption	-11632
▁Africa	-11633
▁Overha	-11634
▁Patric	-11635
▁accomm	-11636
▁dynast	-11637
▁folded	-11638
▁logist	-11639
▁looped	-11640
▁shorts	-11641
▁unison	-11642
▁unprot	-11643
▁wastel	-11644
▁angelic	-11645
▁arrange	-11646
▁barking	-11647
▁bazaars	-11648
▁desires	-11649
▁enterpr	-11650
▁modules	-11651
▁pitches	-11652
▁receive	-11653
▁replica	-11654
▁riddled	-11655
▁riddles	-11656
▁ripples	-11657
▁rusting	-11658
▁sailing	-11659
▁service	-11660
▁settles	-11661
▁shapesh	-11662
▁sharpen	-11663
▁sibling	-11664
▁silverw	-11665
▁sloshed	-11666
▁snuffed	-11667
▁spectac	-11668
▁spicing	-11669
▁spoiled	-11670
▁spooked	-11671
▁spotted	-11672
▁springs	-11673
▁squeeze	-11674
▁squints	-11675
▁stageco	-11676
▁stamped	-11677
▁starred	-11678
▁streaks	-11679
▁stripes	-11680
▁succumb	-11681
▁swooped	-11682
▁tangent	-11683
▁tantrum	-11684
▁tedious	-11685
▁testify	-11686
▁thanked	-11687
▁thrills	-11688
▁ticking	-11689
▁tightly	-11690
▁torment	-11691
▁tractor	-11692
▁unavoid	-11693
▁unhappy	-11694
▁unifies	-11695
▁unmotiv	-11696
▁unwinds	-11697
▁verbose	-11698
▁vibrant	-11699
hift	-11700
lift	-11701
oths	-11702
whel	-11703
▁RIA	-11704
Talib	-11705
abins	-11706
aboom	-11707
iftly	-11708
woman	-11709
▁Jung	-11710
▁Vibr	-11711
▁curi	-11712
▁daft	-11713
▁gulp	-11714
Modern	-11715
aliban	-11716
asturb	-11717
auteur	-11718
helves	-11719
kaboom	-11720
▁Bunch	-11721
▁Clips	-11722
▁Often	-11723
▁Thoth	-11724
▁Twins	-11725
▁coins	-11726
▁defer	-11727
▁joins	-11728
▁shaft	-11729
▁slung	-11730
▁tooth	-11731
verwhel	-11732
▁Cabins	-11733
▁booths	-11734
▁outfit	-11735
▁sports	-11736
▁tangle	-11737
Overwhel	-11738
irouette	-11739
licitous	-11740
spension	-11741
▁Caliban	-11742
▁Revenue	-11743
▁defying	-11744
▁escatic	-11745
▁gateway	-11746
▁lurking	-11747
▁masturb	-11748
▁preserv	-11749
▁simplic	-11750
▁swiftly	-11751
▁touched	-11752
▁viruses	-11753
▁vitally	-11754
▁voltage	-11755
▁volumes	-11756
▁waddled	-11757
▁wastrel	-11758
▁wavered	-11759
▁weapons	-11760
▁whimper	-11761
▁whisked	-11762
▁wrapped	-11763
▁yanking	-11764
Modernism	-11765
Subversiv	-11766
Thrilling	-11767
adication	-11768
affection	-11769
andicaped	-11770
andomness	-11771
aposition	-11772
arrassing	-11773
breathing	-11774
dependent	-11775
elessness	-11776
everybody	-11777
hizomatic	-11778
ifference	-11779
ilderment	-11780
ilderness	-11781
ilizingly	-11782
inguished	-11783
invisible	-11784
invisibly	-11785
involving	-11786
limitless	-11787
mological	-11788
nightmare	-11789
placement	-11790
plainable	-11791
pointment	-11792
professor	-11793
rendering	-11794
rinchetta	-11795
rocketing	-11796
seriously	-11797
ssilizing	-11798
stretched	-11799
blow	-11800
blue	-11801
elev	-11802
blast	-11803
imacy	-11804
llipt	-11805
newly	-11806
ships	-11807
▁Gods	-11808
▁Mobi	-11809
▁runa	-11810
blowin	-11811
ceived	-11812
heaven	-11813
uption	-11814
▁delta	-11815
▁delud	-11816
▁grays	-11817
▁havin	-11818
▁poems	-11819
▁rolls	-11820
justice	-11821
justing	-11822
relying	-11823
teacher	-11824
▁Heaven	-11825
▁Mobius	-11826
▁Unable	-11827
▁Unless	-11828
▁boiled	-11829
▁citing	-11830
▁dissol	-11831
▁disson	-11832
▁ellipt	-11833
▁futile	-11834
▁lapses	-11835
▁lowers	-11836
▁messen	-11837
▁rarity	-11838
▁shaven	-11839
▁tyrann	-11840
acherous	-11841
elevated	-11842
▁Inferno	-11843
▁ambergr	-11844
▁buckled	-11845
▁deluded	-11846
▁emotive	-11847
▁graying	-11848
▁hatreds	-11849
▁predest	-11850
▁predict	-11851
▁remover	-11852
▁runaway	-11853
▁spotlit	-11854
adjusting	-11855
ibilities	-11856
symbolism	-11857
uminosity	-11858
upposedly	-11859
uratively	-11860
xposition	-11861
▁Backster	-11862
▁Balloons	-11863
▁Buckaroo	-11864
▁Carousel	-11865
▁Chatbots	-11866
▁Chaterer	-11867
▁Circular	-11868
▁Colorado	-11869
▁Confetti	-11870
▁Confused	-11871
▁Constant	-11872
▁Dramatic	-11873
▁Drinking	-11874
▁Eldritch	-11875
▁Evaluate	-11876
▁External	-11877
▁Flipping	-11878
▁Gibsyean	-11879
▁Hundreds	-11880
▁Inverted	-11881
▁Lattimer	-11882
▁Megaplex	-11883
▁Midnight	-11884
▁Morewood	-11885
▁Morrison	-11886
▁Niphilim	-11887
▁Oooooore	-11888
▁Opposite	-11889
▁Original	-11890
▁Overhaul	-11891
▁Personal	-11892
▁Position	-11893
▁Princess	-11894
▁Received	-11895
▁Relation	-11896
▁Rigorous	-11897
▁Scrawled	-11898
▁Sleeping	-11899
nox	-11900
Dogg	-11901
▁Mrs	-11902
▁Obl	-11903
▁owl	-11904
ockey	-11905
orged	-11906
ouged	-11907
unday	-11908
▁Dizz	-11909
▁Grou	-11910
▁maul	-11911
▁tund	-11912
Doggie	-11913
ertons	-11914
ivises	-11915
mining	-11916
piling	-11917
raints	-11918
undity	-11919
undled	-11920
wining	-11921
worked	-11922
▁Dizzy	-11923
▁Years	-11924
▁abund	-11925
▁alert	-11926
▁array	-11927
▁fires	-11928
▁gears	-11929
▁matur	-11930
▁obnox	-11931
▁paths	-11932
▁plops	-11933
▁radio	-11934
embered	-11935
flooded	-11936
rolling	-11937
twining	-11938
▁Colors	-11939
▁Groups	-11940
▁Sunday	-11941
▁advent	-11942
▁befall	-11943
▁capill	-11944
▁chills	-11945
▁critic	-11946
▁demons	-11947
▁dining	-11948
▁gouged	-11949
▁jockey	-11950
▁lining	-11951
▁mauled	-11952
▁medium	-11953
▁oddity	-11954
▁premon	-11955
▁purged	-11956
▁skulls	-11957
▁strove	-11958
▁tundra	-11959
▁uninte	-11960
▁unreal	-11961
▁unrequ	-11962
▁unspec	-11963
interest	-11964
membered	-11965
▁Bundled	-11966
▁bounced	-11967
▁damaged	-11968
▁damages	-11969
▁powered	-11970
▁premier	-11971
▁silvery	-11972
▁unremit	-11973
entivises	-11974
scrolling	-11975
▁Splitten	-11976
▁Strategy	-11977
▁Subervis	-11978
▁Supplies	-11979
▁Theydidn	-11980
▁Tropical	-11981
▁Vaporous	-11982
▁Watchers	-11983
▁Werewolf	-11984
▁academia	-11985
▁academic	-11986
▁accommod	-11987
▁accruing	-11988
▁actively	-11989
▁adjusted	-11990
▁amnesiac	-11991
▁androgen	-11992
▁anecdote	-11993
▁antidote	-11994
▁appropro	-11995
▁arguable	-11996
▁artifact	-11997
▁assuming	-11998
▁attended	-11999
!'"	-12000
hhh	-12001
Ohhh	-12002
dala	-12003
Young	-12004
ednes	-12005
gdala	-12006
opomp	-12007
▁camp	-12008
▁ehhh	-12009
▁encl	-12010
curely	-12011
dosing	-12012
gement	-12013
giving	-12014
ntrodu	-12015
viving	-12016
ygdala	-12017
▁Extra	-12018
▁Franc	-12019
▁synop	-12020
Introdu	-12021
ementia	-12022
isterly	-12023
itivity	-12024
letting	-12025
▁Anyway	-12026
▁Replic	-12027
▁Wednes	-12028
▁depart	-12029
▁fiving	-12030
▁frames	-12031
▁harmed	-12032
▁modest	-12033
▁solace	-12034
▁superb	-12035
▁unused	-12036
sisterly	-12037
udgement	-12038
▁Francis	-12039
▁accused	-12040
▁blender	-12041
▁bristle	-12042
▁depress	-12043
▁refused	-12044
▁snipped	-12045
▁weirdos	-12046
▁Anywhere	-12047
▁amygdala	-12048
▁avoidant	-12049
▁avoiding	-12050
▁baffling	-12051
▁banality	-12052
▁blankets	-12053
▁bleached	-12054
▁bleeding	-12055
▁bloggers	-12056
▁blooming	-12057
▁blueness	-12058
▁boarding	-12059
▁bragging	-12060
▁breathin	-12061
▁brushing	-12062
▁carousel	-12063
▁ceilings	-12064
▁channels	-12065
▁chatters	-12066
▁chomping	-12067
▁clanging	-12068
▁clanking	-12069
▁clothing	-12070
▁colonize	-12071
▁conjures	-12072
▁contacts	-12073
▁counterp	-12074
▁coupling	-12075
▁coursing	-12076
▁craggles	-12077
▁crannies	-12078
▁criteria	-12079
▁critique	-12080
▁cultures	-12081
▁cupcakes	-12082
▁cushions	-12083
▁darkened	-12084
▁decimate	-12085
▁defecate	-12086
▁degraded	-12087
▁dementia	-12088
▁depleted	-12089
▁deranged	-12090
▁deserved	-12091
▁designer	-12092
▁didactic	-12093
▁diegetic	-12094
▁dispense	-12095
▁distinct	-12096
▁doctrine	-12097
▁educator	-12098
▁elevator	-12099
?).	-12100
exam	-12101
stoy	-12102
uroy	-12103
wasn	-12104
▁Mex	-12105
▁afl	-12106
▁zag	-12107
Weren	-12108
armed	-12109
asels	-12110
duroy	-12111
ermis	-12112
exist	-12113
liche	-12114
ombed	-12115
ribed	-12116
▁malf	-12117
▁runs	-12118
▁vacu	-12119
▁yawn	-12120
asming	-12121
facing	-12122
licate	-12123
themed	-12124
▁Goods	-12125
▁Oppen	-12126
▁cargo	-12127
▁fairy	-12128
▁index	-12129
▁merch	-12130
▁peels	-12131
▁steal	-12132
▁surfs	-12133
atinous	-12134
idermis	-12135
itution	-12136
scribed	-12137
▁Cliche	-12138
▁Memory	-12139
▁Mexico	-12140
▁aflame	-12141
▁bombed	-12142
▁casual	-12143
▁cattle	-12144
▁circum	-12145
▁freeze	-12146
▁healed	-12147
▁hummed	-12148
▁mopped	-12149
▁pacing	-12150
▁tendon	-12151
▁trusty	-12152
▁vacuum	-12153
existent	-12154
urfacing	-12155
▁Charmed	-12156
▁Oppenhe	-12157
▁Tolstoy	-12158
▁Whereas	-12159
▁benefic	-12160
▁frontal	-12161
▁reveals	-12162
▁revered	-12163
▁stepped	-12164
▁strives	-12165
▁weasels	-12166
▁yawning	-12167
aginative	-12168
elatinous	-12169
▁absences	-12170
▁cartoons	-12171
▁corduroy	-12172
▁delicate	-12173
▁eloquent	-12174
▁embarked	-12175
▁emerging	-12176
▁employer	-12177
▁enabling	-12178
▁enchants	-12179
▁endeavor	-12180
▁enforced	-12181
▁enforces	-12182
▁engaging	-12183
▁enjoying	-12184
▁entangle	-12185
▁envelops	-12186
▁equality	-12187
▁erosions	-12188
▁erupting	-12189
▁eruption	-12190
▁excavate	-12191
▁excelled	-12192
▁excesses	-12193
▁excommun	-12194
▁exposing	-12195
▁fighting	-12196
▁figurine	-12197
▁filleted	-12198
▁flailing	-12199
dia	-12200
nia	-12201
pia	-12202
gypt	-12203
udgy	-12204
umpo	-12205
▁ADH	-12206
▁dia	-12207
front	-12208
omnia	-12209
pires	-12210
umpet	-12211
▁ADHD	-12212
▁Herz	-12213
▁gutt	-12214
▁juxt	-12215
▁pump	-12216
▁unbl	-12217
forces	-12218
ipline	-12219
ornado	-12220
▁Break	-12221
▁Dumpo	-12222
▁Egypt	-12223
▁Flick	-12224
▁loner	-12225
▁pudgy	-12226
▁rises	-12227
▁safer	-12228
▁sands	-12229
▁scraw	-12230
▁sepia	-12231
▁stern	-12232
ernible	-12233
forated	-12234
gerator	-12235
grained	-12236
urrying	-12237
▁Herrin	-12238
▁Herzog	-12239
▁barged	-12240
▁checkm	-12241
▁cigars	-12242
▁growls	-12243
▁housew	-12244
▁improv	-12245
▁Herself	-12246
▁Tornado	-12247
▁airline	-12248
▁convent	-12249
▁drained	-12250
▁empires	-12251
▁flights	-12252
▁gliding	-12253
▁heights	-12254
▁marvels	-12255
▁motions	-12256
▁pausing	-12257
▁regards	-12258
▁trumpet	-12259
▁wrangle	-12260
rigerator	-12261
▁afforded	-12262
▁fleeting	-12263
▁flooring	-12264
▁flutters	-12265
▁follicle	-12266
▁fountain	-12267
▁fracture	-12268
▁fungible	-12269
▁gauntlet	-12270
▁gladness	-12271
▁gravitas	-12272
▁grayness	-12273
▁greeting	-12274
▁grimaces	-12275
▁grimoire	-12276
▁gripping	-12277
▁guttural	-12278
▁harmless	-12279
▁heighted	-12280
▁hesitant	-12281
▁horizont	-12282
▁horribly	-12283
▁humbling	-12284
▁implores	-12285
▁imprison	-12286
▁indigoed	-12287
▁infernal	-12288
▁inflated	-12289
▁influenc	-12290
▁inhabits	-12291
▁inquires	-12292
▁insanely	-12293
▁insights	-12294
▁insomnia	-12295
▁intrigue	-12296
▁invading	-12297
▁jewelled	-12298
▁juncture	-12299
hush	-12300
imsy	-12301
irco	-12302
umsy	-12303
▁ome	-12304
Mirco	-12305
Synch	-12306
adjac	-12307
▁Copy	-12308
▁Feat	-12309
▁Rush	-12310
▁Tues	-12311
▁cues	-12312
▁hush	-12313
▁ineb	-12314
▁mush	-12315
▁omeg	-12316
▁salv	-12317
▁unex	-12318
Honest	-12319
belief	-12320
eshare	-12321
unnels	-12322
▁Clean	-12323
▁David	-12324
▁Secre	-12325
▁Tooth	-12326
▁bingo	-12327
▁embod	-12328
▁insan	-12329
▁insat	-12330
▁males	-12331
▁mirac	-12332
▁mirro	-12333
▁omega	-12334
▁perme	-12335
▁plume	-12336
▁shoes	-12337
▁unsto	-12338
▁vangu	-12339
▁wowed	-12340
Whoever	-12341
amework	-12342
auchery	-12343
orified	-12344
tunnels	-12345
▁Gotten	-12346
▁Seated	-12347
▁Secret	-12348
▁abduct	-12349
▁clench	-12350
▁clumsy	-12351
▁flimsy	-12352
▁flowed	-12353
▁inebri	-12354
▁mirage	-12355
▁resets	-12356
▁scraps	-12357
▁stayed	-12358
▁teases	-12359
▁tombed	-12360
▁uneart	-12361
▁wallow	-12362
Honestly	-12363
adjacent	-12364
mination	-12365
▁Tuesday	-12366
▁consult	-12367
▁creases	-12368
▁critiqu	-12369
▁debacle	-12370
▁grouchy	-12371
▁illness	-12372
▁marched	-12373
▁miracul	-12374
▁outcast	-12375
▁unstopp	-12376
rological	-12377
▁Features	-12378
▁abducted	-12379
▁bothered	-12380
▁embodied	-12381
▁insanity	-12382
▁knocking	-12383
▁knuckles	-12384
▁lanyards	-12385
▁leverage	-12386
▁magazine	-12387
▁magnetic	-12388
▁maturity	-12389
▁measured	-12390
▁melodies	-12391
▁merchand	-12392
▁metallic	-12393
▁midpoint	-12394
▁mirrored	-12395
▁mirthful	-12396
▁mornings	-12397
▁mumbling	-12398
▁murderer	-12399
kayk	-12400
▁irk	-12401
▁max	-12402
aloon	-12403
aphic	-12404
cends	-12405
hicle	-12406
litch	-12407
▁Hats	-12408
▁coun	-12409
▁epit	-12410
▁taut	-12411
aholic	-12412
avowed	-12413
concer	-12414
eniere	-12415
little	-12416
onents	-12417
rodden	-12418
umming	-12419
veyors	-12420
▁House	-12421
▁Mouth	-12422
▁Skayk	-12423
▁bends	-12424
▁boats	-12425
▁heats	-12426
▁kicks	-12427
▁maxim	-12428
▁spoon	-12429
▁taped	-12430
▁tends	-12431
▁uniqu	-12432
archies	-12433
izzical	-12434
trodden	-12435
vehicle	-12436
visions	-12437
▁Agents	-12438
▁Econom	-12439
▁Glitch	-12440
▁Having	-12441
▁Images	-12442
▁Saloon	-12443
▁Shaman	-12444
▁approx	-12445
▁digust	-12446
▁learns	-12447
▁mutter	-12448
▁rutter	-12449
▁starch	-12450
▁sunlit	-12451
▁waving	-12452
▁Disappe	-12453
▁Meniere	-12454
▁budgets	-12455
▁clutter	-12456
▁counsel	-12457
▁digress	-12458
▁digusts	-12459
▁graphic	-12460
▁harming	-12461
▁loosely	-12462
▁maximal	-12463
▁opposed	-12464
▁oppress	-12465
▁scripts	-12466
▁stutter	-12467
▁univers	-12468
▁approxim	-12469
▁drumming	-12470
▁epitomes	-12471
▁muttered	-12472
▁mytholog	-12473
▁neurotic	-12474
▁obstacle	-12475
▁occasion	-12476
▁offstage	-12477
▁ornament	-12478
▁outcomes	-12479
▁outlined	-12480
▁overcome	-12481
▁overlaid	-12482
▁paradise	-12483
▁parlance	-12484
▁pathetic	-12485
▁patience	-12486
▁peculiar	-12487
▁performs	-12488
▁perfumes	-12489
▁perverse	-12490
▁polished	-12491
▁portrait	-12492
▁preceded	-12493
▁predator	-12494
▁protests	-12495
▁puppeted	-12496
▁puzzling	-12497
▁quantify	-12498
▁quarters	-12499
.),	-12500
wha	-12501
oots	-12502
task	-12503
cords	-12504
roads	-12505
shape	-12506
stabl	-12507
▁Lots	-12508
▁Myth	-12509
▁dots	-12510
▁gape	-12511
▁hype	-12512
▁vegg	-12513
▁vend	-12514
amrock	-12515
arship	-12516
ilient	-12517
rocket	-12518
▁Cried	-12519
▁Shape	-12520
▁caref	-12521
▁flask	-12522
▁grape	-12523
▁munch	-12524
▁veget	-12525
ionship	-12526
rockett	-12527
sincere	-12528
▁Bodies	-12529
▁Establ	-12530
▁disreg	-12531
▁graves	-12532
▁incite	-12533
▁incred	-12534
▁online	-12535
▁produc	-12536
▁pruney	-12537
▁scoots	-12538
▁sensor	-12539
▁shafts	-12540
▁slaves	-12541
▁snores	-12542
Shamrock	-12543
arguable	-12544
▁Records	-12545
▁assigns	-12546
▁desired	-12547
▁hallows	-12548
▁miracle	-12549
▁produce	-12550
▁resides	-12551
▁sensing	-12552
▁traject	-12553
▁veering	-12554
▁vegetab	-12555
▁veggies	-12556
▁vendors	-12557
▁Crockett	-12558
▁Whenever	-12559
▁carefree	-12560
▁decaying	-12561
▁generate	-12562
▁produces	-12563
▁quickens	-12564
▁railways	-12565
▁raincoat	-12566
▁reassess	-12567
▁reassure	-12568
▁reciting	-12569
▁refugees	-12570
▁regulars	-12571
▁regulate	-12572
▁releases	-12573
▁relieved	-12574
▁required	-12575
▁resonant	-12576
▁respects	-12577
▁restarts	-12578
▁reversal	-12579
▁reversed	-12580
▁reviewed	-12581
▁ringlets	-12582
▁rippling	-12583
▁roadways	-12584
▁routines	-12585
▁ruptuous	-12586
▁satiated	-12587
▁scaffold	-12588
▁scraggly	-12589
▁scramble	-12590
▁screamed	-12591
▁scripted	-12592
▁scrunchy	-12593
▁secondly	-12594
▁securely	-12595
▁settling	-12596
▁shavings	-12597
▁shocking	-12598
▁shouting	-12599
awk	-12600
iltr	-12601
▁raw	-12602
claim	-12603
oddly	-12604
urped	-12605
vency	-12606
verns	-12607
▁Farm	-12608
▁bals	-12609
▁cycl	-12610
▁digs	-12611
▁mawk	-12612
▁trem	-12613
▁trep	-12614
avored	-12615
boards	-12616
ishaps	-12617
itched	-12618
novels	-12619
orched	-12620
otched	-12621
otland	-12622
▁balsa	-12623
▁curls	-12624
▁honed	-12625
▁ignob	-12626
▁leaps	-12627
▁messi	-12628
▁moron	-12629
▁rainb	-12630
▁seals	-12631
ensored	-12632
iltrate	-12633
reacted	-12634
versals	-12635
▁blamed	-12636
▁burped	-12637
▁joined	-12638
▁rushed	-12639
▁sailor	-12640
▁straps	-12641
▁trepid	-12642
classics	-12643
ifferent	-12644
igencies	-12645
▁Closing	-12646
▁acclaim	-12647
▁animals	-12648
▁appeals	-12649
▁caverns	-12650
▁drowned	-12651
▁favored	-12652
▁grounds	-12653
▁ignoble	-12654
▁liquidy	-12655
▁mawkish	-12656
▁messiah	-12657
▁mishaps	-12658
▁morally	-12659
▁profits	-12660
▁replied	-12661
▁tremors	-12662
▁untamed	-12663
▁Censored	-12664
▁National	-12665
▁Scotland	-12666
▁bleacher	-12667
▁blotched	-12668
▁concepts	-12669
▁confined	-12670
▁cyclical	-12671
▁explored	-12672
▁extrater	-12673
▁flicking	-12674
▁glitched	-12675
▁grounded	-12676
▁nitrogly	-12677
▁operator	-12678
▁reflects	-12679
▁scorched	-12680
▁shrubber	-12681
▁shuffles	-12682
▁sleeping	-12683
▁slovenly	-12684
▁smashing	-12685
▁smelling	-12686
▁smuggled	-12687
▁solidity	-12688
▁solvency	-12689
▁somethin	-12690
▁spasming	-12691
▁spectrum	-12692
▁spiraled	-12693
▁spoiling	-12694
▁spookily	-12695
▁sputters	-12696
▁squarely	-12697
▁squeezed	-12698
▁staggers	-12699
boy	-12700
why	-12701
Conf	-12702
bole	-12703
dges	-12704
hoor	-12705
krit	-12706
ucet	-12707
ucus	-12708
▁Cup	-12709
▁Ref	-12710
▁rug	-12711
Manny	-12712
adapt	-12713
aptic	-12714
buddy	-12715
keley	-12716
orthy	-12717
owboy	-12718
ucent	-12719
ughed	-12720
usses	-12721
▁Capt	-12722
▁Crit	-12723
▁dram	-12724
▁erst	-12725
▁odds	-12726
▁rapt	-12727
family	-12728
hooray	-12729
ritten	-12730
worthy	-12731
▁Gains	-12732
▁drank	-12733
▁drown	-12734
▁erase	-12735
▁mucus	-12736
Written	-12737
anskrit	-12738
erkeley	-12739
ushable	-12740
▁Busses	-12741
▁arched	-12742
▁bounds	-12743
▁cowboy	-12744
▁dodges	-12745
▁drains	-12746
▁drapes	-12747
▁erased	-12748
▁faucet	-12749
▁forged	-12750
▁forgot	-12751
▁guiles	-12752
▁innate	-12753
▁joking	-12754
▁layout	-12755
▁plains	-12756
▁repeti	-12757
▁typify	-12758
▁verify	-12759
▁Bastrop	-12760
▁Classic	-12761
▁conflic	-12762
▁destory	-12763
▁earthqu	-12764
▁floated	-12765
▁laughed	-12766
▁plights	-12767
▁signals	-12768
deadening	-12769
ustworthy	-12770
▁Berkeley	-12771
▁Captured	-12772
▁Sanskrit	-12773
▁doubtful	-12774
▁dramatic	-12775
▁flopping	-12776
▁layering	-12777
▁shutting	-12778
▁sideline	-12779
▁stairway	-12780
▁stammery	-12781
▁steadies	-12782
▁stepping	-12783
▁stirring	-12784
▁stupidly	-12785
▁succinct	-12786
▁superbly	-12787
▁supervis	-12788
▁supplies	-12789
▁supposes	-12790
▁swallows	-12791
▁synaptic	-12792
▁tailsman	-12793
▁tangible	-12794
▁terraces	-12795
▁terrains	-12796
▁terrible	-12797
▁theorist	-12798
▁thwarted	-12799
dec	-12800
hnu	-12801
▁Kne	-12802
Think	-12803
break	-12804
decay	-12805
elery	-12806
gonna	-12807
iehnu	-12808
▁Peri	-12809
▁Wolf	-12810
▁budd	-12811
▁cudd	-12812
▁limp	-12813
▁rash	-12814
▁rive	-12815
caster	-12816
parity	-12817
umbled	-12818
ussias	-12819
▁Await	-12820
▁Kneem	-12821
▁Periw	-12822
▁crash	-12823
▁icons	-12824
▁iehnu	-12825
▁makin	-12826
▁river	-12827
▁slash	-12828
▁slope	-12829
▁vocal	-12830
▁woods	-12831
▁yield	-12832
ariance	-12833
attling	-12834
casters	-12835
liminal	-12836
rectile	-12837
▁Awaits	-12838
▁Excess	-12839
▁bestow	-12840
▁bloody	-12841
▁celery	-12842
▁cuddly	-12843
▁faiths	-12844
▁faster	-12845
▁infant	-12846
▁infuse	-12847
▁machin	-12848
▁rivets	-12849
Variance	-12850
astiness	-12851
eneously	-12852
parately	-12853
urements	-12854
▁Kneeman	-12855
▁Russias	-12856
▁appeare	-12857
▁buddies	-12858
▁equilib	-12859
▁figment	-12860
▁guessed	-12861
▁infract	-12862
▁orderly	-12863
▁secrete	-12864
▁smacked	-12865
▁tending	-12866
Victorian	-12867
andscapes	-12868
ternality	-12869
▁Periwink	-12870
▁autonomy	-12871
▁diseases	-12872
▁erectile	-12873
▁fakebook	-12874
▁figuring	-12875
▁fruitful	-12876
▁guessing	-12877
▁hopeless	-12878
▁machinic	-12879
▁rattling	-12880
▁snarling	-12881
▁spending	-12882
▁stumbled	-12883
▁tightest	-12884
▁timeless	-12885
▁toddlers	-12886
▁transmut	-12887
▁trashing	-12888
▁traveled	-12889
▁traveler	-12890
▁traverse	-12891
▁travesty	-12892
▁truthful	-12893
▁unbeliev	-12894
▁unbiased	-12895
▁unjustly	-12896
▁unlikely	-12897
▁unloving	-12898
▁unorigin	-12899
ynx	-12900
embr	-12901
lime	-12902
ofus	-12903
anean	-12904
earth	-12905
inets	-12906
retty	-12907
saken	-12908
taken	-12909
thane	-12910
tiled	-12911
toned	-12912
▁Chol	-12913
▁lynx	-12914
▁mugg	-12915
▁sane	-12916
▁unto	-12917
▁untr	-12918
chlike	-12919
likely	-12920
limely	-12921
ranean	-12922
▁Chuck	-12923
▁hello	-12924
▁hives	-12925
▁latex	-12926
▁meets	-12927
▁muggy	-12928
▁outta	-12929
▁parod	-12930
▁plane	-12931
▁poets	-12932
▁tides	-12933
abinets	-12934
becomes	-12935
embrace	-12936
▁Baffem	-12937
▁Chines	-12938
▁Choler	-12939
▁Cosmos	-12940
▁Pretty	-12941
▁doofus	-12942
▁dragon	-12943
▁furnit	-12944
▁immens	-12945
▁lesser	-12946
▁parall	-12947
▁shaken	-12948
▁stages	-12949
▁talkin	-12950
▁untied	-12951
▁vanity	-12952
▁Chinese	-12953
▁Cholera	-12954
▁bucking	-12955
▁builded	-12956
▁grimace	-12957
▁hellish	-12958
▁immense	-12959
▁natives	-12960
▁sizable	-12961
terranean	-12962
▁analyzes	-12963
▁bearable	-12964
▁cabinets	-12965
▁crystals	-12966
▁emptying	-12967
▁forsaken	-12968
▁inaction	-12969
▁listener	-12970
▁parallel	-12971
▁sometime	-12972
▁unravels	-12973
▁untangle	-12974
▁updating	-12975
▁vampires	-12976
▁vanguard	-12977
▁vanities	-12978
▁vanquish	-12979
▁vengeful	-12980
▁vibrates	-12981
▁violated	-12982
▁vitality	-12983
▁vomiting	-12984
▁wannabes	-12985
▁wavering	-12986
▁wearable	-12987
▁werewolf	-12988
▁widening	-12989
▁wondrous	-12990
▁woodland	-12991
▁workflow	-12992
▁wrestled	-12993
Landscapes	-12994
Unexpected	-12995
ationality	-12996
atocumulus	-12997
cklessness	-12998
concerting	-12999
rows	-13000
irdie	-13001
kines	-13002
laced	-13003
pring	-13004
third	-13005
▁Next	-13006
▁Suff	-13007
▁bale	-13008
▁drap	-13009
▁gird	-13010
▁kale	-13011
▁nets	-13012
▁pane	-13013
Spring	-13014
united	-13015
▁Alive	-13016
▁Alone	-13017
▁Along	-13018
▁Looks	-13019
▁Sauer	-13020
▁bluff	-13021
▁greed	-13022
▁nooks	-13023
▁slows	-13024
▁vines	-13025
chetype	-13026
ialogue	-13027
kinesis	-13028
ringles	-13029
stinate	-13030
▁Altern	-13031
▁Birdie	-13032
▁Charts	-13033
▁Sauerk	-13034
▁Terror	-13035
▁castle	-13036
▁deepen	-13037
▁draped	-13038
▁driver	-13039
▁envies	-13040
▁gained	-13041
▁gasped	-13042
▁girdle	-13043
▁kaleid	-13044
▁melted	-13045
▁miming	-13046
▁miners	-13047
▁opines	-13048
▁signal	-13049
▁termed	-13050
▁Already	-13051
▁baggage	-13052
▁baleful	-13053
▁counted	-13054
▁fluvial	-13055
▁furrows	-13056
▁polling	-13057
▁recited	-13058
▁signing	-13059
▁sweater	-13060
▁tightro	-13061
obstinate	-13062
usionment	-13063
▁Dialogue	-13064
▁Memories	-13065
▁Pringles	-13066
▁Sauerkra	-13067
▁churches	-13068
▁confines	-13069
▁imagines	-13070
▁inducing	-13071
▁kaleidos	-13072
▁nihilist	-13073
▁projects	-13074
▁reunited	-13075
▁substant	-13076
▁unchange	-13077
Everything	-13078
constructs	-13079
controlled	-13080
delusional	-13081
emporarily	-13082
experience	-13083
gressively	-13084
handicaped	-13085
headlights	-13086
integrates	-13087
memberment	-13088
mindedness	-13089
nightmares	-13090
ogeneously	-13091
organizing	-13092
possession	-13093
redictable	-13094
reflective	-13095
rehensible	-13096
separately	-13097
successful	-13098
understood	-13099
EOL	-13100
nae	-13101
naw	-13102
IEOL	-13103
Thon	-13104
Work	-13105
azes	-13106
irms	-13107
phaz	-13108
rung	-13109
▁pix	-13110
▁rig	-13111
RIEOL	-13112
ringe	-13113
space	-13114
spans	-13115
▁Dece	-13116
▁Decl	-13117
▁Mits	-13118
▁blaz	-13119
▁brev	-13120
▁gnaw	-13121
fringe	-13122
igured	-13123
istics	-13124
roduct	-13125
tennae	-13126
unculi	-13127
▁Decem	-13128
▁Mitsk	-13129
▁absor	-13130
▁cheap	-13131
▁chees	-13132
▁cured	-13133
▁essay	-13134
▁mazes	-13135
▁rigid	-13136
▁shelf	-13137
▁smash	-13138
▁spits	-13139
▁worms	-13140
Ethical	-13141
etworks	-13142
phazard	-13143
phistic	-13144
▁ARIEOL	-13145
▁Mitski	-13146
▁bounce	-13147
▁breast	-13148
▁cheesy	-13149
▁neural	-13150
▁pixies	-13151
▁plural	-13152
▁realms	-13153
▁riddin	-13154
▁Decline	-13155
▁Reading	-13156
▁affirms	-13157
▁brevity	-13158
▁cheated	-13159
▁endured	-13160
▁fanatic	-13161
▁glisten	-13162
▁gnawing	-13163
▁intersp	-13164
▁speaker	-13165
▁talonic	-13166
▁terrify	-13167
▁wagging	-13168
▁website	-13169
phazardly	-13170
roductive	-13171
▁December	-13172
▁Networks	-13173
▁absorbed	-13174
▁antennae	-13175
▁bastards	-13176
▁detector	-13177
▁eventual	-13178
▁midnight	-13179
▁outgrown	-13180
▁resonate	-13181
▁restrung	-13182
▁rigidity	-13183
▁silvered	-13184
▁Adventure	-13185
▁Ambiguity	-13186
▁Americans	-13187
▁Confusing	-13188
▁Conscious	-13189
▁Continual	-13190
▁Economics	-13191
▁Editorial	-13192
▁Entertain	-13193
▁Enveloped	-13194
▁Excursion	-13195
▁Expanding	-13196
▁Extracted	-13197
▁Framework	-13198
▁Frankenst	-13199
....	-13200
Judy	-13201
iasm	-13202
ifts	-13203
eanor	-13204
immed	-13205
urple	-13206
▁Alph	-13207
Future	-13208
abbles	-13209
cution	-13210
iolect	-13211
irates	-13212
▁Alpha	-13213
▁Gener	-13214
▁Solom	-13215
▁ample	-13216
▁angri	-13217
▁audit	-13218
▁belts	-13219
▁coder	-13220
▁gifts	-13221
▁pasts	-13222
▁snake	-13223
cartoon	-13224
chingly	-13225
dressed	-13226
ensates	-13227
erboard	-13228
othered	-13229
plement	-13230
staring	-13231
▁Lately	-13232
▁Purple	-13233
▁addict	-13234
▁blackm	-13235
▁courts	-13236
▁crates	-13237
▁daring	-13238
▁distur	-13239
▁muster	-13240
▁nightm	-13241
▁oldest	-13242
▁reigns	-13243
▁tended	-13244
▁texted	-13245
▁triple	-13246
▁wrists	-13247
finished	-13248
iolectic	-13249
lections	-13250
secution	-13251
wherever	-13252
▁Pirates	-13253
▁angrily	-13254
▁assumes	-13255
▁babbles	-13256
▁mending	-13257
▁mumbles	-13258
▁roaring	-13259
▁scaring	-13260
▁sharing	-13261
▁skimmed	-13262
▁triplet	-13263
▁trivial	-13264
▁upholds	-13265
▁wailing	-13266
erboarded	-13267
isiveness	-13268
▁Generate	-13269
▁antithes	-13270
▁controll	-13271
▁demeanor	-13272
▁nightmar	-13273
cartoonish	-13274
▁Gibsories	-13275
▁Gratitude	-13276
▁Implement	-13277
▁Including	-13278
▁Inundated	-13279
▁Kaballist	-13280
▁Ooooooren	-13281
▁Oppenheim	-13282
▁Otherwise	-13283
▁Paralnace	-13284
▁Parlances	-13285
▁Reception	-13286
▁Screaming	-13287
▁Solomonic	-13288
▁Standards	-13289
▁Weissmann	-13290
▁Wherefore	-13291
▁abundance	-13292
▁actuality	-13293
▁addiction	-13294
▁alliances	-13295
▁anarchist	-13296
▁announced	-13297
▁annoyance	-13298
▁appeareth	-13299
shi	-13300
airly	-13301
atian	-13302
chool	-13303
ervor	-13304
ierog	-13305
mount	-13306
onian	-13307
share	-13308
▁apps	-13309
▁boom	-13310
▁farc	-13311
▁farm	-13312
▁laun	-13313
▁swam	-13314
During	-13315
curing	-13316
school	-13317
ublime	-13318
▁Focus	-13319
▁decis	-13320
▁expon	-13321
▁genie	-13322
▁snail	-13323
▁trial	-13324
mounted	-13325
reement	-13326
riguing	-13327
risoned	-13328
roatian	-13329
showing	-13330
uringly	-13331
▁Fairly	-13332
▁Ionian	-13333
▁boomer	-13334
▁caring	-13335
▁curses	-13336
▁discus	-13337
▁expens	-13338
▁faring	-13339
▁fervor	-13340
▁hierog	-13341
▁regain	-13342
▁shrill	-13343
▁triang	-13344
▁wunder	-13345
Croatian	-13346
although	-13347
artments	-13348
occuring	-13349
ometimes	-13350
▁Sublime	-13351
▁boredom	-13352
▁cartons	-13353
▁gesture	-13354
▁insecur	-13355
▁masters	-13356
▁persona	-13357
▁regions	-13358
▁saunter	-13359
▁shotgun	-13360
▁stupors	-13361
Sometimes	-13362
agreement	-13363
shivering	-13364
▁chatting	-13365
▁decisive	-13366
▁faceless	-13367
▁farcical	-13368
▁fictions	-13369
▁glimpsed	-13370
▁launched	-13371
▁reducing	-13372
▁standard	-13373
▁standest	-13374
▁trembled	-13375
▁appearing	-13376
▁archetype	-13377
▁arrogance	-13378
▁atrocious	-13379
▁auteurish	-13380
▁avoidance	-13381
▁babelling	-13382
▁backyards	-13383
▁bathrooms	-13384
▁beseeched	-13385
▁bewailing	-13386
▁biography	-13387
▁blackened	-13388
▁blazingly	-13389
▁bleachers	-13390
▁blueprint	-13391
▁borrowers	-13392
▁bracelets	-13393
▁briefcase	-13394
▁cacophony	-13395
▁carefully	-13396
▁carrossel	-13397
▁cavernous	-13398
▁ceaseless	-13399
Str	-13400
adio	-13401
buck	-13402
suck	-13403
toed	-13404
ucky	-13405
▁Odd	-13406
dings	-13407
iches	-13408
lucky	-13409
ucked	-13410
uckle	-13411
uckus	-13412
▁Funn	-13413
▁Love	-13414
▁Rode	-13415
▁Soon	-13416
▁carc	-13417
▁dank	-13418
▁lank	-13419
▁nodd	-13420
▁nons	-13421
▁tank	-13422
btless	-13423
idings	-13424
otches	-13425
ppings	-13426
tucked	-13427
▁Radio	-13428
▁chuck	-13429
▁clank	-13430
▁colas	-13431
▁engra	-13432
▁froze	-13433
▁manny	-13434
▁melod	-13435
▁moral	-13436
▁pluck	-13437
▁rider	-13438
▁shuck	-13439
▁surve	-13440
▁truck	-13441
growing	-13442
present	-13443
ruptive	-13444
sucking	-13445
▁beatin	-13446
▁holder	-13447
▁leader	-13448
▁nodded	-13449
▁remove	-13450
▁riches	-13451
▁ruckus	-13452
▁shucks	-13453
▁specim	-13454
▁walkid	-13455
▁whoops	-13456
Stranger	-13457
berstein	-13458
oubtless	-13459
thinking	-13460
▁Funnily	-13461
▁Tidings	-13462
▁carcass	-13463
▁knuckle	-13464
▁melodic	-13465
▁persons	-13466
▁publish	-13467
▁resting	-13468
▁worries	-13469
ilization	-13470
▁dreamers	-13471
▁feelings	-13472
▁findings	-13473
▁glitches	-13474
▁nonsense	-13475
▁reformed	-13476
▁scotches	-13477
▁specimen	-13478
▁stinking	-13479
▁surveill	-13480
▁weddings	-13481
▁wrestler	-13482
▁writings	-13483
Rebranding	-13484
ulberstein	-13485
▁Doubtless	-13486
▁Radiohead	-13487
▁bluetooth	-13488
▁celebrate	-13489
▁checkmate	-13490
▁chuckling	-13491
▁clamoring	-13492
▁clattered	-13493
▁clutching	-13494
▁coalesced	-13495
▁collision	-13496
▁colonizes	-13497
▁commented	-13498
▁compasses	-13499
lps	-13500
ahog	-13501
ends	-13502
high	-13503
omps	-13504
onah	-13505
sigh	-13506
▁Nah	-13507
▁Yah	-13508
▁ego	-13509
▁hmm	-13510
▁wob	-13511
learn	-13512
▁High	-13513
▁Subs	-13514
▁gave	-13515
▁hmmm	-13516
▁pave	-13517
▁phen	-13518
▁unob	-13519
effect	-13520
obular	-13521
▁Allah	-13522
▁Helps	-13523
▁Jonah	-13524
▁Props	-13525
▁Takes	-13526
▁Yahwe	-13527
▁dense	-13528
▁gator	-13529
▁heave	-13530
▁laces	-13531
▁mahog	-13532
▁pomps	-13533
amorous	-13534
astered	-13535
aternal	-13536
avities	-13537
epening	-13538
ologram	-13539
otional	-13540
▁Yahweh	-13541
▁giants	-13542
▁impale	-13543
▁traced	-13544
ceptacle	-13545
creening	-13546
highways	-13547
▁Antarct	-13548
▁Eccojam	-13549
▁Lighten	-13550
▁Reminds	-13551
▁Singing	-13552
▁cadence	-13553
▁curator	-13554
▁offense	-13555
▁parasit	-13556
▁redempt	-13557
deepening	-13558
emotional	-13559
ternities	-13560
▁Eccojams	-13561
▁Subsists	-13562
▁Tunneled	-13563
▁campaign	-13564
▁cavities	-13565
▁constell	-13566
▁contends	-13567
▁globular	-13568
▁hologram	-13569
▁mahogany	-13570
▁paternal	-13571
▁pavement	-13572
▁rainbows	-13573
▁rudeness	-13574
▁unobtain	-13575
▁whipping	-13576
▁wobbling	-13577
▁Antarctic	-13578
▁Screening	-13579
▁compelled	-13580
▁composure	-13581
▁concerted	-13582
▁confessed	-13583
▁conservat	-13584
▁contrasts	-13585
▁corkscrew	-13586
▁counselor	-13587
▁creatures	-13588
▁critiqued	-13589
▁damnation	-13590
▁debatable	-13591
▁decadence	-13592
▁decentral	-13593
▁decimated	-13594
▁decisions	-13595
▁decreases	-13596
▁defendant	-13597
▁demanding	-13598
▁dependent	-13599
nob	-13600
affy	-13601
irks	-13602
publ	-13603
▁Add	-13604
aloid	-13605
arize	-13606
▁Davy	-13607
▁anew	-13608
▁blob	-13609
▁caut	-13610
▁cave	-13611
▁opin	-13612
appers	-13613
erings	-13614
kaloid	-13615
nobody	-13616
ophren	-13617
public	-13618
serted	-13619
▁Cross	-13620
▁Villa	-13621
▁gross	-13622
▁perks	-13623
▁repel	-13624
▁riiii	-13625
▁seeks	-13626
▁snuck	-13627
▁taffy	-13628
▁thump	-13629
addling	-13630
etering	-13631
▁artist	-13632
▁cleare	-13633
▁clears	-13634
▁factly	-13635
▁firepl	-13636
▁flatul	-13637
▁fueled	-13638
▁keeper	-13639
▁locale	-13640
▁repell	-13641
▁shitir	-13642
▁singed	-13643
▁smirks	-13644
andering	-13645
ickering	-13646
izophren	-13647
ternally	-13648
▁Ailment	-13649
▁captain	-13650
▁caveman	-13651
▁clearer	-13652
▁condemn	-13653
▁factors	-13654
▁fallout	-13655
▁lightly	-13656
▁opinion	-13657
▁peering	-13658
▁serving	-13659
▁Addition	-13660
▁Ailments	-13661
▁alkaloid	-13662
▁cautious	-13663
▁chiefest	-13664
▁flappers	-13665
▁goodness	-13666
▁inserted	-13667
▁pleasing	-13668
▁reliance	-13669
izophrenic	-13670
ologically	-13671
▁Detective	-13672
▁bickering	-13673
▁criticism	-13674
▁depressed	-13675
▁depresses	-13676
▁descended	-13677
▁desecrate	-13678
▁desperate	-13679
▁detecting	-13680
▁diagnosis	-13681
▁differing	-13682
▁dimension	-13683
▁directing	-13684
▁disavowed	-13685
▁discharge	-13686
▁discourse	-13687
▁discusser	-13688
▁disparity	-13689
▁dispelled	-13690
▁dispenses	-13691
▁dispersed	-13692
▁disregard	-13693
▁divisions	-13694
▁doctrines	-13695
▁dominance	-13696
▁dominates	-13697
▁doubtless	-13698
▁drippings	-13699
acci	-13700
altz	-13701
aque	-13702
isey	-13703
myst	-13704
▁Occ	-13705
▁bug	-13706
▁egg	-13707
Nacci	-13708
aisey	-13709
ethic	-13710
fined	-13711
iciss	-13712
isner	-13713
issed	-13714
rific	-13715
ruise	-13716
sided	-13717
their	-13718
ystop	-13719
▁begg	-13720
▁evil	-13721
▁evol	-13722
▁kiss	-13723
efined	-13724
wealth	-13725
▁arise	-13726
▁bites	-13727
▁evang	-13728
▁humid	-13729
▁humor	-13730
▁orner	-13731
▁pitch	-13732
▁regal	-13733
▁scree	-13734
▁waltz	-13735
orrific	-13736
thening	-13737
▁Daisey	-13738
▁Eisner	-13739
▁Indias	-13740
▁billow	-13741
▁bruise	-13742
▁buying	-13743
▁dystop	-13744
▁evolve	-13745
▁humans	-13746
▁litany	-13747
▁locals	-13748
▁moveth	-13749
▁opaque	-13750
▁ornery	-13751
▁pissed	-13752
▁rubble	-13753
▁viciss	-13754
altation	-13755
gthening	-13756
itlement	-13757
mystical	-13758
▁assures	-13759
▁beggars	-13760
▁betters	-13761
▁billowy	-13762
▁dooking	-13763
▁evangel	-13764
▁factory	-13765
▁hallway	-13766
▁hyperst	-13767
▁screech	-13768
▁transit	-13769
▁Horrific	-13770
▁Marikana	-13771
▁attaches	-13772
▁authorit	-13773
▁category	-13774
▁rumbling	-13775
▁abilities	-13776
▁disfigure	-13777
▁dualities	-13778
▁dynasties	-13779
▁dystopian	-13780
▁economies	-13781
▁editorial	-13782
▁education	-13783
▁educators	-13784
▁empathize	-13785
▁enclosure	-13786
▁enforcing	-13787
▁engrained	-13788
▁epistemes	-13789
▁equilibri	-13790
▁esoterica	-13791
▁execution	-13792
▁explained	-13793
▁exploding	-13794
▁extending	-13795
▁extracted	-13796
▁fallacies	-13797
▁falsehood	-13798
▁fashioned	-13799
bra	-13800
▁Av	-13801
Scre	-13802
abra	-13803
arge	-13804
aval	-13805
avil	-13806
brae	-13807
edge	-13808
erbo	-13809
onav	-13810
▁Avo	-13811
Screw	-13812
anian	-13813
cians	-13814
lemen	-13815
verge	-13816
▁Bene	-13817
▁Dism	-13818
▁Rule	-13819
▁avat	-13820
▁enge	-13821
▁gene	-13822
▁refu	-13823
adabra	-13824
heaval	-13825
oooooh	-13826
tebrae	-13827
uanian	-13828
▁Bonav	-13829
▁Ghost	-13830
▁Large	-13831
▁Serbo	-13832
▁clunk	-13833
▁kooks	-13834
▁latch	-13835
▁pavil	-13836
▁solem	-13837
▁towns	-13838
▁uncre	-13839
▁vault	-13840
▁viral	-13841
rucians	-13842
vidence	-13843
▁Ghosts	-13844
▁Wonder	-13845
▁argued	-13846
▁avatar	-13847
▁forear	-13848
▁forest	-13849
▁furthe	-13850
▁loosed	-13851
▁prison	-13852
▁refres	-13853
▁solemn	-13854
▁strive	-13855
▁waylay	-13856
acadabra	-13857
crucians	-13858
entlemen	-13859
▁Aalways	-13860
▁Beneath	-13861
▁complac	-13862
▁diverge	-13863
▁foreign	-13864
▁knotted	-13865
▁railway	-13866
▁refuges	-13867
ithuanian	-13868
racadabra	-13869
▁Avoident	-13870
▁Evidence	-13871
▁dizzying	-13872
▁engender	-13873
▁forearms	-13874
▁furthest	-13875
▁pavilion	-13876
▁relation	-13877
▁reorient	-13878
▁stacking	-13879
▁unformed	-13880
▁upheaval	-13881
Subversive	-13882
▁classical	-13883
▁favorable	-13884
▁fingering	-13885
▁flattered	-13886
▁flatulent	-13887
▁foothills	-13888
▁formality	-13889
▁fractally	-13890
▁fractured	-13891
▁framework	-13892
▁frequents	-13893
▁gathering	-13894
▁gentlemen	-13895
▁glitching	-13896
▁gratitude	-13897
▁greenpain	-13898
▁guarantee	-13899
ysi	-13900
▁US	-13901
▁Vu	-13902
crib	-13903
ideo	-13904
irty	-13905
tele	-13906
▁Bow	-13907
▁Fur	-13908
▁Oce	-13909
▁USA	-13910
otics	-13911
teleo	-13912
video	-13913
water	-13914
ysius	-13915
▁curb	-13916
▁curt	-13917
▁guys	-13918
▁memo	-13919
escrib	-13920
fucker	-13921
inkert	-13922
stable	-13923
terous	-13924
▁Bowie	-13925
▁Final	-13926
▁Ocean	-13927
▁corro	-13928
▁dirty	-13929
▁indiv	-13930
▁rains	-13931
▁skies	-13932
▁soles	-13933
▁tones	-13934
chotics	-13935
ructure	-13936
uthless	-13937
xterous	-13938
▁Cather	-13939
▁Velvet	-13940
▁burden	-13941
▁denote	-13942
▁invade	-13943
▁invite	-13944
▁minded	-13945
▁narrow	-13946
▁passer	-13947
▁settle	-13948
▁slower	-13949
inkerton	-13950
ionysius	-13951
ographer	-13952
▁Cathers	-13953
▁Further	-13954
▁charade	-13955
▁command	-13956
▁craving	-13957
▁curving	-13958
▁erosion	-13959
▁passive	-13960
▁ravings	-13961
▁scrotum	-13962
▁seasons	-13963
▁vacates	-13964
sychotics	-13965
▁Reaching	-13966
▁diaspora	-13967
▁memoires	-13968
▁passerby	-13969
▁relocate	-13970
▁ruthless	-13971
▁thanking	-13972
abbalistic	-13973
escribable	-13974
▁Dionysius	-13975
▁Pinkerton	-13976
▁bothering	-13977
▁corrosive	-13978
▁crackling	-13979
▁dexterous	-13980
▁hammocked	-13981
▁handcuffs	-13982
▁handlebar	-13983
▁handrails	-13984
▁hardships	-13985
▁headspace	-13986
▁heaviness	-13987
▁herculean	-13988
▁hesitates	-13989
▁hierarchy	-13990
▁homunculi	-13991
▁honeymoon	-13992
▁hospitals	-13993
▁hyperbole	-13994
▁illogical	-13995
▁illusions	-13996
▁imbalance	-13997
▁immensity	-13998
▁immersive	-13999
Art	-14000
ysm	-14001
clus	-14002
▁Dry	-14003
▁dom	-14004
close	-14005
cries	-14006
egory	-14007
great	-14008
pends	-14009
urysm	-14010
▁Phot	-14011
▁dism	-14012
▁pean	-14013
▁stor	-14014
▁tear	-14015
▁wisp	-14016
addled	-14017
alaces	-14018
ambers	-14019
closet	-14020
eurysm	-14021
hatred	-14022
mental	-14023
spends	-14024
theism	-14025
umbers	-14026
▁Overs	-14027
▁Write	-14028
▁prime	-14029
▁rages	-14030
▁range	-14031
▁suild	-14032
Without	-14033
duction	-14034
▁Photos	-14035
▁Wander	-14036
▁declar	-14037
▁delete	-14038
▁detest	-14039
▁domain	-14040
▁greasy	-14041
▁handed	-14042
▁impart	-14043
▁impose	-14044
▁lashes	-14045
▁peanut	-14046
▁pearly	-14047
▁slices	-14048
▁volunt	-14049
▁Palaces	-14050
▁Station	-14051
▁approve	-14052
▁bruised	-14053
▁conclus	-14054
▁dismant	-14055
▁elevate	-14056
▁guarded	-14057
▁hammock	-14058
▁handing	-14059
▁hoodoos	-14060
▁interfe	-14061
▁kindest	-14062
▁numbers	-14063
▁propose	-14064
▁resolve	-14065
▁samarit	-14066
▁sobbing	-14067
▁storage	-14068
▁studies	-14069
▁vividly	-14070
▁allegory	-14071
▁aneurysm	-14072
▁approval	-14073
▁chambers	-14074
▁crossing	-14075
▁detested	-14076
▁kindling	-14077
▁reforged	-14078
▁scarcity	-14079
▁swaddled	-14080
▁Oversight	-14081
▁dismantle	-14082
▁impactful	-14083
▁impartial	-14084
▁inception	-14085
▁incidents	-14086
▁incorrect	-14087
▁increases	-14088
▁indicates	-14089
▁inference	-14090
▁ingenuity	-14091
▁inhibited	-14092
▁innermost	-14093
▁innocents	-14094
▁inspiring	-14095
▁insulated	-14096
▁intending	-14097
▁interfere	-14098
▁interject	-14099
-,	-14100
osh	-14101
▁JU	-14102
aved	-14103
otec	-14104
ryst	-14105
▁JUS	-14106
▁Own	-14107
▁aye	-14108
▁til	-14109
click	-14110
esign	-14111
gment	-14112
orses	-14113
vages	-14114
▁Gosh	-14115
▁JUST	-14116
▁dign	-14117
▁murd	-14118
▁roam	-14119
acinto	-14120
headed	-14121
making	-14122
orning	-14123
otecct	-14124
owling	-14125
rystal	-14126
uality	-14127
▁Owner	-14128
▁Paper	-14129
▁grime	-14130
▁longs	-14131
▁repay	-14132
▁reply	-14133
▁roles	-14134
▁tilts	-14135
▁whack	-14136
▁wince	-14137
chatter	-14138
ckument	-14139
ignment	-14140
morning	-14141
▁Making	-14142
▁elated	-14143
▁faking	-14144
▁heaved	-14145
▁horses	-14146
▁inning	-14147
▁lather	-14148
▁nailed	-14149
▁ogling	-14150
▁strand	-14151
judgment	-14152
▁Crystal	-14153
▁Jacinto	-14154
▁dignity	-14155
▁forking	-14156
▁happier	-14157
▁lacking	-14158
▁nations	-14159
▁orients	-14160
▁realign	-14161
▁savages	-14162
▁tracing	-14163
▁whereby	-14164
antically	-14165
▁charting	-14166
▁creaking	-14167
▁downward	-14168
▁murdered	-14169
▁protecct	-14170
▁prowling	-14171
▁redesign	-14172
▁situated	-14173
▁spectral	-14174
▁stranded	-14175
ckumentary	-14176
▁Objective	-14177
▁Southwest	-14178
▁afterward	-14179
▁alignment	-14180
▁anonymous	-14181
▁infinites	-14182
▁interplay	-14183
▁intrigued	-14184
▁invention	-14185
▁isolating	-14186
▁lathering	-14187
▁liberated	-14188
▁liberties	-14189
▁lightness	-14190
▁liquidity	-14191
▁lobbyists	-14192
▁lunchtime	-14193
▁magicians	-14194
▁magnetize	-14195
▁magnitude	-14196
▁makeshift	-14197
▁malicious	-14198
▁marketing	-14199
mn	-14200
"--	-14201
One	-14202
igs	-14203
oca	-14204
▁je	-14205
aing	-14206
hire	-14207
need	-14208
[...]
