{
  "version": "1.0",
  "type": "SentencePiece_BPE",
  "model_info": {
    "vocab_size": 31484,
    "model_type": "BPE",
    "unk_id": 0,
    "bos_id": 1,
    "eos_id": 2,
    "pad_id": -1
  },
  "special_tokens": {
    "unk_token": "<unk>",
    "bos_token": "<s>",
    "eos_token": "</s>",
    "pad_token": "<pad>",
    "qdpi_tokens": [
      "<X_READ>",
      "<Y_INDEX>",
      "<A_ASK>",
      "<Z_RECEIVE>"
    ],
    "character_tokens": [
      "an-author",
      "london-fox",
      "glyph-marrow",
      "phillip-bafflemint",
      "jacklyn-variance",
      "oren-progresso",
      "old-natalie",
      "princhetta",
      "cop-e-right",
      "new-natalie",
      "arieol-owlist",
      "jack-parlance",
      "manny-valentinas",
      "shamrock-stillman",
      "todd-fishbone",
      "the-author"
    ]
  },
  "vocab": {
    "<unk>": 0,
    "<s>": 1,
    "</s>": 2,
    "<X_READ>": 3,
    "<Y_INDEX>": 4,
    "<A_ASK>": 5,
    "<Z_RECEIVE>": 6,
    "an-author": 7,
    "london-fox": 8,
    "glyph-marrow": 9,
    "phillip-bafflemint": 10,
    "jacklyn-variance": 11,
    "oren-progresso": 12,
    "old-natalie": 13,
    "princhetta": 14,
    "cop-e-right": 15,
    "new-natalie": 16,
    "arieol-owlist": 17,
    "jack-parlance": 18,
    "manny-valentinas": 19,
    "shamrock-stillman": 20,
    "todd-fishbone": 21,
    "the-author": 22,
    "<0x00>": 23,
    "<0x01>": 24,
    "<0x02>": 25,
    "<0x03>": 26,
    "<0x04>": 27,
    "<0x05>": 28,
    "<0x06>": 29,
    "<0x07>": 30,
    "<0x08>": 31,
    "<0x09>": 32,
    "<0x0A>": 33,
    "<0x0B>": 34,
    "<0x0C>": 35,
    "<0x0D>": 36,
    "<0x0E>": 37,
    "<0x0F>": 38,
    "<0x10>": 39,
    "<0x11>": 40,
    "<0x12>": 41,
    "<0x13>": 42,
    "<0x14>": 43,
    "<0x15>": 44,
    "<0x16>": 45,
    "<0x17>": 46,
    "<0x18>": 47,
    "<0x19>": 48,
    "<0x1A>": 49,
    "<0x1B>": 50,
    "<0x1C>": 51,
    "<0x1D>": 52,
    "<0x1E>": 53,
    "<0x1F>": 54,
    "<0x20>": 55,
    "<0x21>": 56,
    "<0x22>": 57,
    "<0x23>": 58,
    "<0x24>": 59,
    "<0x25>": 60,
    "<0x26>": 61,
    "<0x27>": 62,
    "<0x28>": 63,
    "<0x29>": 64,
    "<0x2A>": 65,
    "<0x2B>": 66,
    "<0x2C>": 67,
    "<0x2D>": 68,
    "<0x2E>": 69,
    "<0x2F>": 70,
    "<0x30>": 71,
    "<0x31>": 72,
    "<0x32>": 73,
    "<0x33>": 74,
    "<0x34>": 75,
    "<0x35>": 76,
    "<0x36>": 77,
    "<0x37>": 78,
    "<0x38>": 79,
    "<0x39>": 80,
    "<0x3A>": 81,
    "<0x3B>": 82,
    "<0x3C>": 83,
    "<0x3D>": 84,
    "<0x3E>": 85,
    "<0x3F>": 86,
    "<0x40>": 87,
    "<0x41>": 88,
    "<0x42>": 89,
    "<0x43>": 90,
    "<0x44>": 91,
    "<0x45>": 92,
    "<0x46>": 93,
    "<0x47>": 94,
    "<0x48>": 95,
    "<0x49>": 96,
    "<0x4A>": 97,
    "<0x4B>": 98,
    "<0x4C>": 99,
    "<0x4D>": 100,
    "<0x4E>": 101,
    "<0x4F>": 102,
    "<0x50>": 103,
    "<0x51>": 104,
    "<0x52>": 105,
    "<0x53>": 106,
    "<0x54>": 107,
    "<0x55>": 108,
    "<0x56>": 109,
    "<0x57>": 110,
    "<0x58>": 111,
    "<0x59>": 112,
    "<0x5A>": 113,
    "<0x5B>": 114,
    "<0x5C>": 115,
    "<0x5D>": 116,
    "<0x5E>": 117,
    "<0x5F>": 118,
    "<0x60>": 119,
    "<0x61>": 120,
    "<0x62>": 121,
    "<0x63>": 122,
    "<0x64>": 123,
    "<0x65>": 124,
    "<0x66>": 125,
    "<0x67>": 126,
    "<0x68>": 127,
    "<0x69>": 128,
    "<0x6A>": 129,
    "<0x6B>": 130,
    "<0x6C>": 131,
    "<0x6D>": 132,
    "<0x6E>": 133,
    "<0x6F>": 134,
    "<0x70>": 135,
    "<0x71>": 136,
    "<0x72>": 137,
    "<0x73>": 138,
    "<0x74>": 139,
    "<0x75>": 140,
    "<0x76>": 141,
    "<0x77>": 142,
    "<0x78>": 143,
    "<0x79>": 144,
    "<0x7A>": 145,
    "<0x7B>": 146,
    "<0x7C>": 147,
    "<0x7D>": 148,
    "<0x7E>": 149,
    "<0x7F>": 150,
    "<0x80>": 151,
    "<0x81>": 152,
    "<0x82>": 153,
    "<0x83>": 154,
    "<0x84>": 155,
    "<0x85>": 156,
    "<0x86>": 157,
    "<0x87>": 158,
    "<0x88>": 159,
    "<0x89>": 160,
    "<0x8A>": 161,
    "<0x8B>": 162,
    "<0x8C>": 163,
    "<0x8D>": 164,
    "<0x8E>": 165,
    "<0x8F>": 166,
    "<0x90>": 167,
    "<0x91>": 168,
    "<0x92>": 169,
    "<0x93>": 170,
    "<0x94>": 171,
    "<0x95>": 172,
    "<0x96>": 173,
    "<0x97>": 174,
    "<0x98>": 175,
    "<0x99>": 176,
    "<0x9A>": 177,
    "<0x9B>": 178,
    "<0x9C>": 179,
    "<0x9D>": 180,
    "<0x9E>": 181,
    "<0x9F>": 182,
    "<0xA0>": 183,
    "<0xA1>": 184,
    "<0xA2>": 185,
    "<0xA3>": 186,
    "<0xA4>": 187,
    "<0xA5>": 188,
    "<0xA6>": 189,
    "<0xA7>": 190,
    "<0xA8>": 191,
    "<0xA9>": 192,
    "<0xAA>": 193,
    "<0xAB>": 194,
    "<0xAC>": 195,
    "<0xAD>": 196,
    "<0xAE>": 197,
    "<0xAF>": 198,
    "<0xB0>": 199,
    "<0xB1>": 200,
    "<0xB2>": 201,
    "<0xB3>": 202,
    "<0xB4>": 203,
    "<0xB5>": 204,
    "<0xB6>": 205,
    "<0xB7>": 206,
    "<0xB8>": 207,
    "<0xB9>": 208,
    "<0xBA>": 209,
    "<0xBB>": 210,
    "<0xBC>": 211,
    "<0xBD>": 212,
    "<0xBE>": 213,
    "<0xBF>": 214,
    "<0xC0>": 215,
    "<0xC1>": 216,
    "<0xC2>": 217,
    "<0xC3>": 218,
    "<0xC4>": 219,
    "<0xC5>": 220,
    "<0xC6>": 221,
    "<0xC7>": 222,
    "<0xC8>": 223,
    "<0xC9>": 224,
    "<0xCA>": 225,
    "<0xCB>": 226,
    "<0xCC>": 227,
    "<0xCD>": 228,
    "<0xCE>": 229,
    "<0xCF>": 230,
    "<0xD0>": 231,
    "<0xD1>": 232,
    "<0xD2>": 233,
    "<0xD3>": 234,
    "<0xD4>": 235,
    "<0xD5>": 236,
    "<0xD6>": 237,
    "<0xD7>": 238,
    "<0xD8>": 239,
    "<0xD9>": 240,
    "<0xDA>": 241,
    "<0xDB>": 242,
    "<0xDC>": 243,
    "<0xDD>": 244,
    "<0xDE>": 245,
    "<0xDF>": 246,
    "<0xE0>": 247,
    "<0xE1>": 248,
    "<0xE2>": 249,
    "<0xE3>": 250,
    "<0xE4>": 251,
    "<0xE5>": 252,
    "<0xE6>": 253,
    "<0xE7>": 254,
    "<0xE8>": 255,
    "<0xE9>": 256,
    "<0xEA>": 257,
    "<0xEB>": 258,
    "<0xEC>": 259,
    "<0xED>": 260,
    "<0xEE>": 261,
    "<0xEF>": 262,
    "<0xF0>": 263,
    "<0xF1>": 264,
    "<0xF2>": 265,
    "<0xF3>": 266,
    "<0xF4>": 267,
    "<0xF5>": 268,
    "<0xF6>": 269,
    "<0xF7>": 270,
    "<0xF8>": 271,
    "<0xF9>": 272,
    "<0xFA>": 273,
    "<0xFB>": 274,
    "<0xFC>": 275,
    "<0xFD>": 276,
    "<0xFE>": 277,
    "<0xFF>": 278,
    "▁t": 279,
    "he": 280,
    "▁a": 281,
    "in": 282,
    "▁the": 283,
    "▁o": 284,
    "re": 285,
    "▁s": 286,
    "▁w": 287,
    "at": 288,
    "it": 289,
    "ing": 290,
    "er": 291,
    "nd": 292,
    "▁c": 293,
    "ou": 294,
    "▁b": 295,
    "en": 296,
    "is": 297,
    "on": 298,
    "▁th": 299,
    "▁to": 300,
    "▁m": 301,
    "es": 302,
    "▁of": 303,
    "▁f": 304,
    "or": 305,
    "ll": 306,
    "▁h": 307,
    "▁d": 308,
    "ed": 309,
    "an": 310,
    "▁l": 311,
    "ar": 312,
    "▁p": 313,
    "▁and": 314,
    "as": 315,
    "▁e": 316,
    "▁in": 317,
    "▁be": 318,
    "▁it": 319,
    "ic": 320,
    "▁I": 321,
    "▁n": 322,
    "se": 323,
    "al": 324,
    "om": 325,
    "ut": 326,
    "▁T": 327,
    "st": 328,
    "▁that": 329,
    "ve": 330,
    "▁he": 331,
    "▁re": 332,
    "ion": 333,
    "ot": 334,
    "▁y": 335,
    "ow": 336,
    "ay": 337,
    "▁A": 338,
    "ct": 339,
    "ly": 340,
    "▁g": 341,
    "im": 342,
    "ent": 343,
    "et": 344,
    "▁wh": 345,
    "▁you": 346,
    "id": 347,
    "le": 348,
    "ld": 349,
    "ad": 350,
    "ver": 351,
    "▁is": 352,
    "▁The": 353,
    "▁on": 354,
    "ce": 355,
    "▁an": 356,
    "ke": 357,
    "gh": 358,
    "▁st": 359,
    "▁u": 360,
    "▁li": 361,
    "▁as": 362,
    "ir": 363,
    "ith": 364,
    "▁this": 365,
    "ch": 366,
    "▁was": 367,
    "▁with": 368,
    "ri": 369,
    "▁for": 370,
    "ur": 371,
    "all": 372,
    "ro": 373,
    "▁they": 374,
    "▁we": 375,
    "▁ha": 376,
    "▁\"": 377,
    "▁con": 378,
    "▁all": 379,
    "ven": 380,
    "ck": 381,
    "▁or": 382,
    "▁W": 383,
    "ain": 384,
    "▁G": 385,
    "if": 386,
    "am": 387,
    "▁al": 388,
    "▁not": 389,
    "her": 390,
    "▁su": 391,
    "▁at": 392,
    "pe": 393,
    "▁do": 394,
    "ould": 395,
    "▁S": 396,
    "▁like": 397,
    "ter": 398,
    "ore": 399,
    "▁se": 400,
    "il": 401,
    "▁me": 402,
    "ib": 403,
    "ill": 404,
    "sel": 405,
    "▁H": 406,
    "▁even": 407,
    "oo": 408,
    "ght": 409,
    "ess": 410,
    "ally": 411,
    "ust": 412,
    "ation": 413,
    "▁so": 414,
    "ome": 415,
    "▁k": 416,
    "▁ex": 417,
    "▁them": 418,
    "▁r": 419,
    "ol": 420,
    "▁B": 421,
    "▁his": 422,
    "▁int": 423,
    "▁M": 424,
    "▁And": 425,
    "hing": 426,
    "▁It": 427,
    "▁what": 428,
    "em": 429,
    "▁j": 430,
    "▁ab": 431,
    "ect": 432,
    "▁ne": 433,
    "out": 434,
    "ide": 435,
    "▁are": 436,
    "and": 437,
    "ul": 438,
    "▁but": 439,
    "▁wor": 440,
    "▁their": 441,
    "ack": 442,
    "▁ch": 443,
    "▁sh": 444,
    "ich": 445,
    "▁tr": 446,
    "▁P": 447,
    "▁have": 448,
    "ag": 449,
    "▁one": 450,
    "self": 451,
    "ive": 452,
    "▁can": 453,
    "▁de": 454,
    "▁which": 455,
    "ough": 456,
    "art": 457,
    "▁Gib": 458,
    "▁out": 459,
    "▁kn": 460,
    "▁fr": 461,
    "▁le": 462,
    "▁him": 463,
    "ap": 464,
    "ity": 465,
    "ss": 466,
    "▁had": 467,
    "▁O": 468,
    "ous": 469,
    "▁just": 470,
    "um": 471,
    "act": 472,
    "▁any": 473,
    "way": 474,
    "▁cont": 475,
    "ure": 476,
    "ate": 477,
    "be": 478,
    "ind": 479,
    "▁whe": 480,
    "ist": 481,
    "ant": 482,
    "▁He": 483,
    "ers": 484,
    "▁D": 485,
    "▁if": 486,
    "sey": 487,
    "est": 488,
    "ast": 489,
    "el": 490,
    "pp": 491,
    "▁into": 492,
    "▁about": 493,
    "▁Th": 494,
    "▁tim": 495,
    "▁her": 496,
    "▁know": 497,
    "▁Gibsey": 498,
    "▁They": 499,
    "▁there": 500,
    "▁up": 501,
    "▁com": 502,
    "▁pro": 503,
    "one": 504,
    "▁v": 505,
    "ab": 506,
    "▁ag": 507,
    "▁from": 508,
    "us": 509,
    "▁may": 510,
    "ig": 511,
    "nt": 512,
    "op": 513,
    "ound": 514,
    "ue": 515,
    "ell": 516,
    "▁my": 517,
    "ther": 518,
    "▁ever": 519,
    "ard": 520,
    "▁cl": 521,
    "pt": 522,
    "iz": 523,
    "▁would": 524,
    "▁C": 525,
    "▁time": 526,
    "▁been": 527,
    "ies": 528,
    "▁she": 529,
    "▁some": 530,
    "▁no": 531,
    "king": 532,
    "ves": 533,
    "▁go": 534,
    "▁un": 535,
    "red": 536,
    "▁pl": 537,
    "▁po": 538,
    "ance": 539,
    "ated": 540,
    "ie": 541,
    "▁mo": 542,
    "▁sc": 543,
    "▁could": 544,
    "uth": 545,
    "▁has": 546,
    "ip": 547,
    "▁more": 548,
    "ment": 549,
    "ort": 550,
    "▁by": 551,
    "▁im": 552,
    ".\"": 553,
    "▁Y": 554,
    "▁fe": 555,
    "ca": 556,
    "nder": 557,
    "uthor": 558,
    "ake": 559,
    "qu": 560,
    "ass": 561,
    "▁such": 562,
    "ace": 563,
    "ame": 564,
    "▁were": 565,
    "▁within": 566,
    "ways": 567,
    "▁man": 568,
    "ph": 569,
    "ark": 570,
    "▁sp": 571,
    "▁N": 572,
    "▁did": 573,
    "ial": 574,
    "ac": 575,
    "ence": 576,
    "▁who": 577,
    "▁does": 578,
    "▁fu": 579,
    "▁back": 580,
    "▁your": 581,
    "▁But": 582,
    "th": 583,
    "▁rem": 584,
    "▁being": 585,
    "▁E": 586,
    "omet": 587,
    "▁thr": 588,
    "wn": 589,
    "?\"": 590,
    "lyph": 591,
    "fe": 592,
    "▁ar": 593,
    "os": 594,
    "▁dis": 595,
    "▁always": 596,
    "use": 597,
    "ious": 598,
    "ine": 599,
    "▁will": 600,
    "ight": 601,
    "▁Glyph": 602,
    "rie": 603,
    "▁Wh": 604,
    "ving": 605,
    "▁You": 606,
    "are": 607,
    "own": 608,
    "▁other": 609,
    "ood": 610,
    "od": 611,
    "ice": 612,
    "ory": 613,
    "ite": 614,
    "ater": 615,
    "ical": 616,
    "ang": 617,
    "ink": 618,
    "ook": 619,
    "ep": 620,
    "enc": 621,
    "ting": 622,
    "▁cre": 623,
    "▁than": 624,
    "▁somet": 625,
    "▁don": 626,
    "▁its": 627,
    "▁thing": 628,
    "▁through": 629,
    "ong": 630,
    "▁our": 631,
    "ions": 632,
    "ru": 633,
    "▁how": 634,
    "▁ride": 635,
    "▁again": 636,
    "pl": 637,
    "gin": 638,
    "ject": 639,
    "▁own": 640,
    "▁real": 641,
    "▁Author": 642,
    "▁ent": 643,
    "fore": 644,
    "▁maybe": 645,
    "▁ob": 646,
    "▁mean": 647,
    "rieol": 648,
    "▁gr": 649,
    "▁itself": 650,
    "ak": 651,
    "▁Arieol": 652,
    "per": 653,
    "▁qu": 654,
    "uch": 655,
    "▁get": 656,
    "▁something": 657,
    "▁ver": 658,
    "▁F": 659,
    "so": 660,
    "ber": 661,
    "▁co": 662,
    "ff": 663,
    "og": 664,
    "ten": 665,
    "ress": 666,
    "un": 667,
    "▁ac": 668,
    "▁much": 669,
    "▁way": 670,
    "vel": 671,
    "▁word": 672,
    "ud": 673,
    "▁many": 674,
    "▁when": 675,
    "able": 676,
    "▁over": 677,
    "▁well": 678,
    "our": 679,
    "cause": 680,
    "▁these": 681,
    "int": 682,
    "▁wr": 683,
    "right": 684,
    "ait": 685,
    "▁us": 686,
    "▁before": 687,
    "mb": 688,
    "▁fl": 689,
    "ire": 690,
    "▁bl": 691,
    "▁every": 692,
    "▁here": 693,
    "thing": 694,
    "▁also": 695,
    "selves": 696,
    "▁never": 697,
    "▁think": 698,
    "▁say": 699,
    "ub": 700,
    "ose": 701,
    "▁isn": 702,
    "▁remem": 703,
    "age": 704,
    "fter": 705,
    "▁want": 706,
    "ens": 707,
    "▁then": 708,
    "▁least": 709,
    "▁now": 710,
    "other": 711,
    "▁contin": 712,
    "▁This": 713,
    "ase": 714,
    "▁park": 715,
    "▁see": 716,
    "▁feel": 717,
    "▁down": 718,
    "▁where": 719,
    "cess": 720,
    "▁happ": 721,
    "▁J": 722,
    "▁really": 723,
    "tain": 724,
    "read": 725,
    "ought": 726,
    "sc": 727,
    "urn": 728,
    "▁te": 729,
    "ness": 730,
    "▁pre": 731,
    "ations": 732,
    "▁L": 733,
    "▁en": 734,
    "▁set": 735,
    "▁still": 736,
    "▁R": 737,
    "ary": 738,
    "▁We": 739,
    "▁lo": 740,
    "▁fuck": 741,
    "ative": 742,
    "▁most": 743,
    "▁bet": 744,
    "ling": 745,
    "arr": 746,
    "▁spe": 747,
    "ating": 748,
    "ying": 749,
    "ition": 750,
    "ult": 751,
    "▁doesn": 752,
    "ail": 753,
    "▁des": 754,
    "▁under": 755,
    "▁because": 756,
    "▁(": 757,
    "▁bec": 758,
    "▁bot": 759,
    "▁What": 760,
    "▁after": 761,
    "▁right": 762,
    "ach": 763,
    "get": 764,
    "▁start": 765,
    "▁thought": 766,
    "▁remember": 767,
    "▁ad": 768,
    "aybe": 769,
    "iv": 770,
    "xt": 771,
    "▁sub": 772,
    "old": 773,
    "▁pr": 774,
    "ction": 775,
    "▁didn": 776,
    "▁going": 777,
    "▁life": 778,
    "▁sy": 779,
    "pect": 780,
    "▁Maybe": 781,
    "▁words": 782,
    "ick": 783,
    "irst": 784,
    "side": 785,
    "▁themselves": 786,
    "ath": 787,
    "ready": 788,
    "▁part": 789,
    "▁world": 790,
    "ict": 791,
    "▁wait": 792,
    "ile": 793,
    "ond": 794,
    "▁tw": 795,
    "▁land": 796,
    "▁already": 797,
    "▁Or": 798,
    "▁att": 799,
    "▁That": 800,
    "ually": 801,
    "we": 802,
    "▁sa": 803,
    "▁happen": 804,
    "▁rec": 805,
    "▁exist": 806,
    "ren": 807,
    "arly": 808,
    "▁only": 809,
    "▁very": 810,
    "ade": 811,
    "ars": 812,
    "▁am": 813,
    "orm": 814,
    "▁himself": 815,
    "▁let": 816,
    "▁end": 817,
    "▁seem": 818,
    "che": 819,
    "ily": 820,
    "▁both": 821,
    "ency": 822,
    "▁read": 823,
    "▁sl": 824,
    "orld": 825,
    "ertain": 826,
    "▁br": 827,
    "ever": 828,
    "▁act": 829,
    "▁form": 830,
    "ser": 831,
    "ful": 832,
    "▁cr": 833,
    "▁She": 834,
    "▁sure": 835,
    "▁dif": 836,
    "▁comp": 837,
    "▁another": 838,
    "ne": 839,
    "ost": 840,
    "▁per": 841,
    "ially": 842,
    "▁come": 843,
    "ft": 844,
    "▁St": 845,
    "▁sm": 846,
    "rent": 847,
    "ssib": 848,
    "▁res": 849,
    "ention": 850,
    "arl": 851,
    "▁lit": 852,
    "▁off": 853,
    "▁rep": 854,
    "▁long": 855,
    "▁There": 856,
    "ual": 857,
    "▁work": 858,
    "▁World": 859,
    "▁place": 860,
    "atter": 861,
    "▁make": 862,
    "▁though": 863,
    "ign": 864,
    "ward": 865,
    "aking": 866,
    "▁first": 867,
    "▁ori": 868,
    "▁too": 869,
    "ically": 870,
    "les": 871,
    "ead": 872,
    "▁str": 873,
    "gress": 874,
    "ument": 875,
    "▁need": 876,
    "▁tell": 877,
    "oc": 878,
    "▁Pro": 879,
    "▁exper": 880,
    "▁fucking": 881,
    "ors": 882,
    "ning": 883,
    "ream": 884,
    "▁How": 885,
    "▁ter": 886,
    "pear": 887,
    "▁got": 888,
    "▁cour": 889,
    "▁find": 890,
    "▁begin": 891,
    "▁quest": 892,
    "▁origin": 893,
    "▁anything": 894,
    "▁ap": 895,
    "▁ey": 896,
    "▁new": 897,
    "▁become": 898,
    "▁el": 899,
    "▁imag": 900,
    "▁possib": 901,
    "▁things": 902,
    "ans": 903,
    "ved": 904,
    "▁those": 905,
    "▁experi": 906,
    "▁ro": 907,
    "ices": 908,
    "▁ret": 909,
    "ata": 910,
    "vers": 911,
    "▁Gibseyan": 912,
    "▁Jack": 913,
    "▁An": 914,
    "cept": 915,
    "▁bel": 916,
    "▁yet": 917,
    "▁point": 918,
    "ys": 919,
    "ild": 920,
    "man": 921,
    "▁fil": 922,
    "▁else": 923,
    "▁writ": 924,
    "▁agency": 925,
    "▁object": 926,
    "▁should": 927,
    "reat": 928,
    "▁Not": 929,
    "▁day": 930,
    "▁wasn": 931,
    "▁inter": 932,
    "▁In": 933,
    "▁Ph": 934,
    "cape": 935,
    "▁coll": 936,
    "ange": 937,
    "▁char": 938,
    "▁made": 939,
    "▁Progress": 940,
    "ull": 941,
    "ular": 942,
    "▁sel": 943,
    "▁around": 944,
    "▁Progresso": 945,
    "ither": 946,
    "▁kind": 947,
    "▁often": 948,
    "▁water": 949,
    "▁course": 950,
    "cl": 951,
    "ced": 952,
    "hed": 953,
    "▁imp": 954,
    "▁call": 955,
    "▁hand": 956,
    "▁line": 957,
    "▁sort": 958,
    "ry": 959,
    "▁pe": 960,
    "▁det": 961,
    "▁sim": 962,
    "▁once": 963,
    "▁certain": 964,
    "ized": 965,
    "ower": 966,
    "▁fin": 967,
    "▁self": 968,
    "led": 969,
    "▁ke": 970,
    "form": 971,
    "osed": 972,
    "▁cur": 973,
    "▁inv": 974,
    "▁mind": 975,
    "▁pass": 976,
    "▁gi": 977,
    "ific": 978,
    "ruct": 979,
    "▁ide": 980,
    "▁charact": 981,
    ",\"": 982,
    "ty": 983,
    "res": 984,
    "▁supp": 985,
    "▁trying": 986,
    "alk": 987,
    "▁alone": 988,
    "te": 989,
    "▁U": 990,
    "ody": 991,
    "▁eyes": 992,
    "▁nothing": 993,
    "▁aw": 994,
    "▁em": 995,
    "▁mem": 996,
    "ident": 997,
    "▁comm": 998,
    "▁narr": 999,
    "▁whole": 1000,
    "ish": 1001,
    "tle": 1002,
    "▁gu": 1003,
    "here": 1004,
    "rest": 1005,
    "illip": 1006,
    "▁film": 1007,
    "▁diffe": 1008,
    "▁V": 1009,
    "cri": 1010,
    "▁gl": 1011,
    "▁ass": 1012,
    "▁cor": 1013,
    "▁Parl": 1014,
    "▁conf": 1015,
    "▁data": 1016,
    "ron": 1017,
    "▁Sh": 1018,
    "▁sk": 1019,
    "less": 1020,
    "ather": 1021,
    "▁inst": 1022,
    "▁Gibst": 1023,
    "▁theme": 1024,
    "▁question": 1025,
    "!\"": 1026,
    "oice": 1027,
    "▁acc": 1028,
    "▁ind": 1029,
    "▁two": 1030,
    "▁Even": 1031,
    "▁inte": 1032,
    "▁name": 1033,
    "▁prob": 1034,
    "▁Phillip": 1035,
    "▁Parlance": 1036,
    "ra": 1037,
    "amn": 1038,
    "anc": 1039,
    "ied": 1040,
    "ord": 1041,
    "▁rel": 1042,
    "hat": 1043,
    "▁Oh": 1044,
    "atch": 1045,
    "scape": 1046,
    "▁class": 1047,
    "▁obser": 1048,
    "▁entire": 1049,
    "▁return": 1050,
    "▁process": 1051,
    "ge": 1052,
    "ism": 1053,
    "por": 1054,
    "▁ref": 1055,
    "▁look": 1056,
    "▁upon": 1057,
    "▁collect": 1058,
    "av": 1059,
    "cre": 1060,
    "ene": 1061,
    "▁Be": 1062,
    "ween": 1063,
    "▁var": 1064,
    "▁why": 1065,
    "ility": 1066,
    "onder": 1067,
    "▁fore": 1068,
    "▁take": 1069,
    "▁between": 1070,
    "▁original": 1071,
    "gan": 1072,
    "ike": 1073,
    "lem": 1074,
    "▁bu": 1075,
    "▁es": 1076,
    "ince": 1077,
    "nect": 1078,
    "▁scre": 1079,
    "▁disap": 1080,
    "▁story": 1081,
    "▁without": 1082,
    "▁landscape": 1083,
    "cc": 1084,
    "▁ev": 1085,
    "que": 1086,
    "▁mom": 1087,
    "▁moment": 1088,
    "▁continue": 1089,
    "gal": 1090,
    "yst": 1091,
    "▁ph": 1092,
    "ract": 1093,
    "▁All": 1094,
    "▁hum": 1095,
    "▁hear": 1096,
    "▁while": 1097,
    "▁better": 1098,
    "▁meaning": 1099,
    "ise": 1100,
    "ures": 1101,
    "▁bit": 1102,
    "▁fam": 1103,
    "▁author": 1104,
    "iss": 1105,
    "▁case": 1106,
    "▁myst": 1107,
    "▁said": 1108,
    "fin": 1109,
    "ner": 1110,
    "rif": 1111,
    "ror": 1112,
    "sid": 1113,
    "▁left": 1114,
    "pected": 1115,
    "▁since": 1116,
    "▁trans": 1117,
    "alt": 1118,
    "any": 1119,
    "the": 1120,
    "▁power": 1121,
    "▁instead": 1122,
    "▁reality": 1123,
    "--": 1124,
    "gg": 1125,
    "▁If": 1126,
    "▁op": 1127,
    "tern": 1128,
    "▁fact": 1129,
    "scious": 1130,
    "▁sound": 1131,
    "▁herself": 1132,
    "ubl": 1133,
    "▁ca": 1134,
    "▁art": 1135,
    "▁cle": 1136,
    "▁good": 1137,
    "▁pers": 1138,
    "▁shit": 1139,
    "▁sing": 1140,
    "▁content": 1141,
    "▁continu": 1142,
    "▁No": 1143,
    "▁ty": 1144,
    "▁nat": 1145,
    "ering": 1146,
    "▁away": 1147,
    "ilment": 1148,
    "▁doing": 1149,
    "▁light": 1150,
    "▁either": 1151,
    "▁connect": 1152,
    "▁supposed": 1153,
    "ieve": 1154,
    "ross": 1155,
    "▁mon": 1156,
    "▁ser": 1157,
    "▁same": 1158,
    "▁stop": 1159,
    "▁images": 1160,
    "▁ailment": 1161,
    "▁forever": 1162,
    "▁put": 1163,
    "▁fall": 1164,
    "▁idea": 1165,
    "▁show": 1166,
    "▁Still": 1167,
    "▁novel": 1168,
    "▁enough": 1169,
    "▁contain": 1170,
    "aff": 1171,
    "ize": 1172,
    "▁AI": 1173,
    "▁occ": 1174,
    "▁hadn": 1175,
    "▁seen": 1176,
    "▁turn": 1177,
    "▁aware": 1178,
    "▁times": 1179,
    "▁waiting": 1180,
    "ks": 1181,
    "mbol": 1182,
    "▁sit": 1183,
    "▁aren": 1184,
    "▁choo": 1185,
    "▁keep": 1186,
    "▁repe": 1187,
    "gether": 1188,
    "▁Stillman": 1189,
    "▁together": 1190,
    "con": 1191,
    "ted": 1192,
    "▁ho": 1193,
    "olog": 1194,
    "velop": 1195,
    "▁last": 1196,
    "▁little": 1197,
    "pearance": 1198,
    "ew": 1199,
    "ob": 1200,
    "▁'": 1201,
    "ave": 1202,
    "ably": 1203,
    "▁few": 1204,
    "stand": 1205,
    "▁feels": 1206,
    "▁human": 1207,
    "▁anyway": 1208,
    "▁whether": 1209,
    "uh": 1210,
    "der": 1211,
    "akes": 1212,
    "▁Sub": 1213,
    "▁Was": 1214,
    "ening": 1215,
    "ffect": 1216,
    "ities": 1217,
    "▁anim": 1218,
    "▁expl": 1219,
    "▁head": 1220,
    "▁matter": 1221,
    "▁symbol": 1222,
    "▁outside": 1223,
    "▁possible": 1224,
    "ional": 1225,
    "▁const": 1226,
    "▁pract": 1227,
    "▁Gibstory": 1228,
    "mm": 1229,
    "ps": 1230,
    "ety": 1231,
    "igh": 1232,
    "Well": 1233,
    "aces": 1234,
    "ator": 1235,
    "ense": 1236,
    "ered": 1237,
    "▁pur": 1238,
    "▁found": 1239,
    "▁space": 1240,
    "▁watch": 1241,
    "▁different": 1242,
    "ah": 1243,
    "gr": 1244,
    "iew": 1245,
    "▁So": 1246,
    "▁rid": 1247,
    "owing": 1248,
    "▁door": 1249,
    "▁hold": 1250,
    "▁vers": 1251,
    "ization": 1252,
    "▁subject": 1253,
    "▁various": 1254,
    "bt": 1255,
    "most": 1256,
    "▁col": 1257,
    "▁fur": 1258,
    "▁each": 1259,
    "▁play": 1260,
    "▁dream": 1261,
    "▁legal": 1262,
    "▁rather": 1263,
    "io": 1264,
    "ons": 1265,
    "▁loo": 1266,
    "▁sur": 1267,
    "▁done": 1268,
    "▁spec": 1269,
    "▁later": 1270,
    "▁inside": 1271,
    "▁created": 1272,
    "▁mention": 1273,
    "▁actually": 1274,
    "▁happened": 1275,
    "▁narrative": 1276,
    "▁understand": 1277,
    "du": 1278,
    "to": 1279,
    "unt": 1280,
    "ches": 1281,
    "▁dev": 1282,
    "▁hel": 1283,
    "▁death": 1284,
    "▁train": 1285,
    "▁yourself": 1286,
    "▁book": 1287,
    "▁pain": 1288,
    "▁used": 1289,
    "▁scene": 1290,
    "▁across": 1291,
    "▁develop": 1292,
    "▁started": 1293,
    "▁writing": 1294,
    "▁character": 1295,
    "dd": 1296,
    "ny": 1297,
    "ank": 1298,
    "ove": 1299,
    "▁Dis": 1300,
    "▁rest": 1301,
    "▁given": 1302,
    "▁occur": 1303,
    "▁further": 1304,
    "▁section": 1305,
    "▁experience": 1306,
    "hes": 1307,
    "uck": 1308,
    "▁ye": 1309,
    "ared": 1310,
    "ings": 1311,
    "rupt": 1312,
    "▁publ": 1313,
    "inking": 1314,
    "resent": 1315,
    "▁exact": 1316,
    "▁ident": 1317,
    "▁person": 1318,
    "▁everything": 1319,
    "▁To": 1320,
    "▁la": 1321,
    "apes": 1322,
    "ocus": 1323,
    "▁exp": 1324,
    "▁mag": 1325,
    "▁tri": 1326,
    "▁vis": 1327,
    "under": 1328,
    "▁chat": 1329,
    "▁dark": 1330,
    "▁disc": 1331,
    "▁face": 1332,
    "though": 1333,
    "▁image": 1334,
    "xpected": 1335,
    "▁almost": 1336,
    "▁coming": 1337,
    "Oh": 1338,
    "sh": 1339,
    "air": 1340,
    "elt": 1341,
    "ian": 1342,
    "▁car": 1343,
    "▁hor": 1344,
    "▁war": 1345,
    "▁cart": 1346,
    "▁fict": 1347,
    "▁live": 1348,
    "▁peop": 1349,
    "▁quite": 1350,
    "▁stand": 1351,
    "artment": 1352,
    "▁interest": 1353,
    "▁experienc": 1354,
    "But": 1355,
    "hen": 1356,
    "▁sw": 1357,
    "ount": 1358,
    "▁dec": 1359,
    "vious": 1360,
    "▁help": 1361,
    "▁likely": 1362,
    "▁memory": 1363,
    "ier": 1364,
    "pec": 1365,
    "ree": 1366,
    "imes": 1367,
    "ivid": 1368,
    "▁app": 1369,
    "▁fun": 1370,
    "▁reg": 1371,
    "ience": 1372,
    "▁able": 1373,
    "▁felt": 1374,
    "▁mult": 1375,
    "▁focus": 1376,
    "▁knows": 1377,
    "▁create": 1378,
    "▁living": 1379,
    "▁others": 1380,
    "▁existence": 1381,
    "ey": 1382,
    "You": 1383,
    "bot": 1384,
    "atic": 1385,
    "▁doc": 1386,
    "▁far": 1387,
    "▁typ": 1388,
    "uring": 1389,
    "▁Oren": 1390,
    "▁Well": 1391,
    "▁game": 1392,
    "▁knew": 1393,
    "▁early": 1394,
    "▁saying": 1395,
    "▁believe": 1396,
    "▁current": 1397,
    "▁someone": 1398,
    "▁document": 1399,
    "▁represent": 1400,
    "▁bo": 1401,
    "▁sn": 1402,
    "lect": 1403,
    "stem": 1404,
    "▁tal": 1405,
    "uture": 1406,
    "▁Myst": 1407,
    "▁dead": 1408,
    "▁past": 1409,
    "▁night": 1410,
    "▁contro": 1411,
    "▁people": 1412,
    "▁system": 1413,
    "..": 1414,
    "ts": 1415,
    "bin": 1416,
    "how": 1417,
    "ute": 1418,
    "What": 1419,
    "ists": 1420,
    "nded": 1421,
    "▁dou": 1422,
    "aring": 1423,
    "ories": 1424,
    "where": 1425,
    "▁high": 1426,
    "▁lack": 1427,
    "▁must": 1428,
    "▁shif": 1429,
    "▁text": 1430,
    "▁great": 1431,
    "▁haunt": 1432,
    "▁might": 1433,
    "▁effect": 1434,
    "▁myself": 1435,
    "▁classic": 1436,
    "▁company": 1437,
    "▁entirely": 1438,
    "edi": 1439,
    "iced": 1440,
    "▁Who": 1441,
    "▁add": 1442,
    "▁aud": 1443,
    "▁met": 1444,
    "ately": 1445,
    "pping": 1446,
    "▁true": 1447,
    "▁wand": 1448,
    "▁liter": 1449,
    "▁forget": 1450,
    "▁import": 1451,
    "onderful": 1452,
    "pecially": 1453,
    "▁getting": 1454,
    "fic": 1455,
    "ple": 1456,
    "▁As": 1457,
    "alys": 1458,
    "ates": 1459,
    "ener": 1460,
    "plet": 1461,
    "▁Did": 1462,
    "▁ang": 1463,
    "▁beh": 1464,
    "▁old": 1465,
    "▁pop": 1466,
    "▁try": 1467,
    "ching": 1468,
    "ished": 1469,
    "▁dist": 1470,
    "▁full": 1471,
    "▁walk": 1472,
    "alysis": 1473,
    "▁heard": 1474,
    "▁write": 1475,
    "aterial": 1476,
    "▁detect": 1477,
    "▁strange": 1478,
    "▁certainly": 1479,
    "ms": 1480,
    "sp": 1481,
    "day": 1482,
    "its": 1483,
    "▁Is": 1484,
    "empt": 1485,
    "▁abs": 1486,
    "▁pie": 1487,
    "▁pos": 1488,
    "▁unf": 1489,
    "itive": 1490,
    "ential": 1491,
    "▁choose": 1492,
    "▁future": 1493,
    "▁terrif": 1494,
    "▁Because": 1495,
    "▁version": 1496,
    "▁continues": 1497,
    "az": 1498,
    "ix": 1499,
    "▁De": 1500,
    "cond": 1501,
    "ilar": 1502,
    "ural": 1503,
    "▁che": 1504,
    "▁ess": 1505,
    "apter": 1506,
    "istic": 1507,
    "▁body": 1508,
    "▁dire": 1509,
    "▁prov": 1510,
    "▁seems": 1511,
    "▁sense": 1512,
    "▁speak": 1513,
    "▁choice": 1514,
    "▁control": 1515,
    "▁individ": 1516,
    "▁ourselves": 1517,
    "▁especially": 1518,
    "EO": 1519,
    "na": 1520,
    "ces": 1521,
    "ured": 1522,
    "▁Nat": 1523,
    "▁bre": 1524,
    "▁dri": 1525,
    "▁yes": 1526,
    "arent": 1527,
    "usion": 1528,
    "▁Ever": 1529,
    "▁cast": 1530,
    "▁resp": 1531,
    "finite": 1532,
    "▁toward": 1533,
    "▁material": 1534,
    "▁probably": 1535,
    "ird": 1536,
    "ned": 1537,
    "ows": 1538,
    "uff": 1539,
    "ines": 1540,
    "ited": 1541,
    "llio": 1542,
    "ooks": 1543,
    "ring": 1544,
    "▁cut": 1545,
    "▁min": 1546,
    "▁More": 1547,
    "▁Scri": 1548,
    "▁fail": 1549,
    "▁hard": 1550,
    "▁sign": 1551,
    "▁wind": 1552,
    "▁voice": 1553,
    "▁consid": 1554,
    "▁forward": 1555,
    "▁objects": 1556,
    "▁Scrillio": 1557,
    "▁audience": 1558,
    "▁thoughts": 1559,
    "▁Wonderful": 1560,
    "It": 1561,
    "ok": 1562,
    "rap": 1563,
    "▁Al": 1564,
    "aced": 1565,
    "▁His": 1566,
    "▁One": 1567,
    "▁air": 1568,
    "▁ans": 1569,
    "▁eas": 1570,
    "▁gre": 1571,
    "▁damn": 1572,
    "▁lead": 1573,
    "▁descri": 1574,
    "▁having": 1575,
    "▁series": 1576,
    "▁against": 1577,
    "▁attempt": 1578,
    "▁chatbot": 1579,
    "▁problem": 1580,
    "▁whatever": 1581,
    "▁conscious": 1582,
    "ci": 1583,
    "The": 1584,
    "ext": 1585,
    "▁ask": 1586,
    "▁que": 1587,
    "▁swe": 1588,
    "▁tit": 1589,
    "▁tot": 1590,
    "ialog": 1591,
    "lease": 1592,
    "oices": 1593,
    "stant": 1594,
    "▁deep": 1595,
    "▁give": 1596,
    "ishing": 1597,
    "▁child": 1598,
    "▁queue": 1599,
    "▁commun": 1600,
    "▁screen": 1601,
    "▁project": 1602,
    "▁attention": 1603,
    "▁individual": 1604,
    "ale": 1605,
    "alu": 1606,
    "ime": 1607,
    "▁Ch": 1608,
    "ives": 1609,
    "▁CEO": 1610,
    "▁imm": 1611,
    "▁par": 1612,
    "▁unt": 1613,
    "▁came": 1614,
    "▁less": 1615,
    "▁next": 1616,
    "▁note": 1617,
    "▁open": 1618,
    "▁pres": 1619,
    "▁stru": 1620,
    "▁talk": 1621,
    "olding": 1622,
    "▁comes": 1623,
    "▁hands": 1624,
    "▁known": 1625,
    "▁organ": 1626,
    "▁anyone": 1627,
    "▁dialog": 1628,
    "▁struct": 1629,
    "▁complet": 1630,
    "▁somehow": 1631,
    "ane": 1632,
    "ets": 1633,
    "iar": 1634,
    "ney": 1635,
    "ock": 1636,
    "ret": 1637,
    "alie": 1638,
    "arth": 1639,
    "ased": 1640,
    "▁Mon": 1641,
    "icism": 1642,
    "▁Baff": 1643,
    "▁Like": 1644,
    "▁answ": 1645,
    "▁empt": 1646,
    "▁hell": 1647,
    "▁init": 1648,
    "▁list": 1649,
    "▁main": 1650,
    "▁pull": 1651,
    "▁becom": 1652,
    "▁build": 1653,
    "▁meant": 1654,
    "▁called": 1655,
    "▁family": 1656,
    "▁wouldn": 1657,
    "▁Natalie": 1658,
    "▁looking": 1659,
    "▁noticed": 1660,
    "▁Monument": 1661,
    "of": 1662,
    "ta": 1663,
    "yn": 1664,
    "ages": 1665,
    "aken": 1666,
    "like": 1667,
    "omin": 1668,
    "pite": 1669,
    "rect": 1670,
    "▁Per": 1671,
    "▁bud": 1672,
    "aster": 1673,
    "empor": 1674,
    "iness": 1675,
    "ments": 1676,
    "nding": 1677,
    "ronic": 1678,
    "▁cent": 1679,
    "▁view": 1680,
    "▁wood": 1681,
    "ancial": 1682,
    "arling": 1683,
    "scapes": 1684,
    "▁blood": 1685,
    "▁event": 1686,
    "▁invest": 1687,
    "▁longer": 1688,
    "▁recent": 1689,
    "▁repeated": 1690,
    "▁singular": 1691,
    "▁awareness": 1692,
    "▁important": 1693,
    "▁characters": 1694,
    "ash": 1695,
    "chn": 1696,
    "ery": 1697,
    "ool": 1698,
    "▁fo": 1699,
    "▁ri": 1700,
    "fety": 1701,
    "▁fig": 1702,
    "▁inf": 1703,
    "▁lim": 1704,
    "ality": 1705,
    "arrow": 1706,
    "izing": 1707,
    "mbers": 1708,
    "rence": 1709,
    "▁appe": 1710,
    "▁mine": 1711,
    "ficult": 1712,
    "lemint": 1713,
    "▁Every": 1714,
    "▁clear": 1715,
    "▁glass": 1716,
    "▁Worlds": 1717,
    "▁direct": 1718,
    "▁notice": 1719,
    "▁remind": 1720,
    "▁Thunder": 1721,
    "▁attract": 1722,
    "▁explain": 1723,
    "▁practice": 1724,
    "▁construct": 1725,
    "▁difficult": 1726,
    "▁Bafflemint": 1727,
    "▁landscapes": 1728,
    "de": 1729,
    "▁K": 1730,
    "lyn": 1731,
    "par": 1732,
    "umb": 1733,
    "bino": 1734,
    "iron": 1735,
    "onna": 1736,
    "▁Bam": 1737,
    "▁loc": 1738,
    "▁lot": 1739,
    "ellig": 1740,
    "iance": 1741,
    "▁best": 1742,
    "▁fill": 1743,
    "▁hope": 1744,
    "▁incl": 1745,
    "▁mist": 1746,
    "▁trad": 1747,
    "itions": 1748,
    "izable": 1749,
    "▁Their": 1750,
    "▁guess": 1751,
    "▁means": 1752,
    "▁order": 1753,
    "▁Marrow": 1754,
    "▁letter": 1755,
    "▁moving": 1756,
    "▁terror": 1757,
    "▁wanted": 1758,
    "▁Bambino": 1759,
    "▁Jacklyn": 1760,
    "▁context": 1761,
    "▁exactly": 1762,
    "▁members": 1763,
    "▁apartment": 1764,
    "▁beginning": 1765,
    "▁happening": 1766,
    "apt": 1767,
    "idd": 1768,
    "uly": 1769,
    "uss": 1770,
    "▁Do": 1771,
    "▁OK": 1772,
    "▁ru": 1773,
    "body": 1774,
    "▁aut": 1775,
    "▁ear": 1776,
    "▁huh": 1777,
    "▁lay": 1778,
    "▁sun": 1779,
    "ances": 1780,
    "▁gone": 1781,
    "▁late": 1782,
    "▁gonna": 1783,
    "▁repet": 1784,
    "▁techn": 1785,
    "ability": 1786,
    "▁detail": 1787,
    "▁wonder": 1788,
    "▁darling": 1789,
    "▁similar": 1790,
    "▁Substant": 1791,
    "▁thinking": 1792,
    "up": 1793,
    "And": 1794,
    "▁Re": 1795,
    "▁dr": 1796,
    "▁er": 1797,
    "host": 1798,
    "ript": 1799,
    "▁Why": 1800,
    "▁flo": 1801,
    "▁Perd": 1802,
    "▁fear": 1803,
    "▁ment": 1804,
    "▁miss": 1805,
    "▁move": 1806,
    "▁onto": 1807,
    "▁slip": 1808,
    "ternal": 1809,
    "▁above": 1810,
    "▁confl": 1811,
    "▁earth": 1812,
    "▁couldn": 1813,
    "▁forced": 1814,
    "▁nature": 1815,
    "▁observ": 1816,
    "▁partic": 1817,
    "▁However": 1818,
    "▁symbols": 1819,
    "▁investig": 1820,
    "▁Perdition": 1821,
    "▁interesting": 1822,
    "▁Substantially": 1823,
    "**": 1824,
    "-\"": 1825,
    "bo": 1826,
    "uc": 1827,
    "ify": 1828,
    "nel": 1829,
    "ont": 1830,
    "pus": 1831,
    "▁At": 1832,
    "▁jo": 1833,
    "anny": 1834,
    "fort": 1835,
    "yard": 1836,
    "▁Asc": 1837,
    "▁Cor": 1838,
    "▁inn": 1839,
    "▁mov": 1840,
    "▁use": 1841,
    "▁Malt": 1842,
    "▁dest": 1843,
    "▁fant": 1844,
    "▁forg": 1845,
    "▁ones": 1846,
    "porate": 1847,
    "▁Books": 1848,
    "▁doubt": 1849,
    "▁famil": 1850,
    "▁ghost": 1851,
    "▁leave": 1852,
    "▁truly": 1853,
    "▁parent": 1854,
    "▁Sizable": 1855,
    "▁backyard": 1856,
    "▁conflict": 1857,
    "▁essential": 1858,
    "▁fictional": 1859,
    "hy": 1860,
    "but": 1861,
    "ges": 1862,
    "rit": 1863,
    "ains": 1864,
    "ched": 1865,
    "ined": 1866,
    "oned": 1867,
    "ored": 1868,
    "▁due": 1869,
    "▁ign": 1870,
    "▁tre": 1871,
    "rance": 1872,
    "▁Wait": 1873,
    "▁caus": 1874,
    "▁purp": 1875,
    "▁reas": 1876,
    "▁soon": 1877,
    "ground": 1878,
    "▁incre": 1879,
    "▁small": 1880,
    "▁wants": 1881,
    "ational": 1882,
    "▁change": 1883,
    "▁gotten": 1884,
    "▁multip": 1885,
    "▁nearly": 1886,
    "▁safety": 1887,
    "▁concept": 1888,
    "▁despite": 1889,
    "▁discuss": 1890,
    "▁talking": 1891,
    "▁written": 1892,
    "conscious": 1893,
    "▁complete": 1894,
    "▁maintain": 1895,
    "▁previous": 1896,
    "▁Mysticism": 1897,
    "▁detective": 1898,
    "aw": 1899,
    "ns": 1900,
    "ilt": 1901,
    "not": 1902,
    "odd": 1903,
    "oud": 1904,
    "▁Ag": 1905,
    "amed": 1906,
    "ible": 1907,
    "land": 1908,
    "ully": 1909,
    "▁Int": 1910,
    "▁Var": 1911,
    "▁hop": 1912,
    "▁mor": 1913,
    "acted": 1914,
    "ggest": 1915,
    "▁days": 1916,
    "▁lect": 1917,
    "▁oper": 1918,
    "▁prof": 1919,
    "▁rain": 1920,
    "▁repl": 1921,
    "▁room": 1922,
    "▁told": 1923,
    "▁Somet": 1924,
    "▁taken": 1925,
    "▁Ascent": 1926,
    "▁behind": 1927,
    "▁ground": 1928,
    "▁making": 1929,
    "▁public": 1930,
    "▁strugg": 1931,
    "▁present": 1932,
    "▁suggest": 1933,
    "▁communic": 1934,
    "▁watching": 1935,
    "▁financial": 1936,
    "cy": 1937,
    "ls": 1938,
    "aim": 1939,
    "als": 1940,
    "aps": 1941,
    "bit": 1942,
    "hip": 1943,
    "ics": 1944,
    "mit": 1945,
    "ots": 1946,
    "ths": 1947,
    "▁My": 1948,
    "▁ve": 1949,
    "aves": 1950,
    "bers": 1951,
    "ides": 1952,
    "izes": 1953,
    "▁For": 1954,
    "▁phr": 1955,
    "▁red": 1956,
    "arily": 1957,
    "▁When": 1958,
    "▁card": 1959,
    "▁care": 1960,
    "▁hall": 1961,
    "▁hasn": 1962,
    "▁prom": 1963,
    "▁step": 1964,
    "▁Manny": 1965,
    "▁gener": 1966,
    "▁piece": 1967,
    "▁separ": 1968,
    "▁state": 1969,
    "▁Corpus": 1970,
    "▁includ": 1971,
    "▁knowing": 1972,
    "▁natural": 1973,
    "▁although": 1974,
    "▁specific": 1975,
    "▁experiences": 1976,
    "),": 1977,
    "wh": 1978,
    "▁-": 1979,
    "abl": 1980,
    "app": 1981,
    "lex": 1982,
    "ugh": 1983,
    "▁Br": 1984,
    "head": 1985,
    "ired": 1986,
    "ivil": 1987,
    "ried": 1988,
    "rock": 1989,
    "▁Can": 1990,
    "▁Mag": 1991,
    "▁ach": 1992,
    "▁bad": 1993,
    "▁inc": 1994,
    "▁tra": 1995,
    "ously": 1996,
    "▁sens": 1997,
    "▁alive": 1998,
    "▁civil": 1999,
    "▁enter": 2000,
    "▁evalu": 2001,
    "▁haven": 2002,
    "▁invol": 2003,
    "▁produ": 2004,
    "▁years": 2005,
    "ificial": 2006,
    "▁accept": 2007,
    "▁sounds": 2008,
    "▁endless": 2009,
    "elligence": 2010,
    "nexpected": 2011,
    "▁Variance": 2012,
    "▁mystical": 2013,
    "ape": 2014,
    "ask": 2015,
    "ayk": 2016,
    "lit": 2017,
    "nds": 2018,
    "ply": 2019,
    "urd": 2020,
    "wor": 2021,
    "yle": 2022,
    "leep": 2023,
    "oken": 2024,
    "road": 2025,
    "▁bus": 2026,
    "▁dig": 2027,
    "▁hot": 2028,
    "▁sky": 2029,
    "▁uni": 2030,
    "▁kill": 2031,
    "▁lear": 2032,
    "▁loss": 2033,
    "▁love": 2034,
    "▁plan": 2035,
    "▁wond": 2036,
    "▁black": 2037,
    "▁empty": 2038,
    "▁looks": 2039,
    "▁makes": 2040,
    "▁until": 2041,
    "▁weren": 2042,
    "▁budget": 2043,
    "▁common": 2044,
    "▁immedi": 2045,
    "▁mother": 2046,
    "▁second": 2047,
    "▁simply": 2048,
    "▁starts": 2049,
    "▁disappe": 2050,
    "▁screens": 2051,
    "▁creating": 2052,
    "▁creation": 2053,
    "▁disappear": 2054,
    "▁Unexpected": 2055,
    "▁continually": 2056,
    "ats": 2057,
    "cer": 2058,
    "iol": 2059,
    "ode": 2060,
    "umm": 2061,
    "▁ep": 2062,
    "dden": 2063,
    "ents": 2064,
    "more": 2065,
    "▁Had": 2066,
    "▁Yes": 2067,
    "▁ali": 2068,
    "▁opp": 2069,
    "▁unc": 2070,
    "aving": 2071,
    "fully": 2072,
    "ingly": 2073,
    "tered": 2074,
    "utter": 2075,
    "▁Sham": 2076,
    "▁home": 2077,
    "▁spir": 2078,
    "▁Disap": 2079,
    "▁appro": 2080,
    "▁claim": 2081,
    "▁heart": 2082,
    "▁magic": 2083,
    "▁movie": 2084,
    "▁perce": 2085,
    "▁smell": 2086,
    "▁title": 2087,
    "▁today": 2088,
    "▁entity": 2089,
    "▁reason": 2090,
    "▁script": 2091,
    "▁Magical": 2092,
    "▁comfort": 2093,
    "▁complex": 2094,
    "▁correct": 2095,
    "▁monolog": 2096,
    "▁reflect": 2097,
    "▁staring": 2098,
    "▁towards": 2099,
    "▁dialogue": 2100,
    "▁starting": 2101,
    "▁interrupt": 2102,
    "▁structure": 2103,
    "ax": 2104,
    "aut": 2105,
    "hic": 2106,
    "oon": 2107,
    "oun": 2108,
    "▁Im": 2109,
    "▁ed": 2110,
    "▁oh": 2111,
    "▁uh": 2112,
    "arch": 2113,
    "icks": 2114,
    "ided": 2115,
    "ouse": 2116,
    "outh": 2117,
    "owed": 2118,
    "▁Cop": 2119,
    "▁ext": 2120,
    "▁mir": 2121,
    "▁mix": 2122,
    "▁sho": 2123,
    "▁top": 2124,
    "▁une": 2125,
    "Right": 2126,
    "onest": 2127,
    "otten": 2128,
    "▁Todd": 2129,
    "▁lost": 2130,
    "▁near": 2131,
    "▁rese": 2132,
    "▁stay": 2133,
    "▁tomb": 2134,
    "▁After": 2135,
    "▁among": 2136,
    "▁below": 2137,
    "▁bound": 2138,
    "▁frame": 2139,
    "▁innoc": 2140,
    "▁reach": 2141,
    "▁recre": 2142,
    "▁secre": 2143,
    "ination": 2144,
    "ominion": 2145,
    "▁Disney": 2146,
    "▁necess": 2147,
    "▁record": 2148,
    "▁seemed": 2149,
    "▁sudden": 2150,
    "▁worlds": 2151,
    "▁existed": 2152,
    "▁growing": 2153,
    "▁notices": 2154,
    "▁popular": 2155,
    "▁setting": 2156,
    "▁Shamrock": 2157,
    "▁consider": 2158,
    "▁developed": 2159,
    "▁questions": 2160,
    "▁remembers": 2161,
    "▁throughout": 2162,
    "▁civilization": 2163,
    "▁Disappearance": 2164,
    "▁disappearance": 2165,
    "by": 2166,
    "me": 2167,
    "esh": 2168,
    "ogn": 2169,
    "▁av": 2170,
    "▁hy": 2171,
    "aily": 2172,
    "angu": 2173,
    "ging": 2174,
    "oses": 2175,
    "that": 2176,
    "view": 2177,
    "▁Dav": 2178,
    "▁Ent": 2179,
    "▁emb": 2180,
    "▁ill": 2181,
    "allen": 2182,
    "ified": 2183,
    "unnel": 2184,
    "▁decl": 2185,
    "▁wall": 2186,
    "▁yell": 2187,
    "ousand": 2188,
    "▁First": 2189,
    "▁Shayk": 2190,
    "▁close": 2191,
    "▁shift": 2192,
    "▁turns": 2193,
    "ailroad": 2194,
    "▁Though": 2195,
    "▁seeing": 2196,
    "▁single": 2197,
    "▁Nothing": 2198,
    "▁anymore": 2199,
    "▁entered": 2200,
    "▁feeling": 2201,
    "▁perform": 2202,
    "▁stories": 2203,
    "▁systems": 2204,
    "▁becoming": 2205,
    "▁everyone": 2206,
    "▁forgotten": 2207,
    "▁mentioned": 2208,
    "▁objective": 2209,
    "▁tradition": 2210,
    "▁transform": 2211,
    "▁collective": 2212,
    "▁terrifying": 2213,
    "▁immediately": 2214,
    "?-": 2215,
    "gu": 2216,
    "sy": 2217,
    "irc": 2218,
    "ote": 2219,
    "rin": 2220,
    "ues": 2221,
    "ume": 2222,
    "ush": 2223,
    "▁Se": 2224,
    "ales": 2225,
    "ases": 2226,
    "eric": 2227,
    "ised": 2228,
    "ital": 2229,
    "ones": 2230,
    "ynch": 2231,
    "▁ine": 2232,
    "▁ins": 2233,
    "▁mar": 2234,
    "▁mot": 2235,
    "▁neg": 2236,
    "▁sac": 2237,
    "▁won": 2238,
    "ached": 2239,
    "anged": 2240,
    "board": 2241,
    "erred": 2242,
    "ision": 2243,
    "▁area": 2244,
    "▁blur": 2245,
    "▁clip": 2246,
    "▁earl": 2247,
    "▁foll": 2248,
    "▁gets": 2249,
    "▁grou": 2250,
    "▁grow": 2251,
    "▁pict": 2252,
    "inging": 2253,
    "▁check": 2254,
    "▁house": 2255,
    "▁level": 2256,
    "▁mouth": 2257,
    "▁smile": 2258,
    "anguage": 2259,
    "ception": 2260,
    "▁chance": 2261,
    "▁formed": 2262,
    "▁phrase": 2263,
    "▁regard": 2264,
    "▁subsid": 2265,
    "▁tempor": 2266,
    "▁falling": 2267,
    "▁mistake": 2268,
    "▁moments": 2269,
    "▁respons": 2270,
    "▁sitting": 2271,
    "▁station": 2272,
    "▁Dominion": 2273,
    "▁analysis": 2274,
    "▁infinite": 2275,
    "▁speaking": 2276,
    "▁corporate": 2277,
    "▁unfolding": 2278,
    "gy": 2279,
    "kn": 2280,
    "...": 2281,
    "ger": 2282,
    "raw": 2283,
    "▁AD": 2284,
    "▁Am": 2285,
    "▁fa": 2286,
    "come": 2287,
    "iary": 2288,
    "line": 2289,
    "rary": 2290,
    "wise": 2291,
    "▁Her": 2292,
    "▁Res": 2293,
    "▁cig": 2294,
    "▁ris": 2295,
    "▁sus": 2296,
    "ained": 2297,
    "antly": 2298,
    "iding": 2299,
    "ights": 2300,
    "▁Back": 2301,
    "▁arms": 2302,
    "▁asks": 2303,
    "▁bank": 2304,
    "▁clic": 2305,
    "▁cons": 2306,
    "▁ener": 2307,
    "▁song": 2308,
    "▁viol": 2309,
    "▁Synch": 2310,
    "▁along": 2311,
    "▁choos": 2312,
    "▁forms": 2313,
    "▁rides": 2314,
    "▁sleep": 2315,
    "▁stare": 2316,
    "▁vehic": 2317,
    "▁Davies": 2318,
    "▁during": 2319,
    "▁fantas": 2320,
    "▁horror": 2321,
    "▁strang": 2322,
    "▁vision": 2323,
    "▁Chapter": 2324,
    "▁Gibstor": 2325,
    "▁answers": 2326,
    "▁devices": 2327,
    "▁telling": 2328,
    "▁theater": 2329,
    "▁warning": 2330,
    "▁familiar": 2331,
    "▁intended": 2332,
    "▁literary": 2333,
    "▁somewhere": 2334,
    "▁difference": 2335,
    "▁disappeared": 2336,
    "ia": 2337,
    "lt": 2338,
    "aly": 2339,
    "ern": 2340,
    "for": 2341,
    "ior": 2342,
    "ump": 2343,
    "vol": 2344,
    "▁Fl": 2345,
    "btor": 2346,
    "hold": 2347,
    "icul": 2348,
    "onic": 2349,
    "ront": 2350,
    "yond": 2351,
    "▁ADD": 2352,
    "▁Now": 2353,
    "▁bas": 2354,
    "▁cha": 2355,
    "▁dro": 2356,
    "▁env": 2357,
    "▁hit": 2358,
    "▁pap": 2359,
    "▁ste": 2360,
    "acing": 2361,
    "ators": 2362,
    "organ": 2363,
    "▁bene": 2364,
    "▁cond": 2365,
    "▁fair": 2366,
    "▁fing": 2367,
    "▁flat": 2368,
    "▁prot": 2369,
    "▁sick": 2370,
    "▁skin": 2371,
    "▁town": 2372,
    "ruptcy": 2373,
    "thical": 2374,
    "▁Where": 2375,
    "▁admit": 2376,
    "▁alien": 2377,
    "▁built": 2378,
    "▁flesh": 2379,
    "▁front": 2380,
    "▁fully": 2381,
    "▁shape": 2382,
    "▁stret": 2383,
    "▁worse": 2384,
    "edacted": 2385,
    "ression": 2386,
    "▁Debtor": 2387,
    "▁Shaykh": 2388,
    "▁appear": 2389,
    "▁beyond": 2390,
    "▁device": 2391,
    "▁giving": 2392,
    "▁honest": 2393,
    "▁listen": 2394,
    "▁wander": 2395,
    "▁clearly": 2396,
    "▁however": 2397,
    "▁increas": 2398,
    "▁partner": 2399,
    "▁provide": 2400,
    "▁Analysis": 2401,
    "▁Railroad": 2402,
    "▁accident": 2403,
    "▁identity": 2404,
    "▁personal": 2405,
    "▁position": 2406,
    "▁contained": 2407,
    "▁otherwise": 2408,
    "▁sometimes": 2409,
    "▁technolog": 2410,
    "▁particular": 2411,
    "▁unexpected": 2412,
    "▁intelligence": 2413,
    ").": 2414,
    "We": 2415,
    "ex": 2416,
    "go": 2417,
    "gs": 2418,
    "bow": 2419,
    "eah": 2420,
    "erm": 2421,
    "▁Em": 2422,
    "▁On": 2423,
    "▁af": 2424,
    "▁pa": 2425,
    "book": 2426,
    "ming": 2427,
    "uous": 2428,
    "▁Are": 2429,
    "▁led": 2430,
    "▁non": 2431,
    "▁sil": 2432,
    "ences": 2433,
    "inous": 2434,
    "ution": 2435,
    "▁Good": 2436,
    "▁Some": 2437,
    "▁circ": 2438,
    "▁frie": 2439,
    "▁heav": 2440,
    "▁mach": 2441,
    "▁mark": 2442,
    "▁reve": 2443,
    "▁stri": 2444,
    "▁stud": 2445,
    "▁stup": 2446,
    "▁surf": 2447,
    "▁thus": 2448,
    "▁unkn": 2449,
    "establ": 2450,
    "▁amuse": 2451,
    "▁belie": 2452,
    "▁break": 2453,
    "▁defin": 2454,
    "▁funny": 2455,
    "▁gotta": 2456,
    "▁ideas": 2457,
    "▁parks": 2458,
    "▁tries": 2459,
    "▁trust": 2460,
    "▁worry": 2461,
    "atronic": 2462,
    "version": 2463,
    "▁Americ": 2464,
    "▁action": 2465,
    "▁destro": 2466,
    "▁excess": 2467,
    "▁please": 2468,
    "▁remain": 2469,
    "▁voices": 2470,
    "▁challen": 2471,
    "▁effects": 2472,
    "▁magical": 2473,
    "▁passing": 2474,
    "▁purpose": 2475,
    "▁totally": 2476,
    "▁vehicle": 2477,
    "▁language": 2478,
    "▁occurred": 2479,
    "▁amusement": 2480,
    "▁eventually": 2481,
    "▁possibility": 2482,
    "oy": 2483,
    "▁z": 2484,
    "alf": 2485,
    "bed": 2486,
    "ble": 2487,
    "els": 2488,
    "eth": 2489,
    "lic": 2490,
    "med": 2491,
    "▁id": 2492,
    "▁ya": 2493,
    "agin": 2494,
    "aled": 2495,
    "iety": 2496,
    "pped": 2497,
    "rors": 2498,
    "sess": 2499,
    "umul": 2500,
    "urst": 2501,
    "used": 2502,
    "▁Any": 2503,
    "▁Don": 2504,
    "▁Rep": 2505,
    "▁big": 2506,
    "▁ble": 2507,
    "▁dep": 2508,
    "▁job": 2509,
    "▁mod": 2510,
    "▁sad": 2511,
    "▁suc": 2512,
    "▁syn": 2513,
    "aches": 2514,
    "bling": 2515,
    "ister": 2516,
    "ondon": 2517,
    "osing": 2518,
    "verse": 2519,
    "▁Data": 2520,
    "▁clim": 2521,
    "▁exam": 2522,
    "▁gold": 2523,
    "▁pret": 2524,
    "ushing": 2525,
    "▁These": 2526,
    "▁Would": 2527,
    "▁began": 2528,
    "▁fated": 2529,
    "▁green": 2530,
    "▁laugh": 2531,
    "▁lives": 2532,
    "▁press": 2533,
    "▁relig": 2534,
    "▁style": 2535,
    "▁tried": 2536,
    "▁truth": 2537,
    "▁wrong": 2538,
    "▁London": 2539,
    "▁altern": 2540,
    "▁begins": 2541,
    "▁design": 2542,
    "▁expect": 2543,
    "▁hoping": 2544,
    "▁obsess": 2545,
    "▁recogn": 2546,
    "▁resort": 2547,
    "▁scream": 2548,
    "▁spaces": 2549,
    "▁stupid": 2550,
    "▁thrust": 2551,
    "▁achieve": 2552,
    "▁choices": 2553,
    "▁earlier": 2554,
    "▁happens": 2555,
    "▁reading": 2556,
    "▁realize": 2557,
    "▁Entrance": 2558,
    "▁building": 2559,
    "▁memories": 2560,
    "▁negative": 2561,
    "▁collected": 2562,
    "▁regarding": 2563,
    "▁therefore": 2564,
    "▁artificial": 2565,
    "▁subsidiary": 2566,
    "▁animatronic": 2567,
    "Do": 2568,
    "ng": 2569,
    "Yes": 2570,
    "oid": 2571,
    "omp": 2572,
    "▁Ok": 2573,
    "ames": 2574,
    "ceed": 2575,
    "hood": 2576,
    "orry": 2577,
    "play": 2578,
    "rodu": 2579,
    "room": 2580,
    "▁Ext": 2581,
    "▁Way": 2582,
    "▁cam": 2583,
    "▁enc": 2584,
    "▁gas": 2585,
    "▁har": 2586,
    "▁ice": 2587,
    "▁mis": 2588,
    "▁sol": 2589,
    "▁sou": 2590,
    "▁wee": 2591,
    "ature": 2592,
    "ement": 2593,
    "idden": 2594,
    "iving": 2595,
    "ivity": 2596,
    "urely": 2597,
    "▁Emir": 2598,
    "▁Time": 2599,
    "▁With": 2600,
    "▁cost": 2601,
    "▁dear": 2602,
    "▁fate": 2603,
    "▁hair": 2604,
    "▁held": 2605,
    "▁iron": 2606,
    "▁spin": 2607,
    "▁type": 2608,
    "ctions": 2609,
    "▁adapt": 2610,
    "▁beaut": 2611,
    "▁curse": 2612,
    "▁quick": 2613,
    "▁stops": 2614,
    "▁super": 2615,
    "▁weird": 2616,
    "versive": 2617,
    "▁Resort": 2618,
    "▁concer": 2619,
    "▁easily": 2620,
    "▁escape": 2621,
    "▁establ": 2622,
    "▁failed": 2623,
    "▁finish": 2624,
    "▁intern": 2625,
    "▁needed": 2626,
    "▁office": 2627,
    "▁secret": 2628,
    "▁transp": 2629,
    "▁wooden": 2630,
    "▁fiction": 2631,
    "▁haunted": 2632,
    "▁opening": 2633,
    "▁parents": 2634,
    "▁playing": 2635,
    "▁protect": 2636,
    "▁children": 2637,
    "▁darkness": 2638,
    "▁expected": 2639,
    "▁possibly": 2640,
    "▁realizes": 2641,
    "▁thousand": 2642,
    "▁connected": 2643,
    "▁documents": 2644,
    "▁relations": 2645,
    "▁attraction": 2646,
    "▁originally": 2647,
    "▁alternative": 2648,
    "▁connections": 2649,
    "▁constructed": 2650,
    "▁underground": 2651,
    "!'": 2652,
    "hh": 2653,
    "emp": 2654,
    "izz": 2655,
    "orn": 2656,
    "tic": 2657,
    "und": 2658,
    "▁Gr": 2659,
    "▁di": 2660,
    "▁ge": 2661,
    "▁ic": 2662,
    "chet": 2663,
    "cing": 2664,
    "ient": 2665,
    "iles": 2666,
    "mare": 2667,
    "ords": 2668,
    "raid": 2669,
    "rain": 2670,
    "roll": 2671,
    "uses": 2672,
    "what": 2673,
    "▁Huh": 2674,
    "▁Pet": 2675,
    "▁adv": 2676,
    "▁ast": 2677,
    "▁dam": 2678,
    "▁lar": 2679,
    "▁map": 2680,
    "▁num": 2681,
    "▁rad": 2682,
    "iling": 2683,
    "ining": 2684,
    "ively": 2685,
    "round": 2686,
    "▁Walt": 2687,
    "▁atop": 2688,
    "▁conj": 2689,
    "▁crew": 2690,
    "▁crit": 2691,
    "▁easy": 2692,
    "▁fire": 2693,
    "▁medi": 2694,
    "▁path": 2695,
    "▁pour": 2696,
    "▁seat": 2697,
    "▁unre": 2698,
    "▁unsp": 2699,
    "empest": 2700,
    "lement": 2701,
    "reston": 2702,
    "uation": 2703,
    "ularly": 2704,
    "▁autom": 2705,
    "▁brain": 2706,
    "▁cause": 2707,
    "▁final": 2708,
    "▁phone": 2709,
    "▁takes": 2710,
    "▁total": 2711,
    "▁Either": 2712,
    "▁absurd": 2713,
    "▁afraid": 2714,
    "▁batter": 2715,
    "▁center": 2716,
    "▁colors": 2717,
    "▁dreams": 2718,
    "▁number": 2719,
    "▁pretty": 2720,
    "▁proced": 2721,
    "▁themes": 2722,
    "▁tunnel": 2723,
    "Redacted": 2724,
    "▁Preston": 2725,
    "▁brought": 2726,
    "▁decline": 2727,
    "▁environ": 2728,
    "▁eternal": 2729,
    "▁example": 2730,
    "▁leading": 2731,
    "▁lecture": 2732,
    "▁success": 2733,
    "▁suspect": 2734,
    "formation": 2735,
    "▁Although": 2736,
    "▁multiple": 2737,
    "▁unspoken": 2738,
    "▁necessary": 2739,
    "▁returning": 2740,
    "▁typically": 2741,
    "▁wandering": 2742,
    "▁attractions": 2743,
    "▁observation": 2744,
    "▁increasingly": 2745,
    "',": 2746,
    "ox": 2747,
    "wl": 2748,
    "ert": 2749,
    "ged": 2750,
    "ife": 2751,
    "key": 2752,
    "rom": 2753,
    "udy": 2754,
    "▁**": 2755,
    "▁Ab": 2756,
    "▁Mr": 2757,
    "▁ma": 2758,
    "aged": 2759,
    "ctor": 2760,
    "damn": 2761,
    "fall": 2762,
    "inte": 2763,
    "ises": 2764,
    "this": 2765,
    "ught": 2766,
    "work": 2767,
    "▁bal": 2768,
    "▁cap": 2769,
    "▁dem": 2770,
    "▁eye": 2771,
    "▁fre": 2772,
    "▁key": 2773,
    "▁rum": 2774,
    "▁uns": 2775,
    "aight": 2776,
    "alyst": 2777,
    "iable": 2778,
    "iting": 2779,
    "ooded": 2780,
    "ortun": 2781,
    "ption": 2782,
    "▁City": 2783,
    "▁Mark": 2784,
    "▁Prin": 2785,
    "▁Rain": 2786,
    "▁Your": 2787,
    "▁bare": 2788,
    "▁boil": 2789,
    "▁city": 2790,
    "▁depe": 2791,
    "▁diss": 2792,
    "▁emot": 2793,
    "▁gray": 2794,
    "▁hill": 2795,
    "▁mess": 2796,
    "▁phys": 2797,
    "▁poor": 2798,
    "▁rock": 2799,
    "▁sits": 2800,
    "▁wide": 2801,
    "▁yeah": 2802,
    "▁Brass": 2803,
    "▁aband": 2804,
    "▁ahead": 2805,
    "▁arbit": 2806,
    "▁based": 2807,
    "▁bring": 2808,
    "▁camer": 2809,
    "▁cigar": 2810,
    "▁force": 2811,
    "▁forth": 2812,
    "▁gives": 2813,
    "▁holds": 2814,
    "▁hyper": 2815,
    "▁needs": 2816,
    "▁sorts": 2817,
    "▁split": 2818,
    "▁stage": 2819,
    "▁steps": 2820,
    "▁thres": 2821,
    "▁worth": 2822,
    "attered": 2823,
    "ibility": 2824,
    "ilities": 2825,
    "▁Imagin": 2826,
    "▁answer": 2827,
    "▁assign": 2828,
    "▁commit": 2829,
    "▁figure": 2830,
    "▁hidden": 2831,
    "▁pieces": 2832,
    "▁places": 2833,
    "▁reader": 2834,
    "▁stream": 2835,
    "▁taking": 2836,
    "▁typing": 2837,
    "▁unique": 2838,
    "finitely": 2839,
    "▁Extract": 2840,
    "▁actions": 2841,
    "▁ethical": 2842,
    "▁fantasy": 2843,
    "▁focused": 2844,
    "▁initial": 2845,
    "▁missing": 2846,
    "▁observe": 2847,
    "▁profess": 2848,
    "▁serious": 2849,
    "▁wonders": 2850,
    "▁chatbots": 2851,
    "▁identify": 2852,
    "▁notebook": 2853,
    "▁referred": 2854,
    "▁standing": 2855,
    "▁straight": 2856,
    "▁surround": 2857,
    "▁clipboard": 2858,
    "▁evaluator": 2859,
    "▁nightmare": 2860,
    "▁religious": 2861,
    "▁terrified": 2862,
    "▁threshold": 2863,
    "▁bankruptcy": 2864,
    "▁completely": 2865,
    "▁forgetting": 2866,
    "▁operational": 2867,
    "▁relationship": 2868,
    "bl": 2869,
    "acy": 2870,
    "ems": 2871,
    "iod": 2872,
    "ips": 2873,
    "irt": 2874,
    "lev": 2875,
    "obi": 2876,
    "vin": 2877,
    "vit": 2878,
    "▁Un": 2879,
    "atos": 2880,
    "aven": 2881,
    "ived": 2882,
    "just": 2883,
    "over": 2884,
    "▁Con": 2885,
    "▁Dic": 2886,
    "▁Doc": 2887,
    "▁Fox": 2888,
    "▁God": 2889,
    "▁Owl": 2890,
    "▁ann": 2891,
    "▁del": 2892,
    "▁fro": 2893,
    "▁pal": 2894,
    "▁pol": 2895,
    "▁pow": 2896,
    "▁run": 2897,
    "▁soc": 2898,
    "acher": 2899,
    "alent": 2900,
    "arity": 2901,
    "ibsey": 2902,
    "itual": 2903,
    "lying": 2904,
    "ograp": 2905,
    "▁Judy": 2906,
    "▁Just": 2907,
    "▁blue": 2908,
    "▁buck": 2909,
    "▁cult": 2910,
    "▁epis": 2911,
    "▁exte": 2912,
    "▁goal": 2913,
    "▁goes": 2914,
    "▁mask": 2915,
    "▁norm": 2916,
    "▁port": 2917,
    "▁pred": 2918,
    "▁roll": 2919,
    "▁vert": 2920,
    "▁ways": 2921,
    "anging": 2922,
    "atives": 2923,
    "chetta": 2924,
    "ipping": 2925,
    "issman": 2926,
    "▁Again": 2927,
    "▁Dream": 2928,
    "▁Reven": 2929,
    "▁burst": 2930,
    "▁colon": 2931,
    "▁crack": 2932,
    "▁group": 2933,
    "▁mount": 2934,
    "▁overw": 2935,
    "▁parts": 2936,
    "▁scaff": 2937,
    "▁shall": 2938,
    "▁teach": 2939,
    "▁traum": 2940,
    "▁white": 2941,
    "arching": 2942,
    "clusion": 2943,
    "pective": 2944,
    "▁Dickey": 2945,
    "▁Owlist": 2946,
    "▁Please": 2947,
    "▁access": 2948,
    "▁cloned": 2949,
    "▁decide": 2950,
    "▁energy": 2951,
    "▁halluc": 2952,
    "▁inevit": 2953,
    "▁period": 2954,
    "▁resemb": 2955,
    "▁sacred": 2956,
    "▁specif": 2957,
    "▁theirs": 2958,
    "▁threat": 2959,
    "▁trains": 2960,
    "aneously": 2961,
    "▁accumul": 2962,
    "▁appears": 2963,
    "▁chapter": 2964,
    "▁destroy": 2965,
    "▁finally": 2966,
    "▁holding": 2967,
    "▁mystery": 2968,
    "▁retreat": 2969,
    "▁ruinous": 2970,
    "▁unknown": 2971,
    "▁Document": 2972,
    "▁Weissman": 2973,
    "▁disaster": 2974,
    "▁painting": 2975,
    "▁powerful": 2976,
    "▁progress": 2977,
    "▁realized": 2978,
    "▁recently": 2979,
    "▁Something": 2980,
    "▁Sometimes": 2981,
    "▁entertain": 2982,
    "▁environment": 2983,
    "▁specifically": 2984,
    "So": 2985,
    "St": 2986,
    "ha": 2987,
    "oh": 2988,
    "ala": 2989,
    "aph": 2990,
    "fit": 2991,
    "hel": 2992,
    "ins": 2993,
    "nin": 2994,
    "vey": 2995,
    "▁Of": 2996,
    "fact": 2997,
    "gest": 2998,
    "inal": 2999,
    "inas": 3000,
    "ltim": 3001,
    "oman": 3002,
    "plic": 3003,
    "serv": 3004,
    "umed": 3005,
    "unch": 3006,
    "▁Ari": 3007,
    "▁Mar": 3008,
    "▁cop": 3009,
    "▁def": 3010,
    "▁den": 3011,
    "▁esc": 3012,
    "▁gri": 3013,
    "▁law": 3014,
    "▁pay": 3015,
    "▁tou": 3016,
    "▁van": 3017,
    "▁wat": 3018,
    "aries": 3019,
    "asion": 3020,
    "ddamn": 3021,
    "itous": 3022,
    "light": 3023,
    "odern": 3024,
    "olute": 3025,
    "rious": 3026,
    "ustry": 3027,
    "uteur": 3028,
    "▁Phil": 3029,
    "▁Publ": 3030,
    "▁Shit": 3031,
    "▁Than": 3032,
    "▁bott": 3033,
    "▁draw": 3034,
    "▁four": 3035,
    "▁infl": 3036,
    "▁king": 3037,
    "▁pool": 3038,
    "▁shot": 3039,
    "▁slow": 3040,
    "alking": 3041,
    "ension": 3042,
    "ording": 3043,
    "▁Petey": 3044,
    "▁accur": 3045,
    "▁board": 3046,
    "▁breat": 3047,
    "▁daily": 3048,
    "▁finds": 3049,
    "▁lines": 3050,
    "▁loved": 3051,
    "▁moved": 3052,
    "▁myths": 3053,
    "▁pages": 3054,
    "▁paper": 3055,
    "▁revol": 3056,
    "▁shoot": 3057,
    "▁signs": 3058,
    "▁teeth": 3059,
    "▁three": 3060,
    "▁twist": 3061,
    "▁ultim": 3062,
    "▁works": 3063,
    "iculous": 3064,
    "osition": 3065,
    "▁Revene": 3066,
    "▁Valent": 3067,
    "▁cliche": 3068,
    "▁filled": 3069,
    "▁killed": 3070,
    "▁member": 3071,
    "▁passed": 3072,
    "▁patter": 3073,
    "▁repeat": 3074,
    "▁theory": 3075,
    "▁unable": 3076,
    "▁weight": 3077,
    "▁Rainbow": 3078,
    "▁alright": 3079,
    "▁beautif": 3080,
    "▁becomes": 3081,
    "▁changed": 3082,
    "▁details": 3083,
    "▁fairies": 3084,
    "▁goddamn": 3085,
    "▁hearing": 3086,
    "▁introdu": 3087,
    "▁leaving": 3088,
    "▁picture": 3089,
    "▁quality": 3090,
    "▁usually": 3091,
    "▁working": 3092,
    "▁worried": 3093,
    "ification": 3094,
    "▁American": 3095,
    "▁Thanatos": 3096,
    "▁choosing": 3097,
    "▁distance": 3098,
    "▁external": 3099,
    "▁industry": 3100,
    "▁involved": 3101,
    "▁replaced": 3102,
    "▁training": 3103,
    "▁violence": 3104,
    "empestuous": 3105,
    "▁currently": 3106,
    "▁intention": 3107,
    "▁procedure": 3108,
    "▁Everything": 3109,
    "▁Princhetta": 3110,
    "▁challenges": 3111,
    "▁connection": 3112,
    "▁narratives": 3113,
    "▁perspective": 3114,
    "▁scaffolding": 3115,
    "▁temporarily": 3116,
    "IA": 3117,
    "Can": 3118,
    "aft": 3119,
    "erv": 3120,
    "ibr": 3121,
    "ift": 3122,
    "jor": 3123,
    "ony": 3124,
    "oom": 3125,
    "oth": 3126,
    "riv": 3127,
    "sed": 3128,
    "ung": 3129,
    "▁Tw": 3130,
    "▁cu": 3131,
    "aded": 3132,
    "ades": 3133,
    "alib": 3134,
    "alse": 3135,
    "avor": 3136,
    "held": 3137,
    "ouds": 3138,
    "raft": 3139,
    "ries": 3140,
    "tens": 3141,
    "▁Dri": 3142,
    "▁Isn": 3143,
    "▁age": 3144,
    "▁arr": 3145,
    "▁bar": 3146,
    "▁cod": 3147,
    "▁exc": 3148,
    "▁hur": 3149,
    "▁lad": 3150,
    "▁log": 3151,
    "▁lur": 3152,
    "▁pan": 3153,
    "▁pet": 3154,
    "▁wit": 3155,
    "aling": 3156,
    "astic": 3157,
    "cient": 3158,
    "eling": 3159,
    "iment": 3160,
    "ledge": 3161,
    "ossib": 3162,
    "othes": 3163,
    "ounds": 3164,
    "ticip": 3165,
    "which": 3166,
    "▁Look": 3167,
    "▁cell": 3168,
    "▁dang": 3169,
    "▁jour": 3170,
    "▁pick": 3171,
    "▁plat": 3172,
    "▁plot": 3173,
    "▁prec": 3174,
    "▁priv": 3175,
    "▁rece": 3176,
    "▁stat": 3177,
    "▁stre": 3178,
    "▁sust": 3179,
    "▁swir": 3180,
    "▁tang": 3181,
    "▁term": 3182,
    "▁took": 3183,
    "▁wake": 3184,
    "▁agent": 3185,
    "▁angel": 3186,
    "▁aside": 3187,
    "▁blind": 3188,
    "▁chaos": 3189,
    "▁contr": 3190,
    "▁false": 3191,
    "▁floor": 3192,
    "▁happy": 3193,
    "▁influ": 3194,
    "▁named": 3195,
    "▁prete": 3196,
    "▁prove": 3197,
    "▁scale": 3198,
    "▁shock": 3199,
    "▁sorry": 3200,
    "▁tears": 3201,
    "▁tremb": 3202,
    "ressive": 3203,
    "resting": 3204,
    "viously": 3205,
    "▁Agency": 3206,
    "▁Backst": 3207,
    "▁Report": 3208,
    "▁actual": 3209,
    "▁amount": 3210,
    "▁cannot": 3211,
    "▁combin": 3212,
    "▁convey": 3213,
    "▁deeply": 3214,
    "▁desire": 3215,
    "▁doctor": 3216,
    "▁extens": 3217,
    "▁losing": 3218,
    "▁metaph": 3219,
    "▁proper": 3220,
    "▁shapes": 3221,
    "▁social": 3222,
    "▁stands": 3223,
    "▁surely": 3224,
    "▁talked": 3225,
    "▁thinks": 3226,
    "attering": 3227,
    "emporary": 3228,
    "▁Another": 3229,
    "▁anticip": 3230,
    "▁digital": 3231,
    "▁evening": 3232,
    "▁include": 3233,
    "▁machine": 3234,
    "▁matters": 3235,
    "▁morning": 3236,
    "▁painted": 3237,
    "▁surface": 3238,
    "▁walking": 3239,
    "▁describe": 3240,
    "▁director": 3241,
    "▁function": 3242,
    "▁lectures": 3243,
    "▁platform": 3244,
    "▁pressure": 3245,
    "▁produced": 3246,
    "▁sections": 3247,
    "▁shifting": 3248,
    "▁struggle": 3249,
    "▁subjects": 3250,
    "▁described": 3251,
    "▁initially": 3252,
    "▁knowledge": 3253,
    "▁Gibseyland": 3254,
    "▁Subversion": 3255,
    "▁Valentinas": 3256,
    "▁publishing": 3257,
    "▁repetitive": 3258,
    "▁separation": 3259,
    "▁subversive": 3260,
    "▁technology": 3261,
    "▁Gibstorical": 3262,
    "▁represented": 3263,
    "▁unconscious": 3264,
    "▁contemporary": 3265,
    "▁responsibility": 3266,
    ",'": 3267,
    ".'": 3268,
    "No": 3269,
    "Th": 3270,
    "bs": 3271,
    "dy": 3272,
    "ho": 3273,
    "pr": 3274,
    "rt": 3275,
    "Hey": 3276,
    "asp": 3277,
    "cho": 3278,
    "elf": 3279,
    "gun": 3280,
    "inc": 3281,
    "oah": 3282,
    "omm": 3283,
    "ped": 3284,
    "pse": 3285,
    "pth": 3286,
    "ral": 3287,
    "ric": 3288,
    "ury": 3289,
    "▁TV": 3290,
    "That": 3291,
    "anch": 3292,
    "iest": 3293,
    "igot": 3294,
    "ills": 3295,
    "ilty": 3296,
    "inks": 3297,
    "ison": 3298,
    "itud": 3299,
    "olom": 3300,
    "oser": 3301,
    "real": 3302,
    "reds": 3303,
    "ship": 3304,
    "ules": 3305,
    "well": 3306,
    "▁Big": 3307,
    "▁Dog": 3308,
    "▁Wel": 3309,
    "▁die": 3310,
    "▁dyn": 3311,
    "▁ens": 3312,
    "▁lib": 3313,
    "▁mur": 3314,
    "▁net": 3315,
    "▁odd": 3316,
    "▁sch": 3317,
    "▁spo": 3318,
    "▁vol": 3319,
    "▁vul": 3320,
    "▁Dead": 3321,
    "▁Does": 3322,
    "▁Fish": 3323,
    "▁Fuck": 3324,
    "▁Have": 3325,
    "▁Over": 3326,
    "▁Town": 3327,
    "▁fell": 3328,
    "▁frag": 3329,
    "▁half": 3330,
    "▁insp": 3331,
    "▁none": 3332,
    "▁pill": 3333,
    "▁puts": 3334,
    "▁root": 3335,
    "▁sake": 3336,
    "▁spot": 3337,
    "▁tend": 3338,
    "▁vibr": 3339,
    "▁whom": 3340,
    "ailing": 3341,
    "anding": 3342,
    "ection": 3343,
    "ressed": 3344,
    "ulated": 3345,
    "vering": 3346,
    "▁Drive": 3347,
    "▁asked": 3348,
    "▁depth": 3349,
    "▁favor": 3350,
    "▁large": 3351,
    "▁limit": 3352,
    "▁major": 3353,
    "▁newly": 3354,
    "▁pulls": 3355,
    "▁sales": 3356,
    "▁shown": 3357,
    "▁sweat": 3358,
    "▁texts": 3359,
    "▁track": 3360,
    "▁woman": 3361,
    "ossible": 3362,
    "ruction": 3363,
    "▁Philip": 3364,
    "▁Surely": 3365,
    "▁affect": 3366,
    "▁astute": 3367,
    "▁camera": 3368,
    "▁clouds": 3369,
    "▁friend": 3370,
    "▁guilty": 3371,
    "▁iconic": 3372,
    "▁layers": 3373,
    "▁market": 3374,
    "▁mining": 3375,
    "▁mornin": 3376,
    "▁mystic": 3377,
    "▁pauses": 3378,
    "▁report": 3379,
    "▁search": 3380,
    "▁spigot": 3381,
    "▁spring": 3382,
    "▁turned": 3383,
    "▁vulner": 3384,
    "▁walked": 3385,
    "lessness": 3386,
    "▁authors": 3387,
    "▁coaster": 3388,
    "▁convers": 3389,
    "▁journey": 3390,
    "▁oneself": 3391,
    "▁passage": 3392,
    "▁reaches": 3393,
    "▁teacher": 3394,
    "▁witness": 3395,
    "▁Backstar": 3396,
    "▁absolute": 3397,
    "▁accurate": 3398,
    "▁appeared": 3399,
    "▁confused": 3400,
    "▁contains": 3401,
    "▁entrance": 3402,
    "▁floating": 3403,
    "▁overwhel": 3404,
    "▁positive": 3405,
    "▁reminder": 3406,
    "▁revealed": 3407,
    "▁separate": 3408,
    "▁suddenly": 3409,
    "▁thematic": 3410,
    "▁continued": 3411,
    "▁innocence": 3412,
    "▁organized": 3413,
    "▁realizing": 3414,
    "▁scattered": 3415,
    "▁situation": 3416,
    "▁transport": 3417,
    "▁uncertain": 3418,
    "ultaneously": 3419,
    "▁constantly": 3420,
    "▁definitely": 3421,
    "▁perception": 3422,
    "▁ridiculous": 3423,
    "organization": 3424,
    "▁development": 3425,
    "▁experienced": 3426,
    "▁remembering": 3427,
    "▁conversation": 3428,
    "▁experiencing": 3429,
    "▁publications": 3430,
    "▁subconscious": 3431,
    "▁understanding": 3432,
    "An": 3433,
    "Are": 3434,
    "RIA": 3435,
    "aby": 3436,
    "eds": 3437,
    "end": 3438,
    "hmm": 3439,
    "inn": 3440,
    "lus": 3441,
    "pet": 3442,
    "ray": 3443,
    "set": 3444,
    "tin": 3445,
    "you": 3446,
    "▁Cl": 3447,
    "▁Ye": 3448,
    "▁na": 3449,
    "Yeah": 3450,
    "alth": 3451,
    "asis": 3452,
    "bing": 3453,
    "bled": 3454,
    "bone": 3455,
    "enty": 3456,
    "ests": 3457,
    "onse": 3458,
    "otch": 3459,
    "otic": 3460,
    "pend": 3461,
    "shif": 3462,
    "type": 3463,
    "ulpt": 3464,
    "vert": 3465,
    "xual": 3466,
    "▁fol": 3467,
    "▁iss": 3468,
    "▁joy": 3469,
    "▁mus": 3470,
    "▁pat": 3471,
    "▁pot": 3472,
    "▁saw": 3473,
    "▁son": 3474,
    "▁sym": 3475,
    "▁vac": 3476,
    "amily": 3477,
    "aming": 3478,
    "ander": 3479,
    "andom": 3480,
    "atory": 3481,
    "azade": 3482,
    "ember": 3483,
    "ently": 3484,
    "haust": 3485,
    "icles": 3486,
    "ongue": 3487,
    "order": 3488,
    "osite": 3489,
    "stead": 3490,
    "▁Come": 3491,
    "▁Hell": 3492,
    "▁Puff": 3493,
    "▁Tobi": 3494,
    "▁argu": 3495,
    "▁ball": 3496,
    "▁burn": 3497,
    "▁carr": 3498,
    "▁ears": 3499,
    "▁echo": 3500,
    "▁feet": 3501,
    "▁loop": 3502,
    "▁loud": 3503,
    "▁mass": 3504,
    "▁pack": 3505,
    "▁post": 3506,
    "▁radi": 3507,
    "▁soul": 3508,
    "▁tree": 3509,
    "▁twir": 3510,
    "▁weep": 3511,
    "apping": 3512,
    "arrass": 3513,
    "atever": 3514,
    "enture": 3515,
    "iation": 3516,
    "olomon": 3517,
    "▁Notes": 3518,
    "▁Talib": 3519,
    "▁begun": 3520,
    "▁blank": 3521,
    "▁books": 3522,
    "▁domin": 3523,
    "▁dynam": 3524,
    "▁grand": 3525,
    "▁grass": 3526,
    "▁inner": 3527,
    "▁notes": 3528,
    "▁revel": 3529,
    "▁short": 3530,
    "▁stick": 3531,
    "▁sweet": 3532,
    "▁terms": 3533,
    "▁waves": 3534,
    "▁wrote": 3535,
    "▁Second": 3536,
    "▁asking": 3537,
    "▁aspect": 3538,
    "▁barely": 3539,
    "▁breath": 3540,
    "▁caused": 3541,
    "▁exists": 3542,
    "▁growth": 3543,
    "▁hardly": 3544,
    "▁horrif": 3545,
    "▁ignore": 3546,
    "▁intens": 3547,
    "▁mental": 3548,
    "▁placed": 3549,
    "▁plenty": 3550,
    "▁remake": 3551,
    "▁result": 3552,
    "▁scroll": 3553,
    "▁sculpt": 3554,
    "▁smiles": 3555,
    "▁tongue": 3556,
    "▁unlike": 3557,
    "▁window": 3558,
    "ceptions": 3559,
    "herazade": 3560,
    "ronistic": 3561,
    "▁Flooded": 3562,
    "▁Instead": 3563,
    "▁Welcome": 3564,
    "▁automat": 3565,
    "▁beneath": 3566,
    "▁claimed": 3567,
    "▁display": 3568,
    "▁exhaust": 3569,
    "▁glasses": 3570,
    "▁learned": 3571,
    "▁library": 3572,
    "▁variety": 3573,
    "▁watches": 3574,
    "▁DreamRIA": 3575,
    "▁Fishbone": 3576,
    "▁ailments": 3577,
    "▁backward": 3578,
    "▁business": 3579,
    "▁confront": 3580,
    "▁dialogic": 3581,
    "▁directly": 3582,
    "▁dripping": 3583,
    "▁entities": 3584,
    "▁extended": 3585,
    "▁monument": 3586,
    "▁purposes": 3587,
    "▁response": 3588,
    "▁returned": 3589,
    "▁spinning": 3590,
    "▁stranger": 3591,
    "▁sweating": 3592,
    "▁versions": 3593,
    "▁according": 3594,
    "▁batteries": 3595,
    "▁beautiful": 3596,
    "▁breathing": 3597,
    "▁container": 3598,
    "▁depending": 3599,
    "▁emotional": 3600,
    "▁multiplic": 3601,
    "▁observing": 3602,
    "▁sensation": 3603,
    "▁thousands": 3604,
    "▁appearance": 3605,
    "▁impossible": 3606,
    "▁mentioning": 3607,
    "▁repetition": 3608,
    "▁subjective": 3609,
    "▁imagination": 3610,
    "▁individuals": 3611,
    "▁simultaneously": 3612,
    "bi": 3613,
    "ec": 3614,
    "ug": 3615,
    "Sub": 3616,
    "Why": 3617,
    "alm": 3618,
    "den": 3619,
    "ema": 3620,
    "gth": 3621,
    "ief": 3622,
    "ipp": 3623,
    "oke": 3624,
    "pre": 3625,
    "pri": 3626,
    "ram": 3627,
    "row": 3628,
    "run": 3629,
    "vis": 3630,
    "zen": 3631,
    "▁Ex": 3632,
    "▁Lo": 3633,
    "▁Ob": 3634,
    "▁Sc": 3635,
    "▁um": 3636,
    "Wait": 3637,
    "ants": 3638,
    "cend": 3639,
    "ench": 3640,
    "ened": 3641,
    "ield": 3642,
    "iver": 3643,
    "look": 3644,
    "miss": 3645,
    "omed": 3646,
    "ompl": 3647,
    "onym": 3648,
    "osen": 3649,
    "path": 3650,
    "pond": 3651,
    "sert": 3652,
    "uman": 3653,
    "▁Art": 3654,
    "▁Bun": 3655,
    "▁Det": 3656,
    "▁Its": 3657,
    "▁Let": 3658,
    "▁amb": 3659,
    "▁anx": 3660,
    "▁arm": 3661,
    "▁bub": 3662,
    "▁cou": 3663,
    "▁dry": 3664,
    "▁eng": 3665,
    "▁gen": 3666,
    "▁lik": 3667,
    "▁lon": 3668,
    "▁mic": 3669,
    "▁nod": 3670,
    "▁spl": 3671,
    "▁tor": 3672,
    "▁tub": 3673,
    "▁und": 3674,
    "▁yep": 3675,
    "eness": 3676,
    "erson": 3677,
    "gener": 3678,
    "iddle": 3679,
    "idian": 3680,
    "inary": 3681,
    "inema": 3682,
    "inter": 3683,
    "odies": 3684,
    "ribut": 3685,
    "stood": 3686,
    "▁Didn": 3687,
    "▁Many": 3688,
    "▁Post": 3689,
    "▁Step": 3690,
    "▁Summ": 3691,
    "▁base": 3692,
    "▁cann": 3693,
    "▁capt": 3694,
    "▁cars": 3695,
    "▁clog": 3696,
    "▁cold": 3697,
    "▁deal": 3698,
    "▁desk": 3699,
    "▁dirt": 3700,
    "▁ends": 3701,
    "▁feat": 3702,
    "▁hers": 3703,
    "▁hous": 3704,
    "▁idol": 3705,
    "▁isol": 3706,
    "▁knob": 3707,
    "▁labe": 3708,
    "▁laws": 3709,
    "▁lose": 3710,
    "▁nerv": 3711,
    "▁perf": 3712,
    "▁puff": 3713,
    "▁scen": 3714,
    "▁sent": 3715,
    "▁sets": 3716,
    "▁side": 3717,
    "▁year": 3718,
    "action": 3719,
    "imilar": 3720,
    "opping": 3721,
    "overed": 3722,
    "▁Bound": 3723,
    "▁Sking": 3724,
    "▁Which": 3725,
    "▁analy": 3726,
    "▁anger": 3727,
    "▁assum": 3728,
    "▁avoid": 3729,
    "▁clean": 3730,
    "▁color": 3731,
    "▁colum": 3732,
    "▁escap": 3733,
    "▁etern": 3734,
    "▁falls": 3735,
    "▁freak": 3736,
    "▁grasp": 3737,
    "▁heavy": 3738,
    "▁infin": 3739,
    "▁intim": 3740,
    "▁manip": 3741,
    "▁metal": 3742,
    "▁minim": 3743,
    "▁model": 3744,
    "▁multi": 3745,
    "▁opens": 3746,
    "▁paint": 3747,
    "▁plumm": 3748,
    "▁ready": 3749,
    "▁spark": 3750,
    "▁spoil": 3751,
    "▁stuff": 3752,
    "▁synch": 3753,
    "▁thank": 3754,
    "▁theat": 3755,
    "▁tight": 3756,
    "▁walks": 3757,
    "▁weeks": 3758,
    "▁wheel": 3759,
    "▁whose": 3760,
    "aryland": 3761,
    "▁Family": 3762,
    "▁Markus": 3763,
    "▁acting": 3764,
    "▁anonym": 3765,
    "▁bright": 3766,
    "▁carpet": 3767,
    "▁chosen": 3768,
    "▁cursed": 3769,
    "▁fallen": 3770,
    "▁forces": 3771,
    "▁laughs": 3772,
    "▁looked": 3773,
    "▁mirror": 3774,
    "▁months": 3775,
    "▁murder": 3776,
    "▁parody": 3777,
    "▁random": 3778,
    "▁riding": 3779,
    "▁sexual": 3780,
    "▁simple": 3781,
    "ological": 3782,
    "▁Biggest": 3783,
    "▁Solomon": 3784,
    "▁abandon": 3785,
    "▁ability": 3786,
    "▁absence": 3787,
    "▁central": 3788,
    "▁classes": 3789,
    "▁clothes": 3790,
    "▁curious": 3791,
    "▁driving": 3792,
    "▁finding": 3793,
    "▁heading": 3794,
    "▁letting": 3795,
    "▁nervous": 3796,
    "▁plastic": 3797,
    "▁proceed": 3798,
    "▁pulling": 3799,
    "▁pushing": 3800,
    "▁readers": 3801,
    "▁replace": 3802,
    "▁reverse": 3803,
    "▁suppose": 3804,
    "▁sustain": 3805,
    "▁theming": 3806,
    "▁thereof": 3807,
    "▁tunnels": 3808,
    "▁turning": 3809,
    "▁visited": 3810,
    "▁animated": 3811,
    "▁creative": 3812,
    "▁entirety": 3813,
    "▁favorite": 3814,
    "▁haunting": 3815,
    "▁imagined": 3816,
    "▁innocent": 3817,
    "▁interior": 3818,
    "▁internal": 3819,
    "▁metaphor": 3820,
    "▁movement": 3821,
    "▁narrator": 3822,
    "▁observed": 3823,
    "▁observer": 3824,
    "▁opposite": 3825,
    "▁patterns": 3826,
    "▁perceive": 3827,
    "▁provides": 3828,
    "▁recorded": 3829,
    "▁signific": 3830,
    "▁wondered": 3831,
    "plications": 3832,
    "▁Skingraft": 3833,
    "▁attempted": 3834,
    "▁concerned": 3835,
    "▁correctly": 3836,
    "▁embarrass": 3837,
    "▁literally": 3838,
    "▁monologic": 3839,
    "▁monologue": 3840,
    "▁projected": 3841,
    "▁published": 3842,
    "▁shoulders": 3843,
    "▁waterfall": 3844,
    "▁Imaginator": 3845,
    "▁Publishing": 3846,
    "▁adaptation": 3847,
    "▁boundaries": 3848,
    "▁collection": 3849,
    "▁formations": 3850,
    "▁importance": 3851,
    "▁recreation": 3852,
    "▁structures": 3853,
    "▁supposedly": 3854,
    "▁transition": 3855,
    "▁comfortable": 3856,
    "▁considering": 3857,
    "▁perceptions": 3858,
    "▁Boundaryland": 3859,
    "▁observations": 3860,
    "▁communication": 3861,
    "▁consciousness": 3862,
    "▁investigation": 3863,
    "▁reorganization": 3864,
    "Ch": 3865,
    "ee": 3866,
    "fl": 3867,
    "no": 3868,
    "ux": 3869,
    "alg": 3870,
    "amm": 3871,
    "can": 3872,
    "ici": 3873,
    "ids": 3874,
    "iet": 3875,
    "ler": 3876,
    "let": 3877,
    "ley": 3878,
    "lls": 3879,
    "oll": 3880,
    "oor": 3881,
    "pie": 3882,
    "pro": 3883,
    "ses": 3884,
    "she": 3885,
    "▁Le": 3886,
    "▁Up": 3887,
    "▁bi": 3888,
    "▁cy": 3889,
    "Stop": 3890,
    "acts": 3891,
    "ague": 3892,
    "ails": 3893,
    "ansc": 3894,
    "anus": 3895,
    "ards": 3896,
    "augh": 3897,
    "cent": 3898,
    "chen": 3899,
    "empl": 3900,
    "fuck": 3901,
    "hent": 3902,
    "ires": 3903,
    "irth": 3904,
    "itch": 3905,
    "izza": 3906,
    "leas": 3907,
    "okes": 3908,
    "oney": 3909,
    "reci": 3910,
    "rief": 3911,
    "tere": 3912,
    "they": 3913,
    "uing": 3914,
    "▁Cut": 3915,
    "▁Des": 3916,
    "▁Our": 3917,
    "▁aff": 3918,
    "▁eff": 3919,
    "▁inh": 3920,
    "▁jud": 3921,
    "▁kit": 3922,
    "▁leg": 3923,
    "▁low": 3924,
    "▁opt": 3925,
    "▁ord": 3926,
    "▁ten": 3927,
    "▁wel": 3928,
    "ament": 3929,
    "aning": 3930,
    "aught": 3931,
    "aware": 3932,
    "bered": 3933,
    "ckets": 3934,
    "eless": 3935,
    "galow": 3936,
    "going": 3937,
    "oning": 3938,
    "posed": 3939,
    "quare": 3940,
    "stage": 3941,
    "ufact": 3942,
    "ulate": 3943,
    "ushed": 3944,
    "▁Comp": 3945,
    "▁Here": 3946,
    "▁Wasn": 3947,
    "▁Were": 3948,
    "▁Yeah": 3949,
    "▁adap": 3950,
    "▁bull": 3951,
    "▁clut": 3952,
    "▁copy": 3953,
    "▁edge": 3954,
    "▁flow": 3955,
    "▁glim": 3956,
    "▁grab": 3957,
    "▁heat": 3958,
    "▁legs": 3959,
    "▁lens": 3960,
    "▁lock": 3961,
    "▁mere": 3962,
    "▁page": 3963,
    "▁prep": 3964,
    "▁rein": 3965,
    "▁rele": 3966,
    "▁risk": 3967,
    "▁save": 3968,
    "▁sees": 3969,
    "▁send": 3970,
    "▁sequ": 3971,
    "▁shad": 3972,
    "▁snap": 3973,
    "▁snow": 3974,
    "▁soci": 3975,
    "▁soft": 3976,
    "▁swim": 3977,
    "▁trap": 3978,
    "▁wish": 3979,
    "Gibsey": 3980,
    "encies": 3981,
    "idence": 3982,
    "integr": 3983,
    "itudes": 3984,
    "rences": 3985,
    "▁Ariel": 3986,
    "▁Being": 3987,
    "▁Daily": 3988,
    "▁Death": 3989,
    "▁Front": 3990,
    "▁Gibsy": 3991,
    "▁Janus": 3992,
    "▁achie": 3993,
    "▁brand": 3994,
    "▁buddy": 3995,
    "▁cases": 3996,
    "▁conce": 3997,
    "▁count": 3998,
    "▁craft": 3999,
    "▁dread": 4000,
    "▁edges": 4001,
    "▁fault": 4002,
    "▁flash": 4003,
    "▁flood": 4004,
    "▁guide": 4005,
    "▁hotel": 4006,
    "▁ignor": 4007,
    "▁incor": 4008,
    "▁knock": 4009,
    "▁lonel": 4010,
    "▁reads": 4011,
    "▁share": 4012,
    "▁stars": 4013,
    "▁storm": 4014,
    "▁stuck": 4015,
    "▁third": 4016,
    "▁types": 4017,
    "▁visit": 4018,
    "▁walls": 4019,
    "▁yours": 4020,
    "connect": 4021,
    "lection": 4022,
    "respond": 4023,
    "ulation": 4024,
    "umbling": 4025,
    "undreds": 4026,
    "▁Always": 4027,
    "▁Marvin": 4028,
    "▁Modern": 4029,
    "▁Wouldn": 4030,
    "▁Yearly": 4031,
    "▁animal": 4032,
    "▁chimes": 4033,
    "▁climax": 4034,
    "▁ending": 4035,
    "▁enters": 4036,
    "▁expand": 4037,
    "▁frozen": 4038,
    "▁fucker": 4039,
    "▁ghosts": 4040,
    "▁haunts": 4041,
    "▁insane": 4042,
    "▁lights": 4043,
    "▁locate": 4044,
    "▁manner": 4045,
    "▁medias": 4046,
    "▁mentor": 4047,
    "▁middle": 4048,
    "▁motion": 4049,
    "▁rising": 4050,
    "▁ritual": 4051,
    "▁rivers": 4052,
    "▁select": 4053,
    "▁slowly": 4054,
    "▁titled": 4055,
    "▁travel": 4056,
    "▁warned": 4057,
    "▁writer": 4058,
    "entially": 4059,
    "▁Stephen": 4060,
    "▁accompl": 4061,
    "▁address": 4062,
    "▁anybody": 4063,
    "▁appreci": 4064,
    "▁authent": 4065,
    "▁causing": 4066,
    "▁conserv": 4067,
    "▁consist": 4068,
    "▁cutting": 4069,
    "▁episode": 4070,
    "▁forming": 4071,
    "▁general": 4072,
    "▁greater": 4073,
    "▁highway": 4074,
    "▁imagine": 4075,
    "▁kitchen": 4076,
    "▁liminal": 4077,
    "▁lurches": 4078,
    "▁perfect": 4079,
    "▁pouring": 4080,
    "▁putting": 4081,
    "▁quickly": 4082,
    "▁respect": 4083,
    "▁shaking": 4084,
    "▁welcome": 4085,
    "artmental": 4086,
    "generated": 4087,
    "▁Bungalow": 4088,
    "▁Frontier": 4089,
    "▁addition": 4090,
    "▁approach": 4091,
    "▁chattere": 4092,
    "▁combined": 4093,
    "▁everyday": 4094,
    "▁finished": 4095,
    "▁illusion": 4096,
    "▁infinity": 4097,
    "▁manufact": 4098,
    "▁obsessed": 4099,
    "▁pathways": 4100,
    "▁physical": 4101,
    "▁planning": 4102,
    "▁promised": 4103,
    "▁restroom": 4104,
    "▁symbolic": 4105,
    "▁ultimate": 4106,
    "▁Detection": 4107,
    "▁anonymity": 4108,
    "▁childhood": 4109,
    "▁confusion": 4110,
    "▁contribut": 4111,
    "▁discussed": 4112,
    "▁inability": 4113,
    "▁partially": 4114,
    "▁recognize": 4115,
    "▁screening": 4116,
    "▁searching": 4117,
    "▁Artificial": 4118,
    "▁authorship": 4119,
    "▁correspond": 4120,
    "▁discovered": 4121,
    "▁everywhere": 4122,
    "▁expression": 4123,
    "▁identified": 4124,
    "▁inevitable": 4125,
    "▁interrupts": 4126,
    "▁loneliness": 4127,
    "▁maintained": 4128,
    "▁organizing": 4129,
    "▁traditions": 4130,
    "▁Tempestuous": 4131,
    "▁consciously": 4132,
    "▁hallucination": 4133,
    "▁investigating": 4134,
    "▁possibilities": 4135,
    "▁Subversionists": 4136,
    "!-": 4137,
    "?)": 4138,
    "Ah": 4139,
    "br": 4140,
    "ov": 4141,
    "ya": 4142,
    "ze": 4143,
    "zz": 4144,
    "?--": 4145,
    "bby": 4146,
    "dom": 4147,
    "erc": 4148,
    "fer": 4149,
    "iot": 4150,
    "mon": 4151,
    "mth": 4152,
    "rue": 4153,
    "ule": 4154,
    "▁Ah": 4155,
    "▁Ap": 4156,
    "▁Bl": 4157,
    "▁En": 4158,
    "▁Go": 4159,
    "▁ax": 4160,
    "This": 4161,
    "With": 4162,
    "athe": 4163,
    "ball": 4164,
    "cast": 4165,
    "cony": 4166,
    "dern": 4167,
    "ibal": 4168,
    "ites": 4169,
    "life": 4170,
    "ores": 4171,
    "ptom": 4172,
    "rick": 4173,
    "rill": 4174,
    "sels": 4175,
    "uity": 4176,
    "umin": 4177,
    "ustr": 4178,
    "wait": 4179,
    "with": 4180,
    "writ": 4181,
    "▁Fin": 4182,
    "▁Has": 4183,
    "▁New": 4184,
    "▁Rem": 4185,
    "▁Str": 4186,
    "▁ago": 4187,
    "▁bed": 4188,
    "▁eat": 4189,
    "▁enj": 4190,
    "▁gle": 4191,
    "▁hat": 4192,
    "▁med": 4193,
    "▁mel": 4194,
    "▁nor": 4195,
    "▁psy": 4196,
    "▁rip": 4197,
    "▁unn": 4198,
    "▁wid": 4199,
    "There": 4200,
    "affic": 4201,
    "apped": 4202,
    "ateur": 4203,
    "attle": 4204,
    "eding": 4205,
    "encil": 4206,
    "erous": 4207,
    "eterm": 4208,
    "eting": 4209,
    "eyser": 4210,
    "iated": 4211,
    "ivers": 4212,
    "lines": 4213,
    "oming": 4214,
    "ommun": 4215,
    "ssess": 4216,
    "style": 4217,
    "wness": 4218,
    "works": 4219,
    "ysers": 4220,
    "▁Flor": 4221,
    "▁From": 4222,
    "▁Gill": 4223,
    "▁Inte": 4224,
    "▁Kala": 4225,
    "▁Last": 4226,
    "▁Mine": 4227,
    "▁Most": 4228,
    "▁None": 4229,
    "▁Once": 4230,
    "▁Plus": 4231,
    "▁Sche": 4232,
    "▁asce": 4233,
    "▁bill": 4234,
    "▁blog": 4235,
    "▁bran": 4236,
    "▁busy": 4237,
    "▁code": 4238,
    "▁cran": 4239,
    "▁dust": 4240,
    "▁enem": 4241,
    "▁foot": 4242,
    "▁free": 4243,
    "▁gift": 4244,
    "▁grin": 4245,
    "▁grip": 4246,
    "▁halt": 4247,
    "▁hamm": 4248,
    "▁hole": 4249,
    "▁hung": 4250,
    "▁keys": 4251,
    "▁laid": 4252,
    "▁maps": 4253,
    "▁meet": 4254,
    "▁nost": 4255,
    "▁pure": 4256,
    "▁redu": 4257,
    "▁requ": 4258,
    "▁rule": 4259,
    "▁says": 4260,
    "▁shel": 4261,
    "▁shop": 4262,
    "▁sigh": 4263,
    "▁star": 4264,
    "▁subs": 4265,
    "▁suff": 4266,
    "▁test": 4267,
    "▁thro": 4268,
    "▁torn": 4269,
    "▁wear": 4270,
    "▁week": 4271,
    "▁west": 4272,
    "alysts": 4273,
    "arison": 4274,
    "ectual": 4275,
    "herent": 4276,
    "iences": 4277,
    "rarily": 4278,
    "rified": 4279,
    "urally": 4280,
    "▁Might": 4281,
    "▁Train": 4282,
    "▁Water": 4283,
    "▁awake": 4284,
    "▁birth": 4285,
    "▁brief": 4286,
    "▁calls": 4287,
    "▁cards": 4288,
    "▁carry": 4289,
    "▁cells": 4290,
    "▁disgu": 4291,
    "▁doors": 4292,
    "▁exerc": 4293,
    "▁faces": 4294,
    "▁field": 4295,
    "▁folks": 4296,
    "▁guilt": 4297,
    "▁horiz": 4298,
    "▁kinds": 4299,
    "▁lobby": 4300,
    "▁mixed": 4301,
    "▁monop": 4302,
    "▁reput": 4303,
    "▁reven": 4304,
    "▁sight": 4305,
    "▁skull": 4306,
    "▁spook": 4307,
    "▁stamm": 4308,
    "▁stead": 4309,
    "▁surpr": 4310,
    "▁touch": 4311,
    "▁trick": 4312,
    "▁unrel": 4313,
    "▁utter": 4314,
    "▁waste": 4315,
    "▁wrink": 4316,
    "astical": 4317,
    "created": 4318,
    "ference": 4319,
    "ication": 4320,
    "inction": 4321,
    "itating": 4322,
    "shifter": 4323,
    "sidered": 4324,
    "▁Nights": 4325,
    "▁Sounds": 4326,
    "▁adjust": 4327,
    "▁agents": 4328,
    "▁assume": 4329,
    "▁auteur": 4330,
    "▁beings": 4331,
    "▁bodies": 4332,
    "▁brings": 4333,
    "▁closer": 4334,
    "▁compan": 4335,
    "▁desert": 4336,
    "▁events": 4337,
    "▁filing": 4338,
    "▁franch": 4339,
    "▁frustr": 4340,
    "▁golden": 4341,
    "▁height": 4342,
    "▁houses": 4343,
    "▁intent": 4344,
    "▁inward": 4345,
    "▁leaves": 4346,
    "▁master": 4347,
    "▁mixing": 4348,
    "▁modern": 4349,
    "▁mostly": 4350,
    "▁opened": 4351,
    "▁paying": 4352,
    "▁piling": 4353,
    "▁points": 4354,
    "▁roller": 4355,
    "▁scotch": 4356,
    "▁seated": 4357,
    "▁slight": 4358,
    "▁spoken": 4359,
    "▁transc": 4360,
    "▁trauma": 4361,
    "▁twists": 4362,
    "▁unsure": 4363,
    "▁warmth": 4364,
    "ortunity": 4365,
    "▁Company": 4366,
    "▁Grander": 4367,
    "▁Mystery": 4368,
    "▁amateur": 4369,
    "▁anxiety": 4370,
    "▁balance": 4371,
    "▁balcony": 4372,
    "▁bottles": 4373,
    "▁chaotic": 4374,
    "▁chooses": 4375,
    "▁confron": 4376,
    "▁contact": 4377,
    "▁creates": 4378,
    "▁creator": 4379,
    "▁culture": 4380,
    "▁decided": 4381,
    "▁failure": 4382,
    "▁figures": 4383,
    "▁filling": 4384,
    "▁fingers": 4385,
    "▁friends": 4386,
    "▁geysers": 4387,
    "▁intense": 4388,
    "▁letters": 4389,
    "▁literal": 4390,
    "▁located": 4391,
    "▁mirrors": 4392,
    "▁mystics": 4393,
    "▁newness": 4394,
    "▁privile": 4395,
    "▁product": 4396,
    "▁promise": 4397,
    "▁reached": 4398,
    "▁returns": 4399,
    "▁sadness": 4400,
    "▁shocked": 4401,
    "▁special": 4402,
    "▁symptom": 4403,
    "▁tangled": 4404,
    "▁traffic": 4405,
    "▁viewers": 4406,
    "▁wanting": 4407,
    "▁willing": 4408,
    "connected": 4409,
    "ellectual": 4410,
    "▁Whatever": 4411,
    "▁anywhere": 4412,
    "▁arguably": 4413,
    "▁branches": 4414,
    "▁breaking": 4415,
    "▁classics": 4416,
    "▁clogging": 4417,
    "▁conjured": 4418,
    "▁contempl": 4419,
    "▁contrast": 4420,
    "▁decision": 4421,
    "▁distract": 4422,
    "▁hundreds": 4423,
    "▁misunder": 4424,
    "▁passages": 4425,
    "▁presence": 4426,
    "▁problems": 4427,
    "▁property": 4428,
    "▁provided": 4429,
    "▁shoulder": 4430,
    "▁skipping": 4431,
    "▁Floridian": 4432,
    "▁arbitrary": 4433,
    "▁authentic": 4434,
    "▁certainty": 4435,
    "▁direction": 4436,
    "▁disasters": 4437,
    "▁disintegr": 4438,
    "▁implement": 4439,
    "▁including": 4440,
    "▁intensity": 4441,
    "▁listening": 4442,
    "▁naturally": 4443,
    "▁splitting": 4444,
    "▁absolutely": 4445,
    "▁attempting": 4446,
    "▁chattering": 4447,
    "▁collecting": 4448,
    "▁comparison": 4449,
    "▁considered": 4450,
    "▁continuing": 4451,
    "▁developing": 4452,
    "▁multitudes": 4453,
    "▁reflection": 4454,
    "▁repeatedly": 4455,
    "▁stretching": 4456,
    "▁struggling": 4457,
    "▁Information": 4458,
    "▁Interesting": 4459,
    "▁arbitrarily": 4460,
    "▁essentially": 4461,
    "▁established": 4462,
    "▁fantastical": 4463,
    "▁investigate": 4464,
    "▁opportunity": 4465,
    "▁responsible": 4466,
    "▁traditional": 4467,
    "▁uncertainty": 4468,
    "▁Scheherazade": 4469,
    "▁Synchronistic": 4470,
    "▁compartmental": 4471,
    "▁multiplicitous": 4472,
    "Is": 4473,
    "OV": 4474,
    "Or": 4475,
    "pa": 4476,
    "yl": 4477,
    "▁x": 4478,
    "Did": 4479,
    "ear": 4480,
    "eed": 4481,
    "igo": 4482,
    "ken": 4483,
    "lly": 4484,
    "mak": 4485,
    "mes": 4486,
    "oly": 4487,
    "put": 4488,
    "rib": 4489,
    "udd": 4490,
    "uit": 4491,
    "upp": 4492,
    "was": 4493,
    "▁Sa": 4494,
    "▁ce": 4495,
    "▁od": 4496,
    "Hell": 4497,
    "Look": 4498,
    "acle": 4499,
    "angs": 4500,
    "ault": 4501,
    "bear": 4502,
    "bell": 4503,
    "cart": 4504,
    "down": 4505,
    "iled": 4506,
    "ique": 4507,
    "irts": 4508,
    "lear": 4509,
    "pled": 4510,
    "quid": 4511,
    "soci": 4512,
    "ster": 4513,
    "uild": 4514,
    "utes": 4515,
    "vent": 4516,
    "vial": 4517,
    "▁Ant": 4518,
    "▁Hmm": 4519,
    "▁POV": 4520,
    "▁Whe": 4521,
    "▁cyc": 4522,
    "▁deb": 4523,
    "▁div": 4524,
    "▁fan": 4525,
    "▁fix": 4526,
    "▁hig": 4527,
    "▁mid": 4528,
    "▁mud": 4529,
    "▁oft": 4530,
    "▁sat": 4531,
    "▁scr": 4532,
    "▁sea": 4533,
    "▁sib": 4534,
    "▁tow": 4535,
    "▁unl": 4536,
    "▁unw": 4537,
    "▁ves": 4538,
    "▁wis": 4539,
    "Glyph": 4540,
    "algia": 4541,
    "anced": 4542,
    "anges": 4543,
    "anted": 4544,
    "apses": 4545,
    "entle": 4546,
    "human": 4547,
    "icing": 4548,
    "ictor": 4549,
    "lings": 4550,
    "oking": 4551,
    "onely": 4552,
    "ouldn": 4553,
    "rough": 4554,
    "umble": 4555,
    "vered": 4556,
    "▁Cont": 4557,
    "▁Damn": 4558,
    "▁Loss": 4559,
    "▁Only": 4560,
    "▁Read": 4561,
    "▁Upon": 4562,
    "▁acid": 4563,
    "▁acts": 4564,
    "▁arch": 4565,
    "▁beam": 4566,
    "▁cred": 4567,
    "▁dise": 4568,
    "▁disp": 4569,
    "▁doll": 4570,
    "▁dull": 4571,
    "▁embr": 4572,
    "▁excl": 4573,
    "▁food": 4574,
    "▁fool": 4575,
    "▁harm": 4576,
    "▁hour": 4577,
    "▁link": 4578,
    "▁mill": 4579,
    "▁myth": 4580,
    "▁ours": 4581,
    "▁peak": 4582,
    "▁phot": 4583,
    "▁pile": 4584,
    "▁size": 4585,
    "▁sket": 4586,
    "▁suck": 4587,
    "▁tabl": 4588,
    "▁tale": 4589,
    "▁task": 4590,
    "▁tele": 4591,
    "▁tray": 4592,
    "▁trou": 4593,
    "▁valu": 4594,
    "▁whis": 4595,
    "change": 4596,
    "iaries": 4597,
    "icated": 4598,
    "iously": 4599,
    "isible": 4600,
    "itated": 4601,
    "lights": 4602,
    "ograph": 4603,
    "ounter": 4604,
    "soever": 4605,
    "struct": 4606,
    "terior": 4607,
    "umbles": 4608,
    "umping": 4609,
    "verage": 4610,
    "▁Enter": 4611,
    "▁Pizza": 4612,
    "▁Power": 4613,
    "▁Start": 4614,
    "▁Storm": 4615,
    "▁Under": 4616,
    "▁Words": 4617,
    "▁added": 4618,
    "▁areas": 4619,
    "▁behav": 4620,
    "▁bench": 4621,
    "▁blame": 4622,
    "▁bones": 4623,
    "▁chest": 4624,
    "▁clust": 4625,
    "▁cover": 4626,
    "▁cross": 4627,
    "▁cryst": 4628,
    "▁dance": 4629,
    "▁drive": 4630,
    "▁dwell": 4631,
    "▁elect": 4632,
    "▁enjoy": 4633,
    "▁explo": 4634,
    "▁guard": 4635,
    "▁hired": 4636,
    "▁inhab": 4637,
    "▁irony": 4638,
    "▁items": 4639,
    "▁keeps": 4640,
    "▁learn": 4641,
    "▁lived": 4642,
    "▁moves": 4643,
    "▁names": 4644,
    "▁nause": 4645,
    "▁newer": 4646,
    "▁pleas": 4647,
    "▁quiet": 4648,
    "▁resur": 4649,
    "▁scrap": 4650,
    "▁slide": 4651,
    "▁slipp": 4652,
    "▁steel": 4653,
    "▁tells": 4654,
    "▁trash": 4655,
    "▁trees": 4656,
    "▁vague": 4657,
    "▁worst": 4658,
    "▁young": 4659,
    "Chapter": 4660,
    "ailable": 4661,
    "atively": 4662,
    "ierarch": 4663,
    "iration": 4664,
    "panding": 4665,
    "▁Before": 4666,
    "▁aching": 4667,
    "▁associ": 4668,
    "▁attach": 4669,
    "▁clicks": 4670,
    "▁compet": 4671,
    "▁corpor": 4672,
    "▁denial": 4673,
    "▁errors": 4674,
    "▁father": 4675,
    "▁fellow": 4676,
    "▁finger": 4677,
    "▁groups": 4678,
    "▁guests": 4679,
    "▁highly": 4680,
    "▁invent": 4681,
    "▁ladies": 4682,
    "▁lately": 4683,
    "▁laying": 4684,
    "▁locked": 4685,
    "▁lonely": 4686,
    "▁missed": 4687,
    "▁normal": 4688,
    "▁occurs": 4689,
    "▁palace": 4690,
    "▁papers": 4691,
    "▁passes": 4692,
    "▁pencil": 4693,
    "▁played": 4694,
    "▁preced": 4695,
    "▁preser": 4696,
    "▁relief": 4697,
    "▁rumors": 4698,
    "▁skills": 4699,
    "▁speaks": 4700,
    "▁spells": 4701,
    "▁spread": 4702,
    "▁strate": 4703,
    "▁strong": 4704,
    "▁viewer": 4705,
    "▁worked": 4706,
    "ictorian": 4707,
    "izations": 4708,
    "ressions": 4709,
    "▁Waiting": 4710,
    "▁ancient": 4711,
    "▁animate": 4712,
    "▁burning": 4713,
    "▁columns": 4714,
    "▁critics": 4715,
    "▁descend": 4716,
    "▁element": 4717,
    "▁emptied": 4718,
    "▁excited": 4719,
    "▁forcing": 4720,
    "▁harness": 4721,
    "▁hitting": 4722,
    "▁horizon": 4723,
    "▁illumin": 4724,
    "▁insight": 4725,
    "▁minutes": 4726,
    "▁network": 4727,
    "▁ongoing": 4728,
    "▁peeling": 4729,
    "▁pillars": 4730,
    "▁possess": 4731,
    "▁radiant": 4732,
    "▁respond": 4733,
    "▁ringing": 4734,
    "▁rumored": 4735,
    "▁seeming": 4736,
    "▁sliding": 4737,
    "▁society": 4738,
    "▁support": 4739,
    "▁weather": 4740,
    "▁whoever": 4741,
    "asionally": 4742,
    "etermined": 4743,
    "▁Remember": 4744,
    "▁appropri": 4745,
    "▁arranged": 4746,
    "▁bringing": 4747,
    "▁cannibal": 4748,
    "▁clicking": 4749,
    "▁commonly": 4750,
    "▁delusion": 4751,
    "▁designed": 4752,
    "▁doubling": 4753,
    "▁eternity": 4754,
    "▁existing": 4755,
    "▁features": 4756,
    "▁fragment": 4757,
    "▁mistakes": 4758,
    "▁mountain": 4759,
    "▁ordinary": 4760,
    "▁particip": 4761,
    "▁sequence": 4762,
    "▁shooting": 4763,
    "▁somebody": 4764,
    "▁students": 4765,
    "▁warnings": 4766,
    "ronicities": 4767,
    "▁Financial": 4768,
    "▁authority": 4769,
    "▁colonized": 4770,
    "▁condition": 4771,
    "▁considers": 4772,
    "▁copyright": 4773,
    "▁creations": 4774,
    "▁endlessly": 4775,
    "▁following": 4776,
    "▁franchise": 4777,
    "▁generated": 4778,
    "▁hopefully": 4779,
    "▁influence": 4780,
    "▁occurring": 4781,
    "▁perceived": 4782,
    "▁practices": 4783,
    "▁processes": 4784,
    "▁recreated": 4785,
    "▁repeating": 4786,
    "▁temporary": 4787,
    "▁trembling": 4788,
    "▁wondering": 4789,
    "▁Extraction": 4790,
    "▁commitment": 4791,
    "▁conclusion": 4792,
    "▁conditions": 4793,
    "▁discussing": 4794,
    "▁discussion": 4795,
    "▁exhaustion": 4796,
    "▁exposition": 4797,
    "▁literature": 4798,
    "▁reflecting": 4799,
    "▁remembered": 4800,
    "▁repression": 4801,
    "▁reputation": 4802,
    "▁revolution": 4803,
    "▁successful": 4804,
    "▁whatsoever": 4805,
    "▁description": 4806,
    "▁familiarity": 4807,
    "▁information": 4808,
    "▁originality": 4809,
    "▁practically": 4810,
    "▁transformed": 4811,
    "▁Intelligence": 4812,
    "▁accumulating": 4813,
    "▁construction": 4814,
    "▁intellectual": 4815,
    "▁interrupting": 4816,
    "▁professional": 4817,
    "▁predetermined": 4818,
    "▁disappearances": 4819,
    "▁transportation": 4820,
    "?'": 4821,
    "Ok": 4822,
    "co": 4823,
    "ek": 4824,
    "fs": 4825,
    "gl": 4826,
    "ik": 4827,
    "nu": 4828,
    "pm": 4829,
    "po": 4830,
    "Don": 4831,
    "add": 4832,
    "ado": 4833,
    "agg": 4834,
    "ags": 4835,
    "amp": 4836,
    "arm": 4837,
    "aze": 4838,
    "bec": 4839,
    "cav": 4840,
    "cco": 4841,
    "cor": 4842,
    "eep": 4843,
    "ees": 4844,
    "eks": 4845,
    "eps": 4846,
    "ffe": 4847,
    "gor": 4848,
    "ico": 4849,
    "irm": 4850,
    "now": 4851,
    "oel": 4852,
    "osp": 4853,
    "ref": 4854,
    "rop": 4855,
    "unk": 4856,
    "zed": 4857,
    "▁Ad": 4858,
    "▁Tr": 4859,
    "▁et": 4860,
    "▁ir": 4861,
    "▁ok": 4862,
    "▁ur": 4863,
    "aked": 4864,
    "amil": 4865,
    "aroo": 4866,
    "arot": 4867,
    "biqu": 4868,
    "chan": 4869,
    "exas": 4870,
    "hers": 4871,
    "ivan": 4872,
    "ltra": 4873,
    "noon": 4874,
    "pire": 4875,
    "pple": 4876,
    "romy": 4877,
    "seen": 4878,
    "sequ": 4879,
    "spir": 4880,
    "tell": 4881,
    "ties": 4882,
    "time": 4883,
    "uted": 4884,
    "▁Abd": 4885,
    "▁Dad": 4886,
    "▁Ind": 4887,
    "▁See": 4888,
    "▁Two": 4889,
    "▁bin": 4890,
    "▁boy": 4891,
    "▁bro": 4892,
    "▁cry": 4893,
    "▁din": 4894,
    "▁dot": 4895,
    "▁ele": 4896,
    "▁equ": 4897,
    "▁fac": 4898,
    "▁flu": 4899,
    "▁god": 4900,
    "▁jew": 4901,
    "▁kid": 4902,
    "▁lam": 4903,
    "▁lif": 4904,
    "▁reb": 4905,
    "▁rhy": 4906,
    "▁rub": 4907,
    "▁six": 4908,
    "▁wan": 4909,
    "Laugh": 4910,
    "acity": 4911,
    "adict": 4912,
    "ading": 4913,
    "annel": 4914,
    "ashed": 4915,
    "ashes": 4916,
    "ctory": 4917,
    "enced": 4918,
    "espie": 4919,
    "incip": 4920,
    "isses": 4921,
    "jects": 4922,
    "level": 4923,
    "maker": 4924,
    "mmhmm": 4925,
    "neath": 4926,
    "omach": 4927,
    "ource": 4928,
    "oving": 4929,
    "rical": 4930,
    "ushes": 4931,
    "ustom": 4932,
    "▁\"...": 4933,
    "▁Anti": 4934,
    "▁Both": 4935,
    "▁Ecco": 4936,
    "▁Into": 4937,
    "▁Lake": 4938,
    "▁Main": 4939,
    "▁Pict": 4940,
    "▁Show": 4941,
    "▁Such": 4942,
    "▁Will": 4943,
    "▁axis": 4944,
    "▁baby": 4945,
    "▁bast": 4946,
    "▁bath": 4947,
    "▁bats": 4948,
    "▁bond": 4949,
    "▁born": 4950,
    "▁calm": 4951,
    "▁damp": 4952,
    "▁diag": 4953,
    "▁dizz": 4954,
    "▁doub": 4955,
    "▁exit": 4956,
    "▁fast": 4957,
    "▁faux": 4958,
    "▁fine": 4959,
    "▁fold": 4960,
    "▁fund": 4961,
    "▁gate": 4962,
    "▁harr": 4963,
    "▁hide": 4964,
    "▁inse": 4965,
    "▁judg": 4966,
    "▁lake": 4967,
    "▁ling": 4968,
    "▁lips": 4969,
    "▁moon": 4970,
    "▁push": 4971,
    "▁rage": 4972,
    "▁rail": 4973,
    "▁ring": 4974,
    "▁rust": 4975,
    "▁shut": 4976,
    "▁snif": 4977,
    "▁stal": 4978,
    "▁summ": 4979,
    "▁toil": 4980,
    "▁tool": 4981,
    "▁usel": 4982,
    "▁vide": 4983,
    "▁wild": 4984,
    "▁wine": 4985,
    "Laughs": 4986,
    "ashing": 4987,
    "atural": 4988,
    "damnit": 4989,
    "ership": 4990,
    "essing": 4991,
    "icking": 4992,
    "idding": 4993,
    "levant": 4994,
    "linear": 4995,
    "olving": 4996,
    "omfort": 4997,
    "ooking": 4998,
    "rowave": 4999,
    "shirts": 5000,
    "stance": 5001,
    "versal": 5002,
    "▁Beaut": 5003,
    "▁Hello": 5004,
    "▁Ifrit": 5005,
    "▁Legal": 5006,
    "▁Tarot": 5007,
    "▁Texas": 5008,
    "▁angle": 5009,
    "▁artif": 5010,
    "▁awful": 5011,
    "▁catch": 5012,
    "▁chair": 5013,
    "▁codes": 5014,
    "▁coinc": 5015,
    "▁cream": 5016,
    "▁creat": 5017,
    "▁cried": 5018,
    "▁defic": 5019,
    "▁deser": 5020,
    "▁drool": 5021,
    "▁enfor": 5022,
    "▁error": 5023,
    "▁excav": 5024,
    "▁extre": 5025,
    "▁faced": 5026,
    "▁faith": 5027,
    "▁films": 5028,
    "▁fract": 5029,
    "▁gasps": 5030,
    "▁grabs": 5031,
    "▁heads": 5032,
    "▁hears": 5033,
    "▁hoped": 5034,
    "▁impro": 5035,
    "▁innov": 5036,
    "▁issue": 5037,
    "▁kinda": 5038,
    "▁loses": 5039,
    "▁media": 5040,
    "▁modes": 5041,
    "▁money": 5042,
    "▁older": 5043,
    "▁party": 5044,
    "▁peers": 5045,
    "▁recon": 5046,
    "▁relax": 5047,
    "▁resol": 5048,
    "▁rules": 5049,
    "▁shame": 5050,
    "▁sides": 5051,
    "▁stack": 5052,
    "▁stain": 5053,
    "▁store": 5054,
    "▁table": 5055,
    "▁tales": 5056,
    "▁ubiqu": 5057,
    "▁using": 5058,
    "▁yells": 5059,
    "agement": 5060,
    "ameless": 5061,
    "amiliar": 5062,
    "ctually": 5063,
    "ediment": 5064,
    "iciency": 5065,
    "ishment": 5066,
    "ography": 5067,
    "ulating": 5068,
    "ullivan": 5069,
    "▁Misses": 5070,
    "▁Scient": 5071,
    "▁Square": 5072,
    "▁Tunnel": 5073,
    "▁angles": 5074,
    "▁announ": 5075,
    "▁assert": 5076,
    "▁bottom": 5077,
    "▁caught": 5078,
    "▁causes": 5079,
    "▁consum": 5080,
    "▁crying": 5081,
    "▁custom": 5082,
    "▁deaths": 5083,
    "▁desper": 5084,
    "▁determ": 5085,
    "▁dinner": 5086,
    "▁dissip": 5087,
    "▁doomed": 5088,
    "▁drives": 5089,
    "▁echoes": 5090,
    "▁episod": 5091,
    "▁exceed": 5092,
    "▁except": 5093,
    "▁expans": 5094,
    "▁facing": 5095,
    "▁famous": 5096,
    "▁fourth": 5097,
    "▁gentle": 5098,
    "▁gibsey": 5099,
    "▁helped": 5100,
    "▁hiding": 5101,
    "▁higher": 5102,
    "▁incess": 5103,
    "▁inform": 5104,
    "▁intend": 5105,
    "▁liquid": 5106,
    "▁lovers": 5107,
    "▁mechan": 5108,
    "▁medley": 5109,
    "▁merely": 5110,
    "▁movies": 5111,
    "▁nobody": 5112,
    "▁portal": 5113,
    "▁purity": 5114,
    "▁purple": 5115,
    "▁regret": 5116,
    "▁ridden": 5117,
    "▁sacrif": 5118,
    "▁scenes": 5119,
    "▁school": 5120,
    "▁shadow": 5121,
    "▁shifts": 5122,
    "▁silver": 5123,
    "▁spiral": 5124,
    "▁stares": 5125,
    "▁throat": 5126,
    "▁transl": 5127,
    "▁underw": 5128,
    "▁winter": 5129,
    "inations": 5130,
    "ountered": 5131,
    "▁Despite": 5132,
    "▁Subject": 5133,
    "▁Summary": 5134,
    "▁Whether": 5135,
    "▁allowed": 5136,
    "▁artific": 5137,
    "▁average": 5138,
    "▁battery": 5139,
    "▁calling": 5140,
    "▁channel": 5141,
    "▁clarity": 5142,
    "▁cloning": 5143,
    "▁colored": 5144,
    "▁comment": 5145,
    "▁conspir": 5146,
    "▁corrupt": 5147,
    "▁courses": 5148,
    "▁crafted": 5149,
    "▁decides": 5150,
    "▁discour": 5151,
    "▁dismiss": 5152,
    "▁distant": 5153,
    "▁dreamed": 5154,
    "▁escaped": 5155,
    "▁explore": 5156,
    "▁extract": 5157,
    "▁figured": 5158,
    "▁flowing": 5159,
    "▁greatly": 5160,
    "▁invaded": 5161,
    "▁justify": 5162,
    "▁keeping": 5163,
    "▁leaking": 5164,
    "▁managed": 5165,
    "▁mindset": 5166,
    "▁monopol": 5167,
    "▁nearing": 5168,
    "▁neither": 5169,
    "▁obvious": 5170,
    "▁phrases": 5171,
    "▁planned": 5172,
    "▁pointed": 5173,
    "▁pretend": 5174,
    "▁princip": 5175,
    "▁rainbow": 5176,
    "▁reinfor": 5177,
    "▁related": 5178,
    "▁remains": 5179,
    "▁repeats": 5180,
    "▁running": 5181,
    "▁screams": 5182,
    "▁shelter": 5183,
    "▁showing": 5184,
    "▁spinner": 5185,
    "▁sputter": 5186,
    "▁stomach": 5187,
    "▁subvert": 5188,
    "▁tablets": 5189,
    "▁twisted": 5190,
    "▁typical": 5191,
    "▁useless": 5192,
    "▁vertigo": 5193,
    "▁vessels": 5194,
    "▁winding": 5195,
    "expanding": 5196,
    "istically": 5197,
    "▁Mystical": 5198,
    "▁Thousand": 5199,
    "▁achieved": 5200,
    "▁animates": 5201,
    "▁articles": 5202,
    "▁detached": 5203,
    "▁drinking": 5204,
    "▁dynamite": 5205,
    "▁exercise": 5206,
    "▁families": 5207,
    "▁focusing": 5208,
    "▁greatest": 5209,
    "▁honestly": 5210,
    "▁included": 5211,
    "▁inspired": 5212,
    "▁invasion": 5213,
    "▁learning": 5214,
    "▁minecart": 5215,
    "▁promises": 5216,
    "▁siblings": 5217,
    "▁smallest": 5218,
    "▁spoilers": 5219,
    "▁stopping": 5220,
    "▁sunlight": 5221,
    "▁surfaces": 5222,
    "▁suspects": 5223,
    "▁swirling": 5224,
    "▁symptoms": 5225,
    "▁telepath": 5226,
    "▁unfortun": 5227,
    "Subversion": 5228,
    "▁Gillespie": 5229,
    "▁Synchromy": 5230,
    "▁Victorian": 5231,
    "▁abandoned": 5232,
    "▁accepting": 5233,
    "▁afternoon": 5234,
    "▁automatic": 5235,
    "▁automaton": 5236,
    "▁available": 5237,
    "▁backstage": 5238,
    "▁basically": 5239,
    "▁cluttered": 5240,
    "▁dangerous": 5241,
    "▁extension": 5242,
    "▁fundament": 5243,
    "▁harrowing": 5244,
    "▁ignorance": 5245,
    "▁interview": 5246,
    "▁invisible": 5247,
    "▁isolation": 5248,
    "▁microwave": 5249,
    "▁mountains": 5250,
    "▁obviously": 5251,
    "▁petrified": 5252,
    "▁popularly": 5253,
    "▁positions": 5254,
    "▁powerless": 5255,
    "▁practiced": 5256,
    "▁professor": 5257,
    "▁protected": 5258,
    "▁resurrect": 5259,
    "▁screaming": 5260,
    "▁scrolling": 5261,
    "▁spiritual": 5262,
    "▁stretched": 5263,
    "▁suggested": 5264,
    "▁thrusting": 5265,
    "▁uncomfort": 5266,
    "▁witnessed": 5267,
    "▁Conclusion": 5268,
    "▁appreciate": 5269,
    "▁associated": 5270,
    "▁background": 5271,
    "▁definitive": 5272,
    "▁department": 5273,
    "▁digressive": 5274,
    "▁horrifying": 5275,
    "▁initiation": 5276,
    "▁intentions": 5277,
    "▁meaningful": 5278,
    "▁mechanical": 5279,
    "▁underneath": 5280,
    "▁understood": 5281,
    "▁unfamiliar": 5282,
    "▁unreliable": 5283,
    "▁communicate": 5284,
    "▁corporation": 5285,
    "▁encountered": 5286,
    "▁incessantly": 5287,
    "▁maintaining": 5288,
    "▁performance": 5289,
    "▁significant": 5290,
    "▁singularity": 5291,
    "▁accidentally": 5292,
    "▁artificially": 5293,
    "▁chatterering": 5294,
    "▁conservative": 5295,
    "▁disappearing": 5296,
    "▁expositional": 5297,
    "▁implications": 5298,
    "▁introductory": 5299,
    "▁occasionally": 5300,
    "▁overwhelming": 5301,
    "▁powerlessness": 5302,
    "▁technological": 5303,
    "▁interconnected": 5304,
    "▁representation": 5305,
    "?!": 5306,
    "If": 5307,
    "PS": 5308,
    "Re": 5309,
    "do": 5310,
    "--\"": 5311,
    "?),": 5312,
    "Huh": 5313,
    "aky": 5314,
    "ama": 5315,
    "att": 5316,
    "aws": 5317,
    "bel": 5318,
    "cur": 5319,
    "cut": 5320,
    "gue": 5321,
    "hod": 5322,
    "ias": 5323,
    "lec": 5324,
    "omb": 5325,
    "omy": 5326,
    "ope": 5327,
    "oph": 5328,
    "rel": 5329,
    "rog": 5330,
    "see": 5331,
    "upt": 5332,
    "who": 5333,
    "yss": 5334,
    "▁\"'": 5335,
    "▁By": 5336,
    "▁Ca": 5337,
    "▁Fe": 5338,
    "▁Fu": 5339,
    "▁NO": 5340,
    "▁Sl": 5341,
    "▁Us": 5342,
    "▁Ut": 5343,
    "▁ah": 5344,
    "▁ec": 5345,
    "When": 5346,
    "abor": 5347,
    "aids": 5348,
    "ancy": 5349,
    "apse": 5350,
    "aret": 5351,
    "awed": 5352,
    "azed": 5353,
    "bles": 5354,
    "bows": 5355,
    "char": 5356,
    "cket": 5357,
    "eted": 5358,
    "ffee": 5359,
    "fied": 5360,
    "gies": 5361,
    "hhhh": 5362,
    "hole": 5363,
    "inds": 5364,
    "ingu": 5365,
    "irds": 5366,
    "kind": 5367,
    "mark": 5368,
    "ners": 5369,
    "odge": 5370,
    "pair": 5371,
    "ples": 5372,
    "pret": 5373,
    "prov": 5374,
    "rous": 5375,
    "scre": 5376,
    "sive": 5377,
    "spic": 5378,
    "umps": 5379,
    "unct": 5380,
    "vern": 5381,
    "vive": 5382,
    "▁AIs": 5383,
    "▁Att": 5384,
    "▁Car": 5385,
    "▁Era": 5386,
    "▁GPS": 5387,
    "▁Too": 5388,
    "▁Yep": 5389,
    "▁asc": 5390,
    "▁avo": 5391,
    "▁bul": 5392,
    "▁ded": 5393,
    "▁fem": 5394,
    "▁fis": 5395,
    "▁gar": 5396,
    "▁hom": 5397,
    "▁hyp": 5398,
    "▁len": 5399,
    "▁mat": 5400,
    "▁men": 5401,
    "▁pin": 5402,
    "▁pod": 5403,
    "▁pul": 5404,
    "▁rom": 5405,
    "▁roy": 5406,
    "▁sal": 5407,
    "▁sin": 5408,
    "▁ske": 5409,
    "▁sle": 5410,
    "▁squ": 5411,
    "▁tag": 5412,
    "▁tip": 5413,
    "▁unm": 5414,
    "▁unp": 5415,
    "▁vir": 5416,
    "agrap": 5417,
    "alley": 5418,
    "azing": 5419,
    "bably": 5420,
    "bitch": 5421,
    "books": 5422,
    "ected": 5423,
    "esque": 5424,
    "getic": 5425,
    "ifest": 5426,
    "ioned": 5427,
    "iring": 5428,
    "ising": 5429,
    "itter": 5430,
    "ltraP": 5431,
    "novel": 5432,
    "ocaly": 5433,
    "opted": 5434,
    "orous": 5435,
    "place": 5436,
    "power": 5437,
    "rible": 5438,
    "tical": 5439,
    "ultip": 5440,
    "using": 5441,
    "vices": 5442,
    "▁Bank": 5443,
    "▁Book": 5444,
    "▁CEOs": 5445,
    "▁Chat": 5446,
    "▁Code": 5447,
    "▁Hear": 5448,
    "▁Keep": 5449,
    "▁King": 5450,
    "▁Life": 5451,
    "▁Nope": 5452,
    "▁Tell": 5453,
    "▁Then": 5454,
    "▁Very": 5455,
    "▁Wind": 5456,
    "▁arts": 5457,
    "▁beat": 5458,
    "▁belt": 5459,
    "▁chor": 5460,
    "▁clar": 5461,
    "▁cris": 5462,
    "▁crum": 5463,
    "▁debt": 5464,
    "▁deer": 5465,
    "▁defe": 5466,
    "▁dumb": 5467,
    "▁emph": 5468,
    "▁extr": 5469,
    "▁fade": 5470,
    "▁fork": 5471,
    "▁glad": 5472,
    "▁glow": 5473,
    "▁grim": 5474,
    "▁hang": 5475,
    "▁hero": 5476,
    "▁holl": 5477,
    "▁hosp": 5478,
    "▁inde": 5479,
    "▁intu": 5480,
    "▁jinn": 5481,
    "▁joke": 5482,
    "▁jump": 5483,
    "▁laby": 5484,
    "▁lift": 5485,
    "▁male": 5486,
    "▁merm": 5487,
    "▁nods": 5488,
    "▁odor": 5489,
    "▁pair": 5490,
    "▁pond": 5491,
    "▁prim": 5492,
    "▁purg": 5493,
    "▁purs": 5494,
    "▁quot": 5495,
    "▁rise": 5496,
    "▁salt": 5497,
    "▁skip": 5498,
    "▁sque": 5499,
    "▁stab": 5500,
    "▁thou": 5501,
    "▁unst": 5502,
    "▁warn": 5503,
    "▁went": 5504,
    "▁woah": 5505,
    "▁zoom": 5506,
    "alance": 5507,
    "alling": 5508,
    "ancing": 5509,
    "apable": 5510,
    "asures": 5511,
    "commun": 5512,
    "estern": 5513,
    "iguity": 5514,
    "inting": 5515,
    "isions": 5516,
    "itical": 5517,
    "itting": 5518,
    "oulder": 5519,
    "ounded": 5520,
    "rength": 5521,
    "▁Brand": 5522,
    "▁Caves": 5523,
    "▁Doesn": 5524,
    "▁Hmmmm": 5525,
    "▁Lodge": 5526,
    "▁Never": 5527,
    "▁Other": 5528,
    "▁Think": 5529,
    "▁abyss": 5530,
    "▁adult": 5531,
    "▁balls": 5532,
    "▁basin": 5533,
    "▁basis": 5534,
    "▁beast": 5535,
    "▁brass": 5536,
    "▁carts": 5537,
    "▁chalk": 5538,
    "▁click": 5539,
    "▁clips": 5540,
    "▁costs": 5541,
    "▁court": 5542,
    "▁crank": 5543,
    "▁curve": 5544,
    "▁devil": 5545,
    "▁drain": 5546,
    "▁dress": 5547,
    "▁drink": 5548,
    "▁email": 5549,
    "▁fills": 5550,
    "▁flick": 5551,
    "▁games": 5552,
    "▁goers": 5553,
    "▁greet": 5554,
    "▁grown": 5555,
    "▁hopes": 5556,
    "▁hours": 5557,
    "▁idiot": 5558,
    "▁imbec": 5559,
    "▁liked": 5560,
    "▁local": 5561,
    "▁logic": 5562,
    "▁loves": 5563,
    "▁lunch": 5564,
    "▁match": 5565,
    "▁minds": 5566,
    "▁molec": 5567,
    "▁motiv": 5568,
    "▁motto": 5569,
    "▁noise": 5570,
    "▁pause": 5571,
    "▁plain": 5572,
    "▁plays": 5573,
    "▁plots": 5574,
    "▁print": 5575,
    "▁psych": 5576,
    "▁reass": 5577,
    "▁reloc": 5578,
    "▁serve": 5579,
    "▁shake": 5580,
    "▁shine": 5581,
    "▁shows": 5582,
    "▁shuff": 5583,
    "▁smoke": 5584,
    "▁souls": 5585,
    "▁spect": 5586,
    "▁speed": 5587,
    "▁spent": 5588,
    "▁spray": 5589,
    "▁stone": 5590,
    "▁stood": 5591,
    "▁swear": 5592,
    "▁telev": 5593,
    "▁tired": 5594,
    "▁versa": 5595,
    "▁vivid": 5596,
    "▁wings": 5597,
    "alistic": 5598,
    "anation": 5599,
    "fulness": 5600,
    "igation": 5601,
    "inating": 5602,
    "itching": 5603,
    "meaning": 5604,
    "retched": 5605,
    "unction": 5606,
    "▁Arioel": 5607,
    "▁Auteur": 5608,
    "▁Beauty": 5609,
    "▁Cinema": 5610,
    "▁Mmmhmm": 5611,
    "▁Multip": 5612,
    "▁Nature": 5613,
    "▁Object": 5614,
    "▁Profit": 5615,
    "▁Review": 5616,
    "▁Safety": 5617,
    "▁UltraP": 5618,
    "▁accrue": 5619,
    "▁adding": 5620,
    "▁aliens": 5621,
    "▁assess": 5622,
    "▁badass": 5623,
    "▁battle": 5624,
    "▁became": 5625,
    "▁bottle": 5626,
    "▁broken": 5627,
    "▁carved": 5628,
    "▁closed": 5629,
    "▁coding": 5630,
    "▁coffee": 5631,
    "▁convin": 5632,
    "▁copies": 5633,
    "▁corner": 5634,
    "▁cycles": 5635,
    "▁damned": 5636,
    "▁depths": 5637,
    "▁dreamt": 5638,
    "▁embell": 5639,
    "▁empire": 5640,
    "▁engine": 5641,
    "▁ensure": 5642,
    "▁etched": 5643,
    "▁fairly": 5644,
    "▁female": 5645,
    "▁gender": 5646,
    "▁hammer": 5647,
    "▁headph": 5648,
    "▁issues": 5649,
    "▁jovial": 5650,
    "▁labels": 5651,
    "▁ladder": 5652,
    "▁length": 5653,
    "▁losses": 5654,
    "▁maroon": 5655,
    "▁method": 5656,
    "▁myster": 5657,
    "▁novels": 5658,
    "▁orange": 5659,
    "▁packed": 5660,
    "▁pertin": 5661,
    "▁pillar": 5662,
    "▁prefer": 5663,
    "▁profit": 5664,
    "▁prompt": 5665,
    "▁pushed": 5666,
    "▁redund": 5667,
    "▁reject": 5668,
    "▁relate": 5669,
    "▁remote": 5670,
    "▁review": 5671,
    "▁rights": 5672,
    "▁scient": 5673,
    "▁senses": 5674,
    "▁sister": 5675,
    "▁sniffs": 5676,
    "▁splash": 5677,
    "▁spokes": 5678,
    "▁spooky": 5679,
    "▁steady": 5680,
    "▁street": 5681,
    "▁strike": 5682,
    "▁strung": 5683,
    "▁suffer": 5684,
    "▁taught": 5685,
    "▁therap": 5686,
    "▁titles": 5687,
    "▁toilet": 5688,
    "▁unbear": 5689,
    "▁volume": 5690,
    "▁wealth": 5691,
    "▁widely": 5692,
    "ensitive": 5693,
    "ictional": 5694,
    "▁Fucking": 5695,
    "▁Picture": 5696,
    "▁Strange": 5697,
    "▁Through": 5698,
    "▁Usually": 5699,
    "▁Windows": 5700,
    "▁adapted": 5701,
    "▁amongst": 5702,
    "▁bastard": 5703,
    "▁benefit": 5704,
    "▁boulder": 5705,
    "▁capable": 5706,
    "▁capture": 5707,
    "▁century": 5708,
    "▁chatter": 5709,
    "▁cigaret": 5710,
    "▁conjure": 5711,
    "▁counter": 5712,
    "▁despair": 5713,
    "▁disease": 5714,
    "▁doorway": 5715,
    "▁encased": 5716,
    "▁enemies": 5717,
    "▁envelop": 5718,
    "▁exploit": 5719,
    "▁feature": 5720,
    "▁forgive": 5721,
    "▁ghostly": 5722,
    "▁glimpse": 5723,
    "▁heavily": 5724,
    "▁honesty": 5725,
    "▁kidding": 5726,
    "▁labyrin": 5727,
    "▁legally": 5728,
    "▁mentors": 5729,
    "▁mission": 5730,
    "▁novelty": 5731,
    "▁options": 5732,
    "▁outward": 5733,
    "▁overall": 5734,
    "▁parking": 5735,
    "▁prepare": 5736,
    "▁private": 5737,
    "▁railing": 5738,
    "▁reasons": 5739,
    "▁refrain": 5740,
    "▁reminds": 5741,
    "▁repetit": 5742,
    "▁reports": 5743,
    "▁restore": 5744,
    "▁revenge": 5745,
    "▁shifted": 5746,
    "▁shouldn": 5747,
    "▁silence": 5748,
    "▁sockets": 5749,
    "▁spirits": 5750,
    "▁stained": 5751,
    "▁stalact": 5752,
    "▁statues": 5753,
    "▁streets": 5754,
    "▁stretch": 5755,
    "▁stuffed": 5756,
    "▁tension": 5757,
    "▁trained": 5758,
    "▁unaware": 5759,
    "▁wearing": 5760,
    "▁weeping": 5761,
    "▁windows": 5762,
    "abilities": 5763,
    "organized": 5764,
    "ructuring": 5765,
    "▁Actually": 5766,
    "▁Anything": 5767,
    "▁Expected": 5768,
    "▁Hierarch": 5769,
    "▁Probably": 5770,
    "▁Withheld": 5771,
    "▁admitted": 5772,
    "▁agencies": 5773,
    "▁assigned": 5774,
    "▁believed": 5775,
    "▁birthday": 5776,
    "▁blessing": 5777,
    "▁boundary": 5778,
    "▁capacity": 5779,
    "▁creators": 5780,
    "▁critical": 5781,
    "▁discover": 5782,
    "▁dominate": 5783,
    "▁dwelling": 5784,
    "▁elements": 5785,
    "▁entering": 5786,
    "▁episodes": 5787,
    "▁exchange": 5788,
    "▁exterior": 5789,
    "▁failures": 5790,
    "▁followed": 5791,
    "▁hallways": 5792,
    "▁hovering": 5793,
    "▁incorpor": 5794,
    "▁increase": 5795,
    "▁interpre": 5796,
    "▁involves": 5797,
    "▁machines": 5798,
    "▁magician": 5799,
    "▁manifest": 5800,
    "▁mermaids": 5801,
    "▁mindless": 5802,
    "▁networks": 5803,
    "▁normally": 5804,
    "▁paragrap": 5805,
    "▁precious": 5806,
    "▁profound": 5807,
    "▁proposed": 5808,
    "▁recreate": 5809,
    "▁released": 5810,
    "▁resemble": 5811,
    "▁screened": 5812,
    "▁selected": 5813,
    "▁slipping": 5814,
    "▁snapping": 5815,
    "▁somewhat": 5816,
    "▁strained": 5817,
    "▁strength": 5818,
    "▁stronger": 5819,
    "▁subsumed": 5820,
    "▁surprise": 5821,
    "▁twirling": 5822,
    "▁twisting": 5823,
    "▁uniquely": 5824,
    "▁universe": 5825,
    "▁vertical": 5826,
    "▁whenever": 5827,
    "▁wrinkled": 5828,
    "ographical": 5829,
    "▁Everybody": 5830,
    "▁alongside": 5831,
    "▁animating": 5832,
    "▁artifacts": 5833,
    "▁ascension": 5834,
    "▁believing": 5835,
    "▁committed": 5836,
    "▁community": 5837,
    "▁companies": 5838,
    "▁completed": 5839,
    "▁darkening": 5840,
    "▁destroyed": 5841,
    "▁everybody": 5842,
    "▁exceeding": 5843,
    "▁extensive": 5844,
    "▁fantasies": 5845,
    "▁filmmaker": 5846,
    "▁fragments": 5847,
    "▁intensely": 5848,
    "▁interpret": 5849,
    "▁involving": 5850,
    "▁linearity": 5851,
    "▁monuments": 5852,
    "▁movements": 5853,
    "▁ownership": 5854,
    "▁political": 5855,
    "▁potential": 5856,
    "▁presented": 5857,
    "▁principal": 5858,
    "▁privilege": 5859,
    "▁purgatory": 5860,
    "▁realistic": 5861,
    "▁receiving": 5862,
    "▁reception": 5863,
    "▁sensitive": 5864,
    "▁sexuality": 5865,
    "▁strangest": 5866,
    "▁struggles": 5867,
    "▁substance": 5868,
    "▁technique": 5869,
    "▁traumatic": 5870,
    "▁vibrating": 5871,
    "▁wonderful": 5872,
    "interesting": 5873,
    "▁Appearance": 5874,
    "▁Bankruptcy": 5875,
    "▁Gibseydamn": 5876,
    "▁accessible": 5877,
    "▁accomplish": 5878,
    "▁accumulate": 5879,
    "▁approaches": 5880,
    "▁assignment": 5881,
    "▁complexity": 5882,
    "▁conflicted": 5883,
    "▁consistent": 5884,
    "▁contradict": 5885,
    "▁creativity": 5886,
    "▁definition": 5887,
    "▁detectives": 5888,
    "▁disappears": 5889,
    "▁dissimilar": 5890,
    "▁experiment": 5891,
    "▁explaining": 5892,
    "▁innovative": 5893,
    "▁interested": 5894,
    "▁interjects": 5895,
    "▁motivation": 5896,
    "▁occurrence": 5897,
    "▁perceiving": 5898,
    "▁plummeting": 5899,
    "▁previously": 5900,
    "▁questioned": 5901,
    "▁screenplay": 5902,
    "▁stammering": 5903,
    "▁television": 5904,
    "▁transcript": 5905,
    "▁ultimately": 5906,
    "▁unbearable": 5907,
    "▁underworld": 5908,
    "▁vulnerable": 5909,
    "▁Imaginators": 5910,
    "▁UltraPerson": 5911,
    "▁abandonment": 5912,
    "▁adaptations": 5913,
    "▁clothesline": 5914,
    "▁confronting": 5915,
    "▁definitions": 5916,
    "▁differences": 5917,
    "▁explanation": 5918,
    "▁intentional": 5919,
    "▁manufacture": 5920,
    "▁monologuing": 5921,
    "▁overwhelmed": 5922,
    "▁problematic": 5923,
    "▁progressive": 5924,
    "▁questioning": 5925,
    "▁researching": 5926,
    "▁revelations": 5927,
    "▁surrounding": 5928,
    "▁tempestuous": 5929,
    "▁threatening": 5930,
    "▁transparent": 5931,
    "communication": 5932,
    "▁authenticity": 5933,
    "▁communicated": 5934,
    "▁embarrassing": 5935,
    "▁establishing": 5936,
    "▁performances": 5937,
    "▁unexpectedly": 5938,
    "▁entertainment": 5939,
    "▁externalities": 5940,
    "▁misunderstand": 5941,
    "▁observational": 5942,
    "▁vulnerability": 5943,
    "▁identification": 5944,
    "▁representative": 5945,
    ".,": 5946,
    "Sh": 5947,
    "eg": 5948,
    "my": 5949,
    "ti": 5950,
    "yr": 5951,
    "!?\"": 5952,
    "All": 5953,
    "How": 5954,
    "Mal": 5955,
    "Man": 5956,
    "Pre": 5957,
    "She": 5958,
    "Who": 5959,
    "ald": 5960,
    "arc": 5961,
    "arn": 5962,
    "arp": 5963,
    "asy": 5964,
    "ato": 5965,
    "azz": 5966,
    "ban": 5967,
    "cel": 5968,
    "col": 5969,
    "did": 5970,
    "emb": 5971,
    "eop": 5972,
    "err": 5973,
    "eve": 5974,
    "has": 5975,
    "het": 5976,
    "hil": 5977,
    "ica": 5978,
    "imm": 5979,
    "iny": 5980,
    "irl": 5981,
    "kay": 5982,
    "lay": 5983,
    "lim": 5984,
    "obs": 5985,
    "off": 5986,
    "ohn": 5987,
    "oir": 5988,
    "olf": 5989,
    "osm": 5990,
    "owd": 5991,
    "phy": 5992,
    "poo": 5993,
    "rec": 5994,
    "reg": 5995,
    "rer": 5996,
    "tes": 5997,
    "ugs": 5998,
    "uzz": 5999,
    "val": 6000,
    "wan": 6001,
    "xes": 6002,
    "yay": 6003,
    "ysf": 6004,
    "▁Dr": 6005,
    "▁Fr": 6006,
    "▁Gl": 6007,
    "▁Kn": 6008,
    "▁Sp": 6009,
    "▁Ty": 6010,
    "▁eh": 6011,
    "▁ju": 6012,
    "Oren": 6013,
    "Then": 6014,
    "aint": 6015,
    "alic": 6016,
    "ands": 6017,
    "apid": 6018,
    "arls": 6019,
    "arsh": 6020,
    "aste": 6021,
    "back": 6022,
    "cano": 6023,
    "cont": 6024,
    "cure": 6025,
    "dark": 6026,
    "enry": 6027,
    "eral": 6028,
    "fits": 6029,
    "gram": 6030,
    "gree": 6031,
    "grow": 6032,
    "iate": 6033,
    "into": 6034,
    "ipes": 6035,
    "isms": 6036,
    "itor": 6037,
    "lled": 6038,
    "ocal": 6039,
    "omes": 6040,
    "oons": 6041,
    "open": 6042,
    "orig": 6043,
    "orph": 6044,
    "oved": 6045,
    "ploy": 6046,
    "rawl": 6047,
    "rawn": 6048,
    "reek": 6049,
    "resh": 6050,
    "roud": 6051,
    "shit": 6052,
    "shot": 6053,
    "sing": 6054,
    "uced": 6055,
    "uest": 6056,
    "urry": 6057,
    "usal": 6058,
    "uter": 6059,
    "valu": 6060,
    "wood": 6061,
    "your": 6062,
    "yram": 6063,
    "▁Ang": 6064,
    "▁Bet": 6065,
    "▁Cle": 6066,
    "▁Com": 6067,
    "▁Eng": 6068,
    "▁Exp": 6069,
    "▁Fun": 6070,
    "▁Kub": 6071,
    "▁Mem": 6072,
    "▁Mur": 6073,
    "▁Oak": 6074,
    "▁Old": 6075,
    "▁Par": 6076,
    "▁Unt": 6077,
    "▁adm": 6078,
    "▁ain": 6079,
    "▁ant": 6080,
    "▁awk": 6081,
    "▁cal": 6082,
    "▁cat": 6083,
    "▁der": 6084,
    "▁dim": 6085,
    "▁dur": 6086,
    "▁gul": 6087,
    "▁gut": 6088,
    "▁hey": 6089,
    "▁hun": 6090,
    "▁ing": 6091,
    "▁jow": 6092,
    "▁mad": 6093,
    "▁mut": 6094,
    "▁oil": 6095,
    "▁pru": 6096,
    "▁pun": 6097,
    "▁rot": 6098,
    "▁sne": 6099,
    "▁spr": 6100,
    "▁tab": 6101,
    "▁tap": 6102,
    "▁ton": 6103,
    "▁upd": 6104,
    "▁zig": 6105,
    "Malik": 6106,
    "acies": 6107,
    "actic": 6108,
    "again": 6109,
    "aging": 6110,
    "alled": 6111,
    "amber": 6112,
    "amous": 6113,
    "angle": 6114,
    "anite": 6115,
    "arted": 6116,
    "being": 6117,
    "burst": 6118,
    "child": 6119,
    "crete": 6120,
    "cross": 6121,
    "eches": 6122,
    "ented": 6123,
    "essim": 6124,
    "germs": 6125,
    "ician": 6126,
    "ipped": 6127,
    "itled": 6128,
    "itors": 6129,
    "ittle": 6130,
    "lling": 6131,
    "ocked": 6132,
    "owned": 6133,
    "point": 6134,
    "rehen": 6135,
    "rying": 6136,
    "seman": 6137,
    "sides": 6138,
    "while": 6139,
    "▁Cast": 6140,
    "▁Date": 6141,
    "▁Each": 6142,
    "▁Game": 6143,
    "▁Hadn": 6144,
    "▁Init": 6145,
    "▁Jinn": 6146,
    "▁John": 6147,
    "▁Lord": 6148,
    "▁Make": 6149,
    "▁Nice": 6150,
    "▁Nost": 6151,
    "▁Text": 6152,
    "▁Thru": 6153,
    "▁Utah": 6154,
    "▁abst": 6155,
    "▁adds": 6156,
    "▁appl": 6157,
    "▁baff": 6158,
    "▁bars": 6159,
    "▁bear": 6160,
    "▁boun": 6161,
    "▁butt": 6162,
    "▁cact": 6163,
    "▁clay": 6164,
    "▁conv": 6165,
    "▁cool": 6166,
    "▁craw": 6167,
    "▁crun": 6168,
    "▁cuts": 6169,
    "▁date": 6170,
    "▁dogs": 6171,
    "▁drop": 6172,
    "▁drum": 6173,
    "▁dysf": 6174,
    "▁ease": 6175,
    "▁ecst": 6176,
    "▁educ": 6177,
    "▁emer": 6178,
    "▁enth": 6179,
    "▁eons": 6180,
    "▁epic": 6181,
    "▁esot": 6182,
    "▁fake": 6183,
    "▁firm": 6184,
    "▁five": 6185,
    "▁fuzz": 6186,
    "▁gain": 6187,
    "▁gems": 6188,
    "▁gest": 6189,
    "▁grac": 6190,
    "▁grav": 6191,
    "▁gust": 6192,
    "▁hate": 6193,
    "▁host": 6194,
    "▁hurd": 6195,
    "▁hurt": 6196,
    "▁icon": 6197,
    "▁info": 6198,
    "▁jack": 6199,
    "▁luck": 6200,
    "▁mode": 6201,
    "▁noun": 6202,
    "▁obsc": 6203,
    "▁pink": 6204,
    "▁pots": 6205,
    "▁prey": 6206,
    "▁prop": 6207,
    "▁puzz": 6208,
    "▁rect": 6209,
    "▁reli": 6210,
    "▁rico": 6211,
    "▁ship": 6212,
    "▁shru": 6213,
    "▁sink": 6214,
    "▁sire": 6215,
    "▁slos": 6216,
    "▁stif": 6217,
    "▁stir": 6218,
    "▁styl": 6219,
    "▁suit": 6220,
    "▁tens": 6221,
    "▁thin": 6222,
    "▁tile": 6223,
    "▁tone": 6224,
    "▁uses": 6225,
    "▁vain": 6226,
    "▁vint": 6227,
    "▁wart": 6228,
    "▁whim": 6229,
    "Please": 6230,
    "asting": 6231,
    "father": 6232,
    "ferent": 6233,
    "ilarly": 6234,
    "isfied": 6235,
    "itches": 6236,
    "kayama": 6237,
    "living": 6238,
    "mitted": 6239,
    "modern": 6240,
    "oddamn": 6241,
    "ogical": 6242,
    "ollect": 6243,
    "orious": 6244,
    "parent": 6245,
    "ptions": 6246,
    "quired": 6247,
    "rouded": 6248,
    "urning": 6249,
    "usting": 6250,
    "utters": 6251,
    "within": 6252,
    "yramid": 6253,
    "▁About": 6254,
    "▁Blood": 6255,
    "▁Cause": 6256,
    "▁Earth": 6257,
    "▁Entry": 6258,
    "▁Great": 6259,
    "▁Haven": 6260,
    "▁Henry": 6261,
    "▁River": 6262,
    "▁Stick": 6263,
    "▁Weren": 6264,
    "▁Whole": 6265,
    "▁allow": 6266,
    "▁angry": 6267,
    "▁annoy": 6268,
    "▁apart": 6269,
    "▁bangs": 6270,
    "▁beams": 6271,
    "▁beard": 6272,
    "▁bunch": 6273,
    "▁cared": 6274,
    "▁carve": 6275,
    "▁caves": 6276,
    "▁cling": 6277,
    "▁clone": 6278,
    "▁condu": 6279,
    "▁crowd": 6280,
    "▁demol": 6281,
    "▁dizzy": 6282,
    "▁erupt": 6283,
    "▁extra": 6284,
    "▁facts": 6285,
    "▁faded": 6286,
    "▁figur": 6287,
    "▁fresh": 6288,
    "▁golly": 6289,
    "▁grind": 6290,
    "▁grins": 6291,
    "▁hover": 6292,
    "▁knees": 6293,
    "▁layer": 6294,
    "▁leads": 6295,
    "▁liber": 6296,
    "▁licks": 6297,
    "▁lifet": 6298,
    "▁likes": 6299,
    "▁lower": 6300,
    "▁lying": 6301,
    "▁memor": 6302,
    "▁micro": 6303,
    "▁paras": 6304,
    "▁patio": 6305,
    "▁peace": 6306,
    "▁peaks": 6307,
    "▁plans": 6308,
    "▁pores": 6309,
    "▁proof": 6310,
    "▁purch": 6311,
    "▁recur": 6312,
    "▁refer": 6313,
    "▁repur": 6314,
    "▁reson": 6315,
    "▁retre": 6316,
    "▁round": 6317,
    "▁saved": 6318,
    "▁scrib": 6319,
    "▁simpl": 6320,
    "▁slack": 6321,
    "▁slips": 6322,
    "▁spend": 6323,
    "▁sport": 6324,
    "▁steam": 6325,
    "▁strip": 6326,
    "▁swall": 6327,
    "▁taste": 6328,
    "▁throw": 6329,
    "▁thumb": 6330,
    "▁tough": 6331,
    "▁trail": 6332,
    "▁treas": 6333,
    "▁twirl": 6334,
    "▁unden": 6335,
    "▁urban": 6336,
    "▁usual": 6337,
    "▁views": 6338,
    "▁waits": 6339,
    "▁wanna": 6340,
    "▁wider": 6341,
    "▁wound": 6342,
    "▁wrest": 6343,
    "Analyst": 6344,
    "astrous": 6345,
    "athered": 6346,
    "forming": 6347,
    "herents": 6348,
    "inguish": 6349,
    "orphous": 6350,
    "pendent": 6351,
    "reading": 6352,
    "sequent": 6353,
    "similar": 6354,
    "tenance": 6355,
    "uestion": 6356,
    "uilding": 6357,
    "written": 6358,
    "▁Better": 6359,
    "▁Couldn": 6360,
    "▁Geyser": 6361,
    "▁Marwan": 6362,
    "▁Murphy": 6363,
    "▁Person": 6364,
    "▁Public": 6365,
    "▁Unlike": 6366,
    "▁Unprov": 6367,
    "▁advert": 6368,
    "▁affair": 6369,
    "▁analyz": 6370,
    "▁angels": 6371,
    "▁appeal": 6372,
    "▁applic": 6373,
    "▁attend": 6374,
    "▁beauty": 6375,
    "▁behold": 6376,
    "▁belong": 6377,
    "▁blinds": 6378,
    "▁brains": 6379,
    "▁bubble": 6380,
    "▁buckle": 6381,
    "▁bursts": 6382,
    "▁chords": 6383,
    "▁chorus": 6384,
    "▁cinema": 6385,
    "▁circle": 6386,
    "▁clones": 6387,
    "▁corpse": 6388,
    "▁couple": 6389,
    "▁covers": 6390,
    "▁damsel": 6391,
    "▁darker": 6392,
    "▁define": 6393,
    "▁degree": 6394,
    "▁dotted": 6395,
    "▁embark": 6396,
    "▁encour": 6397,
    "▁exclus": 6398,
    "▁explos": 6399,
    "▁fading": 6400,
    "▁faulty": 6401,
    "▁flames": 6402,
    "▁framed": 6403,
    "▁geyser": 6404,
    "▁glimps": 6405,
    "▁handle": 6406,
    "▁heaven": 6407,
    "▁immers": 6408,
    "▁indist": 6409,
    "▁insert": 6410,
    "▁integr": 6411,
    "▁intric": 6412,
    "▁ironic": 6413,
    "▁jewels": 6414,
    "▁killer": 6415,
    "▁knobby": 6416,
    "▁knocks": 6417,
    "▁larger": 6418,
    "▁lenses": 6419,
    "▁levels": 6420,
    "▁limits": 6421,
    "▁linear": 6422,
    "▁loudly": 6423,
    "▁minute": 6424,
    "▁option": 6425,
    "▁passen": 6426,
    "▁pessim": 6427,
    "▁powers": 6428,
    "▁purely": 6429,
    "▁reform": 6430,
    "▁reserv": 6431,
    "▁reveal": 6432,
    "▁romant": 6433,
    "▁rooted": 6434,
    "▁rushes": 6435,
    "▁seized": 6436,
    "▁selves": 6437,
    "▁served": 6438,
    "▁shakes": 6439,
    "▁shared": 6440,
    "▁shoots": 6441,
    "▁silent": 6442,
    "▁smells": 6443,
    "▁source": 6444,
    "▁spirit": 6445,
    "▁stains": 6446,
    "▁stared": 6447,
    "▁states": 6448,
    "▁statue": 6449,
    "▁struck": 6450,
    "▁studio": 6451,
    "▁sucker": 6452,
    "▁suspic": 6453,
    "▁thrown": 6454,
    "▁traces": 6455,
    "▁tracks": 6456,
    "▁transf": 6457,
    "▁unfore": 6458,
    "▁unless": 6459,
    "▁useful": 6460,
    "▁waking": 6461,
    "▁wisdom": 6462,
    "▁yellow": 6463,
    "Gibseyan": 6464,
    "Withheld": 6465,
    "changing": 6466,
    "crossing": 6467,
    "elligent": 6468,
    "entional": 6469,
    "ronicity": 6470,
    "stantial": 6471,
    "▁Chatbot": 6472,
    "▁Gibsyan": 6473,
    "▁Kubrick": 6474,
    "▁Reports": 6475,
    "▁Summers": 6476,
    "▁Theater": 6477,
    "▁Without": 6478,
    "▁advance": 6479,
    "▁analyst": 6480,
    "▁artists": 6481,
    "▁asshole": 6482,
    "▁avoided": 6483,
    "▁awkward": 6484,
    "▁blended": 6485,
    "▁blowing": 6486,
    "▁blurred": 6487,
    "▁cameras": 6488,
    "▁cartoon": 6489,
    "▁changes": 6490,
    "▁circles": 6491,
    "▁clarify": 6492,
    "▁conceiv": 6493,
    "▁contend": 6494,
    "▁costume": 6495,
    "▁covered": 6496,
    "▁defined": 6497,
    "▁demonic": 6498,
    "▁drawing": 6499,
    "▁dreaded": 6500,
    "▁easiest": 6501,
    "▁facades": 6502,
    "▁feeding": 6503,
    "▁flooded": 6504,
    "▁furious": 6505,
    "▁glances": 6506,
    "▁hanging": 6507,
    "▁heavier": 6508,
    "▁hurries": 6509,
    "▁incline": 6510,
    "▁insides": 6511,
    "▁instant": 6512,
    "▁involve": 6513,
    "▁leaning": 6514,
    "▁lessons": 6515,
    "▁longing": 6516,
    "▁looping": 6517,
    "▁manages": 6518,
    "▁markets": 6519,
    "▁monster": 6520,
    "▁pattern": 6521,
    "▁peoples": 6522,
    "▁placing": 6523,
    "▁planted": 6524,
    "▁pockets": 6525,
    "▁podcast": 6526,
    "▁printed": 6527,
    "▁program": 6528,
    "▁radical": 6529,
    "▁raining": 6530,
    "▁realism": 6531,
    "▁records": 6532,
    "▁refract": 6533,
    "▁refusal": 6534,
    "▁refuses": 6535,
    "▁regular": 6536,
    "▁removed": 6537,
    "▁rushing": 6538,
    "▁science": 6539,
    "▁scrolls": 6540,
    "▁singing": 6541,
    "▁smashed": 6542,
    "▁smiling": 6543,
    "▁smoking": 6544,
    "▁streams": 6545,
    "▁surreal": 6546,
    "▁survive": 6547,
    "▁thunder": 6548,
    "▁tornado": 6549,
    "▁trusted": 6550,
    "▁unclear": 6551,
    "▁unnamed": 6552,
    "▁utterly": 6553,
    "▁vintage": 6554,
    "▁violent": 6555,
    "▁volcano": 6556,
    "▁wanders": 6557,
    "▁whisper": 6558,
    "▁writers": 6559,
    "▁yellows": 6560,
    "notations": 6561,
    "▁Disorder": 6562,
    "▁Fukayama": 6563,
    "▁Multiple": 6564,
    "▁Overview": 6565,
    "▁Redacted": 6566,
    "▁Sullivan": 6567,
    "▁abstract": 6568,
    "▁adapting": 6569,
    "▁affected": 6570,
    "▁attached": 6571,
    "▁bathroom": 6572,
    "▁behavior": 6573,
    "▁benefits": 6574,
    "▁brightly": 6575,
    "▁changing": 6576,
    "▁chapters": 6577,
    "▁claiming": 6578,
    "▁clinging": 6579,
    "▁collabor": 6580,
    "▁collapse": 6581,
    "▁concrete": 6582,
    "▁constant": 6583,
    "▁contexts": 6584,
    "▁costumed": 6585,
    "▁cranking": 6586,
    "▁creature": 6587,
    "▁crumpled": 6588,
    "▁dangling": 6589,
    "▁devilish": 6590,
    "▁disguise": 6591,
    "▁disorder": 6592,
    "▁doubting": 6593,
    "▁duration": 6594,
    "▁earliest": 6595,
    "▁ecstatic": 6596,
    "▁electric": 6597,
    "▁emotions": 6598,
    "▁emphasis": 6599,
    "▁energies": 6600,
    "▁escaping": 6601,
    "▁evolving": 6602,
    "▁familial": 6603,
    "▁guardian": 6604,
    "▁horrible": 6605,
    "▁horseman": 6606,
    "▁hospital": 6607,
    "▁inferred": 6608,
    "▁informal": 6609,
    "▁internet": 6610,
    "▁location": 6611,
    "▁mentally": 6612,
    "▁mistaken": 6613,
    "▁observes": 6614,
    "▁organize": 6615,
    "▁outburst": 6616,
    "▁overhead": 6617,
    "▁paneling": 6618,
    "▁petition": 6619,
    "▁pictured": 6620,
    "▁reaching": 6621,
    "▁receiver": 6622,
    "▁relevant": 6623,
    "▁reported": 6624,
    "▁requires": 6625,
    "▁secretly": 6626,
    "▁sediment": 6627,
    "▁shrouded": 6628,
    "▁sickness": 6629,
    "▁sketches": 6630,
    "▁sounding": 6631,
    "▁stalling": 6632,
    "▁strategy": 6633,
    "▁striking": 6634,
    "▁stylized": 6635,
    "▁synapses": 6636,
    "▁themself": 6637,
    "▁troubled": 6638,
    "▁vacation": 6639,
    "▁wandered": 6640,
    "▁withheld": 6641,
    "▁wretched": 6642,
    "Previously": 6643,
    "identified": 6644,
    "performing": 6645,
    "▁Nostalgia": 6646,
    "▁Represent": 6647,
    "▁Scientist": 6648,
    "▁absurdity": 6649,
    "▁adherents": 6650,
    "▁adventure": 6651,
    "▁ambiguity": 6652,
    "▁animation": 6653,
    "▁ascending": 6654,
    "▁audiences": 6655,
    "▁blackness": 6656,
    "▁breakdown": 6657,
    "▁buildings": 6658,
    "▁cigarette": 6659,
    "▁conflicts": 6660,
    "▁dedicated": 6661,
    "▁detection": 6662,
    "▁determine": 6663,
    "▁disguised": 6664,
    "▁distances": 6665,
    "▁excavated": 6666,
    "▁follicles": 6667,
    "▁happiness": 6668,
    "▁interests": 6669,
    "▁labyrinth": 6670,
    "▁localized": 6671,
    "▁mysticism": 6672,
    "▁narrating": 6673,
    "▁notebooks": 6674,
    "▁obsession": 6675,
    "▁obsessive": 6676,
    "▁paragraph": 6677,
    "▁perceives": 6678,
    "▁perfectly": 6679,
    "▁pertinent": 6680,
    "▁practical": 6681,
    "▁preserved": 6682,
    "▁providing": 6683,
    "▁reflected": 6684,
    "▁regularly": 6685,
    "▁resembles": 6686,
    "▁scripture": 6687,
    "▁seemingly": 6688,
    "▁similarly": 6689,
    "▁slippages": 6690,
    "▁spiraling": 6691,
    "▁standards": 6692,
    "▁streaming": 6693,
    "▁struggled": 6694,
    "▁terrifies": 6695,
    "▁twitching": 6696,
    "▁universal": 6697,
    "▁unnatural": 6698,
    "▁Unprovided": 6699,
    "▁acceptable": 6700,
    "▁additional": 6701,
    "▁amateurish": 6702,
    "▁assumption": 6703,
    "▁attachment": 6704,
    "▁clustering": 6705,
    "▁conspiracy": 6706,
    "▁containing": 6707,
    "▁difficulty": 6708,
    "▁disastrous": 6709,
    "▁documented": 6710,
    "▁efficiency": 6711,
    "▁functional": 6712,
    "▁heightened": 6713,
    "▁increasing": 6714,
    "▁internally": 6715,
    "▁introduced": 6716,
    "▁ironically": 6717,
    "▁nightmares": 6718,
    "▁performing": 6719,
    "▁positively": 6720,
    "▁processing": 6721,
    "▁production": 6722,
    "▁protection": 6723,
    "▁purposeful": 6724,
    "▁represents": 6725,
    "▁resolution": 6726,
    "▁revelation": 6727,
    "▁scientific": 6728,
    "▁scriptures": 6729,
    "▁sculptures": 6730,
    "▁subsequent": 6731,
    "▁telepathic": 6732,
    "▁undeniable": 6733,
    "▁unforeseen": 6734,
    "▁vertically": 6735,
    "ronistically": 6736,
    "▁coincidence": 6737,
    "▁combination": 6738,
    "▁contributed": 6739,
    "▁desperation": 6740,
    "▁distinction": 6741,
    "▁dysfunction": 6742,
    "▁embarrassed": 6743,
    "▁excessively": 6744,
    "▁existential": 6745,
    "▁expressions": 6746,
    "▁frustration": 6747,
    "▁generations": 6748,
    "▁grandfather": 6749,
    "▁grandparent": 6750,
    "▁importantly": 6751,
    "▁inspiration": 6752,
    "▁interpreted": 6753,
    "▁interrupted": 6754,
    "▁limitations": 6755,
    "▁objectivity": 6756,
    "▁proceedings": 6757,
    "▁realization": 6758,
    "▁stalactites": 6759,
    "▁strangeness": 6760,
    "▁sustainable": 6761,
    "▁Hierarchical": 6762,
    "▁anticipation": 6763,
    "▁continuously": 6764,
    "▁difficulties": 6765,
    "▁expectations": 6766,
    "▁experimental": 6767,
    "▁manufacturer": 6768,
    "▁organization": 6769,
    "▁particularly": 6770,
    "▁subjectively": 6771,
    "▁subsidiaries": 6772,
    "▁Subversionist": 6773,
    "▁automatically": 6774,
    "▁consideration": 6775,
    "▁disintegrated": 6776,
    "▁hallucinating": 6777,
    "▁inevitability": 6778,
    "▁restructuring": 6779,
    "▁revolutionary": 6780,
    "▁individualized": 6781,
    "▁Synchronicities": 6782,
    "lo": 6783,
    "oi": 6784,
    "!!\"": 6785,
    "!).": 6786,
    "Boi": 6787,
    "CEO": 6788,
    "acc": 6789,
    "ael": 6790,
    "auc": 6791,
    "azy": 6792,
    "eye": 6793,
    "fty": 6794,
    "haw": 6795,
    "iac": 6796,
    "icy": 6797,
    "iev": 6798,
    "ige": 6799,
    "igg": 6800,
    "ios": 6801,
    "ixt": 6802,
    "low": 6803,
    "nag": 6804,
    "nes": 6805,
    "niv": 6806,
    "oft": 6807,
    "ops": 6808,
    "ste": 6809,
    "uge": 6810,
    "ugg": 6811,
    "vig": 6812,
    "▁Co": 6813,
    "▁DP": 6814,
    "▁OH": 6815,
    "▁VH": 6816,
    "▁il": 6817,
    "▁ra": 6818,
    "Dick": 6819,
    "Pear": 6820,
    "They": 6821,
    "Woah": 6822,
    "Your": 6823,
    "ares": 6824,
    "aunt": 6825,
    "axes": 6826,
    "bits": 6827,
    "case": 6828,
    "cogn": 6829,
    "corn": 6830,
    "dead": 6831,
    "door": 6832,
    "edia": 6833,
    "elve": 6834,
    "eria": 6835,
    "ffin": 6836,
    "fill": 6837,
    "gers": 6838,
    "gged": 6839,
    "happ": 6840,
    "idue": 6841,
    "iere": 6842,
    "igns": 6843,
    "ihil": 6844,
    "inns": 6845,
    "irls": 6846,
    "keep": 6847,
    "lers": 6848,
    "math": 6849,
    "olts": 6850,
    "omen": 6851,
    "onts": 6852,
    "osop": 6853,
    "pain": 6854,
    "peak": 6855,
    "plex": 6856,
    "plif": 6857,
    "pour": 6858,
    "rils": 6859,
    "ruly": 6860,
    "sets": 6861,
    "than": 6862,
    "tory": 6863,
    "umph": 6864,
    "umst": 6865,
    "upon": 6866,
    "vice": 6867,
    "west": 6868,
    "▁Cap": 6869,
    "▁Meg": 6870,
    "▁Rel": 6871,
    "▁Spl": 6872,
    "▁Ter": 6873,
    "▁VHS": 6874,
    "▁Vac": 6875,
    "▁ban": 6876,
    "▁biz": 6877,
    "▁box": 6878,
    "Let": 6879,
    "ean": 6880,
    "got": 6881,
    "oof": 6882,
    "roc": 6883,
    "rum": 6884,
    "ued": 6885,
    "▁Te": 6886,
    "alue": 6887,
    "bage": 6888,
    "inct": 6889,
    "olen": 6890,
    "oles": 6891,
    "oooo": 6892,
    "some": 6893,
    "very": 6894,
    "will": 6895,
    "▁Get": 6896,
    "▁bow": 6897,
    "▁bra": 6898,
    "▁cul": 6899,
    "▁cup": 6900,
    "▁dog": 6901,
    "▁eer": 6902,
    "▁era": 6903,
    "▁fle": 6904,
    "▁fog": 6905,
    "▁fut": 6906,
    "▁gab": 6907,
    "▁guy": 6908,
    "▁ilk": 6909,
    "▁jag": 6910,
    "▁lun": 6911,
    "▁lyr": 6912,
    "▁nav": 6913,
    "▁oak": 6914,
    "▁sof": 6915,
    "▁sto": 6916,
    "▁thw": 6917,
    "▁tro": 6918,
    "▁tyr": 6919,
    "▁wag": 6920,
    "▁wow": 6921,
    "Hello": 6922,
    "State": 6923,
    "Where": 6924,
    "acles": 6925,
    "adequ": 6926,
    "after": 6927,
    "alian": 6928,
    "anger": 6929,
    "anyon": 6930,
    "aping": 6931,
    "asses": 6932,
    "astas": 6933,
    "athed": 6934,
    "atics": 6935,
    "ayden": 6936,
    "azine": 6937,
    "balls": 6938,
    "black": 6939,
    "celer": 6940,
    "chers": 6941,
    "class": 6942,
    "conds": 6943,
    "cript": 6944,
    "death": 6945,
    "embod": 6946,
    "enery": 6947,
    "enses": 6948,
    "eople": 6949,
    "eprec": 6950,
    "epsie": 6951,
    "erate": 6952,
    "eriol": 6953,
    "gated": 6954,
    "gging": 6955,
    "ginal": 6956,
    "gling": 6957,
    "hered": 6958,
    "hevel": 6959,
    "hmmmm": 6960,
    "ifies": 6961,
    "imace": 6962,
    "inder": 6963,
    "itect": 6964,
    "itude": 6965,
    "ivist": 6966,
    "lined": 6967,
    "mical": 6968,
    "nagog": 6969,
    "named": 6970,
    "niest": 6971,
    "night": 6972,
    "oding": 6973,
    "olved": 6974,
    "ommon": 6975,
    "onism": 6976,
    "oresc": 6977,
    "oured": 6978,
    "As": 6979,
    "Not": 6980,
    "Sit": 6981,
    "ads": 6982,
    "bes": 6983,
    "chy": 6984,
    "etr": 6985,
    "his": 6986,
    "och": 6987,
    "rew": 6988,
    "rid": 6989,
    "ros": 6990,
    "une": 6991,
    "urb": 6992,
    "zag": 6993,
    "▁om": 6994,
    "Like": 6995,
    "aper": 6996,
    "avel": 6997,
    "cult": 6998,
    "eshy": 6999,
    "ians": 7000,
    "ibst": 7001,
    "init": 7002,
    "iors": 7003,
    "made": 7004,
    "rier": 7005,
    "rist": 7006,
    "▁Imp": 7007,
    "▁Spe": 7008,
    "▁cot": 7009,
    "▁mim": 7010,
    "▁nut": 7011,
    "▁wed": 7012,
    "Gibst": 7013,
    "allic": 7014,
    "alore": 7015,
    "ficit": 7016,
    "pathy": 7017,
    "reeze": 7018,
    "riage": 7019,
    "sorry": 7020,
    "there": 7021,
    "uated": 7022,
    "ucing": 7023,
    "wered": 7024,
    "white": 7025,
    "words": 7026,
    "▁Area": 7027,
    "▁Aust": 7028,
    "▁Bell": 7029,
    "▁Bill": 7030,
    "▁Buck": 7031,
    "▁Calm": 7032,
    "▁Conf": 7033,
    "▁Duck": 7034,
    "▁Econ": 7035,
    "▁Fant": 7036,
    "▁Fool": 7037,
    "▁Fore": 7038,
    "▁Happ": 7039,
    "▁Hate": 7040,
    "▁Hold": 7041,
    "▁Holy": 7042,
    "▁Move": 7043,
    "▁Much": 7044,
    "▁Name": 7045,
    "▁Oper": 7046,
    "▁Pain": 7047,
    "▁Pref": 7048,
    "▁Room": 7049,
    "▁Shot": 7050,
    "▁Shut": 7051,
    "▁Slop": 7052,
    "▁Sort": 7053,
    "▁Spec": 7054,
    "▁Supp": 7055,
    "▁Sure": 7056,
    "▁Ways": 7057,
    "▁West": 7058,
    "▁Woah": 7059,
    "▁Writ": 7060,
    "▁abdu": 7061,
    "▁ages": 7062,
    "▁agre": 7063,
    "▁amok": 7064,
    "▁atom": 7065,
    "▁atte": 7066,
    "▁beer": 7067,
    "▁bias": 7068,
    "▁bite": 7069,
    "▁brid": 7070,
    "▁brow": 7071,
    "▁burd": 7072,
    "▁cack": 7073,
    "▁cake": 7074,
    "▁calc": 7075,
    "▁cash": 7076,
    "▁clue": 7077,
    "▁cosm": 7078,
    "Al": 7079,
    "Of": 7080,
    "Ph": 7081,
    "Se": 7082,
    "Was": 7083,
    "asc": 7084,
    "ked": 7085,
    "kes": 7086,
    "ork": 7087,
    "▁Po": 7088,
    "▁ba": 7089,
    "aser": 7090,
    "etic": 7091,
    "hery": 7092,
    "icer": 7093,
    "icle": 7094,
    "lish": 7095,
    "nger": 7096,
    "odal": 7097,
    "olic": 7098,
    "oose": 7099,
    "oral": 7100,
    "umes": 7101,
    "uper": 7102,
    "▁Ain": 7103,
    "▁Wow": 7104,
    "▁bor": 7105,
    "▁ink": 7106,
    "▁lan": 7107,
    "▁rab": 7108,
    "athem": 7109,
    "orate": 7110,
    "ptive": 7111,
    "ravel": 7112,
    "▁Morm": 7113,
    "▁Prit": 7114,
    "▁crad": 7115,
    "▁cram": 7116,
    "▁cure": 7117,
    "▁deem": 7118,
    "▁degr": 7119,
    "▁disg": 7120,
    "▁dish": 7121,
    "▁doct": 7122,
    "▁drun": 7123,
    "▁dual": 7124,
    "▁elev": 7125,
    "▁ench": 7126,
    "▁ende": 7127,
    "▁exec": 7128,
    "▁eyed": 7129,
    "▁fash": 7130,
    "▁folk": 7131,
    "▁fort": 7132,
    "▁gaps": 7133,
    "▁gaze": 7134,
    "▁girl": 7135,
    "▁grew": 7136,
    "▁hath": 7137,
    "▁hint": 7138,
    "▁hire": 7139,
    "▁hits": 7140,
    "▁hunt": 7141,
    "▁inqu": 7142,
    "▁join": 7143,
    "▁kept": 7144,
    "▁kick": 7145,
    "▁lamb": 7146,
    "▁lays": 7147,
    "▁lets": 7148,
    "▁loos": 7149,
    "▁lots": 7150,
    "▁magn": 7151,
    "▁mala": 7152,
    "▁meat": 7153,
    "▁mini": 7154,
    "▁moth": 7155,
    "▁neon": 7156,
    "▁nest": 7157,
    "▁neur": 7158,
    "▁nice": 7159,
    "▁nose": 7160,
    "▁pale": 7161,
    "▁peek": 7162,
    "▁plug": 7163,
    "▁pois": 7164,
    "▁poke": 7165,
    "▁prem": 7166,
    "▁prod": 7167,
    "▁rate": 7168,
    "▁ridd": 7169,
    "▁road": 7170,
    "▁role": 7171,
    "▁rope": 7172,
    "▁rows": 7173,
    "▁safe": 7174,
    "▁sale": 7175,
    "▁sear": 7176,
    "▁seek": 7177,
    "▁sett": 7178,
    "He": 7179,
    "Tr": 7180,
    "ws": 7181,
    "Cor": 7182,
    "bor": 7183,
    "ege": 7184,
    "had": 7185,
    "hem": 7186,
    "jud": 7187,
    "new": 7188,
    "arts": 7189,
    "ateg": 7190,
    "atin": 7191,
    "ding": 7192,
    "ette": 7193,
    "iven": 7194,
    "oted": 7195,
    "▁Day": 7196,
    "▁Got": 7197,
    "▁Tol": 7198,
    "▁Tre": 7199,
    "▁fum": 7200,
    "Maybe": 7201,
    "asons": 7202,
    "istle": 7203,
    "ology": 7204,
    "uding": 7205,
    "▁Anim": 7206,
    "▁Poor": 7207,
    "▁brag": 7208,
    "▁dart": 7209,
    "▁lean": 7210,
    "▁mamn": 7211,
    "▁poly": 7212,
    "▁pose": 7213,
    "▁rode": 7214,
    "▁slap": 7215,
    "▁slob": 7216,
    "▁sole": 7217,
    "▁solo": 7218,
    "▁spun": 7219,
    "▁sway": 7220,
    "▁tall": 7221,
    "▁team": 7222,
    "▁tied": 7223,
    "▁twin": 7224,
    "▁verb": 7225,
    "▁vica": 7226,
    "▁vice": 7227,
    "▁wadd": 7228,
    "▁wave": 7229,
    "▁wore": 7230,
    "▁zone": 7231,
    "Arieol": 7232,
    "alties": 7233,
    "aneous": 7234,
    "anking": 7235,
    "antage": 7236,
    "arshly": 7237,
    "atable": 7238,
    "aterer": 7239,
    "coming": 7240,
    "contin": 7241,
    "deprec": 7242,
    "elling": 7243,
    "ements": 7244,
    "ertips": 7245,
    "gorith": 7246,
    "growth": 7247,
    "herman": 7248,
    "iances": 7249,
    "icians": 7250,
    "icular": 7251,
    "icured": 7252,
    "inated": 7253,
    "istory": 7254,
    "ixture": 7255,
    "mester": 7256,
    "omatic": 7257,
    "onally": 7258,
    "orange": 7259,
    "orical": 7260,
    "orient": 7261,
    "osedly": 7262,
    "perial": 7263,
    "preced": 7264,
    "quered": 7265,
    "rawled": 7266,
    "rickle": 7267,
    "ritory": 7268,
    "stacle": 7269,
    "stream": 7270,
    "teller": 7271,
    "ulence": 7272,
    "utions": 7273,
    "velace": 7274,
    "versed": 7275,
    "writer": 7276,
    "ysical": 7277,
    "▁Above": 7278,
    "▁Angel": 7279,
    "▁Child": 7280,
    "▁Could": 7281,
    "▁Funny": 7282,
    "▁Goose": 7283,
    "▁Light": 7284,
    "▁Order": 7285,
    "▁Since": 7286,
    "▁Sleep": 7287,
    "▁Sound": 7288,
    "▁State": 7289,
    "▁Thank": 7290,
    "▁Tower": 7291,
    "▁Truly": 7292,
    "▁Vault": 7293,
    "▁Weird": 7294,
    "▁accru": 7295,
    "▁agree": 7296,
    "▁alche": 7297,
    "▁alike": 7298,
    "▁aloft": 7299,
    "▁arrog": 7300,
    "▁basic": 7301,
    "▁birds": 7302,
    "▁bitch": 7303,
    "▁bleed": 7304,
    "▁blend": 7305,
    "▁bloom": 7306,
    "▁blown": 7307,
    "▁bonds": 7308,
    "▁bored": 7309,
    "▁brown": 7310,
    "▁brush": 7311,
    "▁buses": 7312,
    "▁cacti": 7313,
    "▁cheek": 7314,
    "▁chunk": 7315,
    "▁cited": 7316,
    "▁claws": 7317,
    "▁climb": 7318,
    "▁clock": 7319,
    "▁comic": 7320,
    "▁compl": 7321,
    "▁cough": 7322,
    "▁crazy": 7323,
    "▁creed": 7324,
    "▁cries": 7325,
    "▁crime": 7326,
    "▁criss": 7327,
    "▁crown": 7328,
    "▁debts": 7329,
    "▁decre": 7330,
    "▁deity": 7331,
    "▁desce": 7332,
    "▁diagn": 7333,
    "▁drawn": 7334,
    "▁drops": 7335,
    "▁eaten": 7336,
    "▁eerie": 7337,
    "▁enact": 7338,
    "▁ended": 7339,
    "▁enemy": 7340,
    "▁entry": 7341,
    "▁exits": 7342,
    "▁fears": 7343,
    "▁fence": 7344,
    "▁fight": 7345,
    "▁files": 7346,
    "▁flies": 7347,
    "▁flows": 7348,
    "▁folds": 7349,
    "▁foxes": 7350,
    "▁glory": 7351,
    "▁goods": 7352,
    "▁grace": 7353,
    "▁grips": 7354,
    "▁guest": 7355,
    "▁gulps": 7356,
    "▁hated": 7357,
    "▁hills": 7358,
    "▁illus": 7359,
    "▁imply": 7360,
    "▁indic": 7361,
    "▁ingen": 7362,
    "▁input": 7363,
    "▁joint": 7364,
    "▁jowls": 7365,
    "▁judge": 7366,
    "▁jumps": 7367,
    "▁knife": 7368,
    "▁knobs": 7369,
    "▁lacks": 7370,
    "▁lasts": 7371,
    "▁limbs": 7372,
    "▁lones": 7373,
    "▁loose": 7374,
    "▁loser": 7375,
    "▁lover": 7376,
    "▁manus": 7377,
    "▁mirth": 7378,
    "▁mound": 7379,
    "▁music": 7380,
    "▁naive": 7381,
    "▁nodes": 7382,
    "▁occas": 7383,
    "▁orbit": 7384,
    "▁paran": 7385,
    "▁phase": 7386,
    "▁photo": 7387,
    "▁picks": 7388,
    "▁pipes": 7389,
    "▁plush": 7390,
    "▁poles": 7391,
    "▁price": 7392,
    "▁rapid": 7393,
    "▁react": 7394,
    "▁realm": 7395,
    "▁rhyth": 7396,
    "▁rocks": 7397,
    "▁roots": 7398,
    "▁schol": 7399,
    "▁scram": 7400,
    "▁scrat": 7401,
    "▁shack": 7402,
    "▁shaky": 7403,
    "▁sharp": 7404,
    "▁shell": 7405,
    "▁shimm": 7406,
    "▁shirt": 7407,
    "▁shops": 7408,
    "▁shots": 7409,
    "▁songs": 7410,
    "▁sorta": 7411,
    "▁spont": 7412,
    "▁stacc": 7413,
    "▁stair": 7414,
    "▁study": 7415,
    "▁swims": 7416,
    "▁swing": 7417,
    "▁swirl": 7418,
    "▁sworn": 7419,
    "▁swung": 7420,
    "▁tense": 7421,
    "▁theor": 7422,
    "▁tools": 7423,
    "▁tower": 7424,
    "▁trade": 7425,
    "▁trips": 7426,
    "▁twice": 7427,
    "▁unres": 7428,
    "▁untam": 7429,
    "▁value": 7430,
    "▁video": 7431,
    "▁virus": 7432,
    "▁wears": 7433,
    "▁weepy": 7434,
    "Phillip": 7435,
    "Seconds": 7436,
    "ainable": 7437,
    "atching": 7438,
    "aughter": 7439,
    "avering": 7440,
    "capable": 7441,
    "colored": 7442,
    "correct": 7443,
    "endless": 7444,
    "entimes": 7445,
    "fucking": 7446,
    "heveled": 7447,
    "ictable": 7448,
    "ifiable": 7449,
    "istance": 7450,
    "looking": 7451,
    "mbolism": 7452,
    "mission": 7453,
    "nagogic": 7454,
    "ountain": 7455,
    "pically": 7456,
    "plifier": 7457,
    "rection": 7458,
    "ructive": 7459,
    "sidiary": 7460,
    "uations": 7461,
    "ulative": 7462,
    "undated": 7463,
    "versity": 7464,
    "voluted": 7465,
    "working": 7466,
    "▁Action": 7467,
    "▁Aeriol": 7468,
    "▁Almost": 7469,
    "▁Anyone": 7470,
    "▁Brandi": 7471,
    "▁Canyon": 7472,
    "▁Contin": 7473,
    "▁Donald": 7474,
    "▁During": 7475,
    "▁Forget": 7476,
    "▁Future": 7477,
    "▁Mining": 7478,
    "▁Mister": 7479,
    "▁Mystic": 7480,
    "▁People": 7481,
    "▁Rather": 7482,
    "▁Spring": 7483,
    "▁Valley": 7484,
    "▁Vision": 7485,
    "▁Willis": 7486,
    "▁Within": 7487,
    "▁actors": 7488,
    "▁afford": 7489,
    "▁apolog": 7490,
    "▁assets": 7491,
    "▁attack": 7492,
    "▁autobi": 7493,
    "▁behalf": 7494,
    "▁belief": 7495,
    "▁bitter": 7496,
    "▁blurts": 7497,
    "▁bother": 7498,
    "▁career": 7499,
    "▁carniv": 7500,
    "▁causal": 7501,
    "▁cavern": 7502,
    "▁cement": 7503,
    "▁cheeks": 7504,
    "▁clever": 7505,
    "▁closes": 7506,
    "▁coffin": 7507,
    "▁column": 7508,
    "▁condem": 7509,
    "▁conver": 7510,
    "▁crisis": 7511,
    "▁damage": 7512,
    "▁debate": 7513,
    "▁deeper": 7514,
    "▁depend": 7515,
    "▁disord": 7516,
    "▁doubts": 7517,
    "▁effort": 7518,
    "▁emerge": 7519,
    "▁employ": 7520,
    "▁erupts": 7521,
    "▁exited": 7522,
    "▁extend": 7523,
    "▁fields": 7524,
    "▁financ": 7525,
    "▁flawed": 7526,
    "▁fleshy": 7527,
    "▁floats": 7528,
    "▁flying": 7529,
    "▁follow": 7530,
    "▁fronts": 7531,
    "▁galore": 7532,
    "▁gaslit": 7533,
    "▁gettin": 7534,
    "▁glance": 7535,
    "▁gravel": 7536,
    "▁habits": 7537,
    "▁harder": 7538,
    "▁hatred": 7539,
    "▁headed": 7540,
    "▁health": 7541,
    "▁hollow": 7542,
    "▁homage": 7543,
    "▁hovers": 7544,
    "▁hunger": 7545,
    "▁hungry": 7546,
    "▁jagged": 7547,
    "▁latter": 7548,
    "▁linked": 7549,
    "▁lyrics": 7550,
    "▁marble": 7551,
    "▁marvel": 7552,
    "▁mathem": 7553,
    "▁midway": 7554,
    "▁nausea": 7555,
    "▁nearby": 7556,
    "▁notion": 7557,
    "▁orient": 7558,
    "▁output": 7559,
    "▁overth": 7560,
    "▁paraly": 7561,
    "▁pearls": 7562,
    "▁perman": 7563,
    "▁petals": 7564,
    "▁plates": 7565,
    "▁pocket": 7566,
    "▁police": 7567,
    "▁posing": 7568,
    "▁poured": 7569,
    "▁prepar": 7570,
    "▁pulled": 7571,
    "▁refers": 7572,
    "▁remade": 7573,
    "▁resist": 7574,
    "▁riders": 7575,
    "▁ripple": 7576,
    "▁scenar": 7577,
    "▁shitty": 7578,
    "▁shoved": 7579,
    "▁sketch": 7580,
    "▁sleeve": 7581,
    "▁spills": 7582,
    "▁sprawl": 7583,
    "▁square": 7584,
    "▁stable": 7585,
    "▁stasis": 7586,
    "▁status": 7587,
    "▁stolen": 7588,
    "▁stoned": 7589,
    "▁stones": 7590,
    "▁string": 7591,
    "▁swirls": 7592,
    "▁switch": 7593,
    "▁tables": 7594,
    "▁talent": 7595,
    "▁thrill": 7596,
    "▁tricks": 7597,
    "▁tumble": 7598,
    "▁twitch": 7599,
    "▁unorig": 7600,
    "▁values": 7601,
    "▁videos": 7602,
    "▁viewed": 7603,
    "▁visage": 7604,
    "▁warped": 7605,
    "▁wasted": 7606,
    "▁watery": 7607,
    "▁wheels": 7608,
    "▁writes": 7609,
    "ccording": 7610,
    "controll": 7611,
    "ffectual": 7612,
    "itecture": 7613,
    "ocalypse": 7614,
    "organize": 7615,
    "peakable": 7616,
    "pendence": 7617,
    "position": 7618,
    "referent": 7619,
    "ructions": 7620,
    "shifting": 7621,
    "▁America": 7622,
    "▁Brayden": 7623,
    "▁Captain": 7624,
    "▁Certain": 7625,
    "▁Descent": 7626,
    "▁Diaries": 7627,
    "▁English": 7628,
    "▁Grimace": 7629,
    "▁Happens": 7630,
    "▁Initial": 7631,
    "▁Italian": 7632,
    "▁Preface": 7633,
    "▁Prickle": 7634,
    "▁Special": 7635,
    "▁Tempest": 7636,
    "▁Whoever": 7637,
    "▁Writing": 7638,
    "▁acceler": 7639,
    "▁account": 7640,
    "▁adopted": 7641,
    "▁annoyed": 7642,
    "▁anytime": 7643,
    "▁articul": 7644,
    "▁ascends": 7645,
    "▁baffled": 7646,
    "▁biggest": 7647,
    "▁blazing": 7648,
    "▁briefly": 7649,
    "▁brittle": 7650,
    "▁brother": 7651,
    "▁careful": 7652,
    "▁chamber": 7653,
    "▁chronic": 7654,
    "▁closely": 7655,
    "▁college": 7656,
    "▁concern": 7657,
    "▁consume": 7658,
    "▁coupled": 7659,
    "▁crosses": 7660,
    "▁crystal": 7661,
    "▁curtain": 7662,
    "▁dancing": 7663,
    "▁dealing": 7664,
    "▁defunct": 7665,
    "▁descent": 7666,
    "▁designs": 7667,
    "▁digging": 7668,
    "▁dollars": 7669,
    "▁dreamer": 7670,
    "▁drivers": 7671,
    "▁dynamic": 7672,
    "▁echoing": 7673,
    "▁enforce": 7674,
    "▁entrain": 7675,
    "▁essence": 7676,
    "▁exiting": 7677,
    "▁exposed": 7678,
    "▁extreme": 7679,
    "▁factual": 7680,
    "▁flashes": 7681,
    "▁follows": 7682,
    "▁fractal": 7683,
    "▁framing": 7684,
    "▁freaked": 7685,
    "▁funding": 7686,
    "▁garbage": 7687,
    "▁gestalt": 7688,
    "▁granite": 7689,
    "▁gravity": 7690,
    "▁harshly": 7691,
    "▁heaving": 7692,
    "▁helpful": 7693,
    "▁history": 7694,
    "▁ignited": 7695,
    "▁ignored": 7696,
    "▁inadequ": 7697,
    "▁induced": 7698,
    "▁inhabit": 7699,
    "▁intimid": 7700,
    "▁kingdom": 7701,
    "▁labeled": 7702,
    "▁limited": 7703,
    "▁lingers": 7704,
    "▁linking": 7705,
    "▁logging": 7706,
    "▁malaise": 7707,
    "▁massive": 7708,
    "▁melting": 7709,
    "▁message": 7710,
    "▁musical": 7711,
    "▁mutters": 7712,
    "▁nestled": 7713,
    "▁nowhere": 7714,
    "▁obscure": 7715,
    "▁outline": 7716,
    "▁painful": 7717,
    "▁plunder": 7718,
    "▁popcorn": 7719,
    "▁pulsing": 7720,
    "▁quietly": 7721,
    "▁rebuild": 7722,
    "▁recover": 7723,
    "▁rectang": 7724,
    "▁residue": 7725,
    "▁resorts": 7726,
    "▁revenue": 7727,
    "▁reviews": 7728,
    "▁rolling": 7729,
    "▁scatter": 7730,
    "▁scenery": 7731,
    "▁secrecy": 7732,
    "▁secrets": 7733,
    "▁shadows": 7734,
    "▁shivers": 7735,
    "▁sincere": 7736,
    "▁snaking": 7737,
    "▁snapped": 7738,
    "▁stacked": 7739,
    "▁staying": 7740,
    "▁stopped": 7741,
    "▁stumble": 7742,
    "▁swaying": 7743,
    "▁tensing": 7744,
    "▁textual": 7745,
    "▁theatre": 7746,
    "▁tonight": 7747,
    "▁touches": 7748,
    "▁trailbl": 7749,
    "▁triumph": 7750,
    "▁unravel": 7751,
    "▁unstrap": 7752,
    "▁updated": 7753,
    "▁vaguely": 7754,
    "▁venture": 7755,
    "▁viewing": 7756,
    "▁western": 7757,
    "▁wishing": 7758,
    "▁yelling": 7759,
    "▁younger": 7760,
    "Corporate": 7761,
    "Situation": 7762,
    "construct": 7763,
    "fictional": 7764,
    "initiated": 7765,
    "modernism": 7766,
    "rehensive": 7767,
    "screening": 7768,
    "umstances": 7769,
    "velopment": 7770,
    "▁Analysts": 7771,
    "▁Everyone": 7772,
    "▁Jackaroo": 7773,
    "▁Language": 7774,
    "▁Lovelace": 7775,
    "▁Movement": 7776,
    "▁Speaking": 7777,
    "▁accessed": 7778,
    "▁acquired": 7779,
    "▁advances": 7780,
    "▁algorith": 7781,
    "▁allowing": 7782,
    "▁analysts": 7783,
    "▁answered": 7784,
    "▁applying": 7785,
    "▁billions": 7786,
    "▁blending": 7787,
    "▁blinking": 7788,
    "▁bubbling": 7789,
    "▁centered": 7790,
    "▁churning": 7791,
    "▁climbing": 7792,
    "▁clusters": 7793,
    "▁coasters": 7794,
    "▁colonial": 7795,
    "▁computer": 7796,
    "▁concerns": 7797,
    "▁connects": 7798,
    "▁consumed": 7799,
    "▁consumer": 7800,
    "▁contrary": 7801,
    "▁cradling": 7802,
    "▁crawling": 7803,
    "▁crevices": 7804,
    "▁crystall": 7805,
    "▁cultural": 7806,
    "▁customer": 7807,
    "▁deciding": 7808,
    "▁declared": 7809,
    "▁defeated": 7810,
    "▁deficits": 7811,
    "▁deserves": 7812,
    "▁detailed": 7813,
    "▁disembod": 7814,
    "▁division": 7815,
    "▁downpour": 7816,
    "▁drooling": 7817,
    "▁embraced": 7818,
    "▁esoteric": 7819,
    "▁evaluate": 7820,
    "▁evidence": 7821,
    "▁exciting": 7822,
    "▁eyeballs": 7823,
    "▁eyesight": 7824,
    "▁featured": 7825,
    "▁firework": 7826,
    "▁flapping": 7827,
    "▁fluoresc": 7828,
    "▁forehead": 7829,
    "▁frontier": 7830,
    "▁funniest": 7831,
    "▁gleaming": 7832,
    "▁glimpses": 7833,
    "▁gracious": 7834,
    "▁grasping": 7835,
    "▁grinding": 7836,
    "▁grumbles": 7837,
    "▁highways": 7838,
    "▁horrific": 7839,
    "▁humanity": 7840,
    "▁ignoring": 7841,
    "▁imbecile": 7842,
    "▁impacted": 7843,
    "▁imperial": 7844,
    "▁improvis": 7845,
    "▁incident": 7846,
    "▁infamous": 7847,
    "▁interact": 7848,
    "▁intimacy": 7849,
    "▁intimate": 7850,
    "▁isolated": 7851,
    "▁laughter": 7852,
    "▁lighting": 7853,
    "▁listened": 7854,
    "▁lonesome": 7855,
    "▁marriage": 7856,
    "▁meanings": 7857,
    "▁mentions": 7858,
    "▁metastas": 7859,
    "▁millions": 7860,
    "▁mythical": 7861,
    "▁nameless": 7862,
    "▁nostrils": 7863,
    "▁noticing": 7864,
    "▁pictures": 7865,
    "▁pleasure": 7866,
    "▁plummets": 7867,
    "▁prepared": 7868,
    "▁prompted": 7869,
    "▁railings": 7870,
    "▁railroad": 7871,
    "▁register": 7872,
    "▁rejected": 7873,
    "▁remotely": 7874,
    "▁retreats": 7875,
    "▁rotating": 7876,
    "▁searches": 7877,
    "▁semester": 7878,
    "▁sinister": 7879,
    "▁slightly": 7880,
    "▁slippage": 7881,
    "▁sloshing": 7882,
    "▁sneaking": 7883,
    "▁softness": 7884,
    "▁solution": 7885,
    "▁speeding": 7886,
    "▁splinter": 7887,
    "▁steering": 7888,
    "▁stifling": 7889,
    "▁suggests": 7890,
    "▁swimming": 7891,
    "▁tendency": 7892,
    "▁theaters": 7893,
    "▁threaten": 7894,
    "▁throwing": 7895,
    "▁totality": 7896,
    "▁trailing": 7897,
    "▁trembles": 7898,
    "▁tumbling": 7899,
    "▁unmoving": 7900,
    "▁unpreced": 7901,
    "▁variance": 7902,
    "▁worrying": 7903,
    "▁wrinkles": 7904,
    "elligences": 7905,
    "ifications": 7906,
    "▁Attention": 7907,
    "▁Corporate": 7908,
    "▁Documents": 7909,
    "▁Mormonism": 7910,
    "▁Sensitive": 7911,
    "▁Treasures": 7912,
    "▁Waterfall": 7913,
    "▁achieving": 7914,
    "▁adjusting": 7915,
    "▁advantage": 7916,
    "▁aftermath": 7917,
    "▁amorphous": 7918,
    "▁amplifier": 7919,
    "▁analyzing": 7920,
    "▁announcer": 7921,
    "▁appealing": 7922,
    "▁backwards": 7923,
    "▁behaviors": 7924,
    "▁believers": 7925,
    "▁brightens": 7926,
    "▁capturing": 7927,
    "▁challenge": 7928,
    "▁chatterer": 7929,
    "▁collector": 7930,
    "▁conceived": 7931,
    "▁conjuring": 7932,
    "▁conquered": 7933,
    "▁contacted": 7934,
    "▁continual": 7935,
    "▁corrected": 7936,
    "▁creditors": 7937,
    "▁customers": 7938,
    "▁declining": 7939,
    "▁designers": 7940,
    "▁developer": 7941,
    "▁dishonest": 7942,
    "▁dismissal": 7943,
    "▁displayed": 7944,
    "▁diversity": 7945,
    "▁dominated": 7946,
    "▁effective": 7947,
    "▁elsewhere": 7948,
    "▁emptiness": 7949,
    "▁energetic": 7950,
    "▁enveloped": 7951,
    "▁establish": 7952,
    "▁eternally": 7953,
    "▁expansion": 7954,
    "▁expansive": 7955,
    "▁expecting": 7956,
    "▁fisherman": 7957,
    "▁functions": 7958,
    "▁headphone": 7959,
    "▁immediate": 7960,
    "▁immersion": 7961,
    "▁increased": 7962,
    "▁inhabited": 7963,
    "▁locations": 7964,
    "▁magically": 7965,
    "▁manicured": 7966,
    "▁masterpie": 7967,
    "▁memorable": 7968,
    "▁minimally": 7969,
    "▁molecules": 7970,
    "▁nostalgia": 7971,
    "▁notorious": 7972,
    "▁operators": 7973,
    "▁organisms": 7974,
    "▁overworld": 7975,
    "▁parenting": 7976,
    "▁performed": 7977,
    "▁pretended": 7978,
    "▁recording": 7979,
    "▁referring": 7980,
    "▁relegated": 7981,
    "▁replacing": 7982,
    "▁reservoir": 7983,
    "▁respected": 7984,
    "▁royalties": 7985,
    "▁sacrifice": 7986,
    "▁secondary": 7987,
    "▁slightest": 7988,
    "▁spotlight": 7989,
    "▁stability": 7990,
    "▁suffering": 7991,
    "▁surrounds": 7992,
    "▁sustained": 7993,
    "▁symbolism": 7994,
    "▁symbolize": 7995,
    "▁talkative": 7996,
    "▁territory": 7997,
    "▁therapist": 7998,
    "▁unknowing": 7999,
    "▁vacations": 8000,
    "▁variation": 8001,
    "▁whereupon": 8002,
    "inguishable": 8003,
    "referential": 8004,
    "▁Gibstorial": 8005,
    "▁Scherazade": 8006,
    "▁Subsidiary": 8007,
    "▁acceptance": 8008,
    "▁accidental": 8009,
    "▁addressing": 8010,
    "▁admittedly": 8011,
    "▁alchemical": 8012,
    "▁analytical": 8013,
    "▁anticipate": 8014,
    "▁circulated": 8015,
    "▁clattering": 8016,
    "▁comforting": 8017,
    "▁companions": 8018,
    "▁conference": 8019,
    "▁containers": 8020,
    "▁continuous": 8021,
    "▁convoluted": 8022,
    "▁describing": 8023,
    "▁destroying": 8024,
    "▁diagonally": 8025,
    "▁directions": 8026,
    "▁disgusting": 8027,
    "▁disheveled": 8028,
    "▁distracted": 8029,
    "▁extinction": 8030,
    "▁fingertips": 8031,
    "▁foreground": 8032,
    "▁frustrated": 8033,
    "▁gibseydamn": 8034,
    "▁harnessing": 8035,
    "▁hypnagogic": 8036,
    "▁iconically": 8037,
    "▁illuminate": 8038,
    "▁immaterial": 8039,
    "▁impression": 8040,
    "▁infinitely": 8041,
    "▁influenced": 8042,
    "▁inwardness": 8043,
    "▁mainstream": 8044,
    "▁manipulate": 8045,
    "▁manuscript": 8046,
    "▁monumental": 8047,
    "▁mysterious": 8048,
    "▁mystically": 8049,
    "▁objectives": 8050,
    "▁oftentimes": 8051,
    "▁operations": 8052,
    "▁personhood": 8053,
    "▁physically": 8054,
    "▁popularity": 8055,
    "▁possession": 8056,
    "▁practicing": 8057,
    "▁productive": 8058,
    "▁programmed": 8059,
    "▁properties": 8060,
    "▁recognized": 8061,
    "▁recognizes": 8062,
    "▁redundancy": 8063,
    "▁regretting": 8064,
    "▁reinforced": 8065,
    "▁relatively": 8066,
    "▁scribbling": 8067,
    "▁sensations": 8068,
    "▁shimmering": 8069,
    "▁singularly": 8070,
    "▁sputtering": 8071,
    "▁surrounded": 8072,
    "▁transforms": 8073,
    "▁typewriter": 8074,
    "▁ubiquitous": 8075,
    "▁unresolved": 8076,
    "▁vibrations": 8077,
    "▁waterfalls": 8078,
    "▁anticipated": 8079,
    "▁appreciated": 8080,
    "▁assumptions": 8081,
    "▁beautifully": 8082,
    "▁cannibalism": 8083,
    "▁collectives": 8084,
    "▁communities": 8085,
    "▁conceivable": 8086,
    "▁conditioned": 8087,
    "▁destruction": 8088,
    "▁destructive": 8089,
    "▁differently": 8090,
    "▁discussions": 8091,
    "▁financially": 8092,
    "▁fundamental": 8093,
    "▁implemented": 8094,
    "▁incorporate": 8095,
    "▁independent": 8096,
    "▁ineffectual": 8097,
    "▁interviewer": 8098,
    "▁maintenance": 8099,
    "▁monopolized": 8100,
    "▁multiplying": 8101,
    "▁pessimistic": 8102,
    "▁preparation": 8103,
    "▁progression": 8104,
    "▁recognition": 8105,
    "▁reconstruct": 8106,
    "▁reliability": 8107,
    "▁repetitions": 8108,
    "▁speculative": 8109,
    "▁storyteller": 8110,
    "▁substantial": 8111,
    "▁transcripts": 8112,
    "▁transported": 8113,
    "▁unfortunate": 8114,
    "▁unrealistic": 8115,
    "▁unspeakable": 8116,
    "Subversionist": 8117,
    "▁Subjectivity": 8118,
    "▁accomplished": 8119,
    "▁anticipating": 8120,
    "▁architecture": 8121,
    "▁colonization": 8122,
    "▁communicator": 8123,
    "▁complexities": 8124,
    "▁consistently": 8125,
    "▁constructing": 8126,
    "▁contemplated": 8127,
    "▁contributing": 8128,
    "▁definitively": 8129,
    "▁gibseydamnit": 8130,
    "▁grandparents": 8131,
    "▁individually": 8132,
    "▁instructions": 8133,
    "▁interpretive": 8134,
    "▁investigator": 8135,
    "▁manipulation": 8136,
    "▁metaphysical": 8137,
    "▁multiplicity": 8138,
    "▁necessitated": 8139,
    "▁resurrecting": 8140,
    "▁similarities": 8141,
    "▁successfully": 8142,
    "Subversionists": 8143,
    "▁Gibstorically": 8144,
    "▁cannibalistic": 8145,
    "▁civilizations": 8146,
    "▁communicative": 8147,
    "▁comprehensive": 8148,
    "▁contradiction": 8149,
    "▁corresponding": 8150,
    "▁incorporating": 8151,
    "▁misunderstood": 8152,
    "▁organizations": 8153,
    "▁repetitiously": 8154,
    "▁significantly": 8155,
    "▁uncomfortable": 8156,
    "▁unfamiliarity": 8157,
    "▁unfortunately": 8158,
    "▁unprecedented": 8159,
    "▁classification": 8160,
    "▁considerations": 8161,
    "▁entertainments": 8162,
    "▁instantaneously": 8163,
    "▁meaninglessness": 8164,
    "▁representations": 8165,
    "▁synchronicities": 8166,
    "▁underperforming": 8167,
    "!),": 8168,
    "?)-": 8169,
    "See": 8170,
    "ncy": 8171,
    "oia": 8172,
    "Year": 8173,
    "afts": 8174,
    "argu": 8175,
    "aucr": 8176,
    "aykh": 8177,
    "bomb": 8178,
    "born": 8179,
    "comp": 8180,
    "coon": 8181,
    "didn": 8182,
    "ehaw": 8183,
    "kins": 8184,
    "know": 8185,
    "lets": 8186,
    "lock": 8187,
    "mend": 8188,
    "note": 8189,
    "oked": 8190,
    "otee": 8191,
    "ouns": 8192,
    "ovie": 8193,
    "rigu": 8194,
    "ropy": 8195,
    "true": 8196,
    "uddy": 8197,
    "uffs": 8198,
    "wolf": 8199,
    "▁Abs": 8200,
    "▁Boy": 8201,
    "▁Bye": 8202,
    "▁Doe": 8203,
    "▁Haw": 8204,
    "▁Kab": 8205,
    "▁nuc": 8206,
    "▁rib": 8207,
    "▁ugl": 8208,
    "Sorry": 8209,
    "agedy": 8210,
    "agger": 8211,
    "agues": 8212,
    "alesc": 8213,
    "algic": 8214,
    "asket": 8215,
    "bbing": 8216,
    "chiev": 8217,
    "cores": 8218,
    "deaky": 8219,
    "elids": 8220,
    "enetr": 8221,
    "ernal": 8222,
    "evalu": 8223,
    "event": 8224,
    "faced": 8225,
    "flies": 8226,
    "floor": 8227,
    "glass": 8228,
    "hangs": 8229,
    "hesia": 8230,
    "hetic": 8231,
    "icule": 8232,
    "ideth": 8233,
    "iforn": 8234,
    "invis": 8235,
    "iotic": 8236,
    "leton": 8237,
    "marks": 8238,
    "omaly": 8239,
    "onomy": 8240,
    "oofus": 8241,
    "orcel": 8242,
    "ounce": 8243,
    "rials": 8244,
    "rilli": 8245,
    "rison": 8246,
    "ritch": 8247,
    "ropic": 8248,
    "shift": 8249,
    "shirt": 8250,
    "stein": 8251,
    "stige": 8252,
    "stros": 8253,
    "uests": 8254,
    "uffed": 8255,
    "umped": 8256,
    "vigil": 8257,
    "▁Also": 8258,
    "▁Club": 8259,
    "▁Ferr": 8260,
    "▁Gael": 8261,
    "▁Hawa": 8262,
    "▁Indo": 8263,
    "▁July": 8264,
    "▁Keds": 8265,
    "▁Lamp": 8266,
    "▁Serv": 8267,
    "▁Used": 8268,
    "▁Vert": 8269,
    "▁auto": 8270,
    "▁axes": 8271,
    "▁babe": 8272,
    "▁bags": 8273,
    "▁bane": 8274,
    "▁bird": 8275,
    "▁bobs": 8276,
    "▁bomb": 8277,
    "▁bowl": 8278,
    "azer": 8279,
    "eyes": 8280,
    "half": 8281,
    "iano": 8282,
    "ibey": 8283,
    "iian": 8284,
    "show": 8285,
    "▁zer": 8286,
    "aints": 8287,
    "empty": 8288,
    "jawed": 8289,
    "plets": 8290,
    "▁Deep": 8291,
    "▁Dian": 8292,
    "▁Mega": 8293,
    "▁Slip": 8294,
    "▁Tree": 8295,
    "▁boys": 8296,
    "▁chec": 8297,
    "▁cups": 8298,
    "▁dazz": 8299,
    "▁deny": 8300,
    "▁diam": 8301,
    "▁dips": 8302,
    "▁drag": 8303,
    "▁drew": 8304,
    "▁dumm": 8305,
    "▁eros": 8306,
    "▁flew": 8307,
    "▁fung": 8308,
    "▁genu": 8309,
    "▁glee": 8310,
    "▁huge": 8311,
    "▁hurl": 8312,
    "▁irre": 8313,
    "▁jury": 8314,
    "▁lapt": 8315,
    "▁limb": 8316,
    "▁mesh": 8317,
    "▁mugs": 8318,
    "▁mumm": 8319,
    "▁musk": 8320,
    "▁narc": 8321,
    "▁navy": 8322,
    "▁palp": 8323,
    "▁pops": 8324,
    "▁pupp": 8325,
    "▁rags": 8326,
    "▁rede": 8327,
    "▁reds": 8328,
    "▁rhet": 8329,
    "▁roof": 8330,
    "▁ruin": 8331,
    "▁rupt": 8332,
    "▁rush": 8333,
    "▁sobs": 8334,
    "▁tenn": 8335,
    "▁tiny": 8336,
    "▁unfl": 8337,
    "▁urge": 8338,
    "▁warp": 8339,
    "▁wigg": 8340,
    "Italic": 8341,
    "Really": 8342,
    "andler": 8343,
    "apsing": 8344,
    "arched": 8345,
    "arency": 8346,
    "avings": 8347,
    "bottle": 8348,
    "device": 8349,
    "fallen": 8350,
    "icient": 8351,
    "icksil": 8352,
    "ighbor": 8353,
    "iphery": 8354,
    "itates": 8355,
    "keeper": 8356,
    "lusive": 8357,
    "member": 8358,
    "nament": 8359,
    "ocused": 8360,
    "office": 8361,
    "ources": 8362,
    "pended": 8363,
    "piring": 8364,
    "placed": 8365,
    "priate": 8366,
    "rafted": 8367,
    "rained": 8368,
    "ruised": 8369,
    "script": 8370,
    "source": 8371,
    "tached": 8372,
    "uccess": 8373,
    "udders": 8374,
    "ulfill": 8375,
    "umulus": 8376,
    "vernor": 8377,
    "▁Abdil": 8378,
    "ahl": 8379,
    "oby": 8380,
    "asks": 8381,
    "boat": 8382,
    "fash": 8383,
    "have": 8384,
    "oops": 8385,
    "agina": 8386,
    "anken": 8387,
    "apons": 8388,
    "boats": 8389,
    "ishes": 8390,
    "ouder": 8391,
    "ribly": 8392,
    "terns": 8393,
    "until": 8394,
    "▁Moby": 8395,
    "▁Noir": 8396,
    "▁Sahl": 8397,
    "▁jazz": 8398,
    "▁mono": 8399,
    "▁yank": 8400,
    "Fishes": 8401,
    "eering": 8402,
    "fering": 8403,
    "iarail": 8404,
    "irming": 8405,
    "uckles": 8406,
    "▁Bench": 8407,
    "▁Cargo": 8408,
    "▁Clubs": 8409,
    "▁Elect": 8410,
    "▁Evalu": 8411,
    "▁Feels": 8412,
    "▁Gates": 8413,
    "▁Glass": 8414,
    "▁Going": 8415,
    "▁Greek": 8416,
    "▁Infit": 8417,
    "▁Jinns": 8418,
    "▁Latin": 8419,
    "▁Leave": 8420,
    "▁Media": 8421,
    "▁Movie": 8422,
    "▁Oasis": 8423,
    "▁Paral": 8424,
    "▁Puffy": 8425,
    "▁Signs": 8426,
    "▁Techn": 8427,
    "▁Third": 8428,
    "▁Twink": 8429,
    "▁absol": 8430,
    "▁admon": 8431,
    "▁ambit": 8432,
    "▁argue": 8433,
    "▁arrow": 8434,
    "▁aston": 8435,
    "▁banal": 8436,
    "▁beats": 8437,
    "▁blasp": 8438,
    "▁blows": 8439,
    "▁blues": 8440,
    "▁blurs": 8441,
    "▁boney": 8442,
    "▁boots": 8443,
    "▁broad": 8444,
    "▁brute": 8445,
    "▁bucks": 8446,
    "▁carou": 8447,
    "▁categ": 8448,
    "▁chief": 8449,
    "▁chomp": 8450,
    "▁cragg": 8451,
    "▁crani": 8452,
    "▁cults": 8453,
    "▁cumul": 8454,
    "▁cycle": 8455,
    "▁decim": 8456,
    "▁demon": 8457,
    "▁desec": 8458,
    "▁divid": 8459,
    "▁doctr": 8460,
    "▁droop": 8461,
    "▁drunk": 8462,
    "▁dummy": 8463,
    "▁duper": 8464,
    "▁embal": 8465,
    "▁enthr": 8466,
    "▁epist": 8467,
    "▁fails": 8468,
    "▁fired": 8469,
    "▁fixer": 8470,
    "▁float": 8471,
    "▁flush": 8472,
    "▁fools": 8473,
    "▁frequ": 8474,
    "▁funds": 8475,
    "▁gains": 8476,
    "▁genre": 8477,
    "▁glove": 8478,
    "raz": 8479,
    "egal": 8480,
    "laim": 8481,
    "razy": 8482,
    "text": 8483,
    "then": 8484,
    "unge": 8485,
    "▁Sho": 8486,
    "▁awh": 8487,
    "▁buy": 8488,
    "▁vin": 8489,
    "alism": 8490,
    "antra": 8491,
    "ronom": 8492,
    "sider": 8493,
    "since": 8494,
    "venge": 8495,
    "▁Syst": 8496,
    "▁Talk": 8497,
    "▁Vist": 8498,
    "▁bits": 8499,
    "▁drif": 8500,
    "▁evac": 8501,
    "▁fish": 8502,
    "▁fiss": 8503,
    "▁hyst": 8504,
    "▁succ": 8505,
    "▁tome": 8506,
    "▁unav": 8507,
    "cerity": 8508,
    "create": 8509,
    "fluous": 8510,
    "heless": 8511,
    "iently": 8512,
    "ieties": 8513,
    "issors": 8514,
    "▁Crazy": 8515,
    "▁Organ": 8516,
    "▁Shoot": 8517,
    "▁Twain": 8518,
    "▁Vista": 8519,
    "▁assim": 8520,
    "▁couch": 8521,
    "▁erode": 8522,
    "▁fades": 8523,
    "▁gates": 8524,
    "▁glint": 8525,
    "▁golem": 8526,
    "▁grits": 8527,
    "▁gusto": 8528,
    "▁halts": 8529,
    "▁helps": 8530,
    "▁hurts": 8531,
    "▁immin": 8532,
    "▁incap": 8533,
    "▁incom": 8534,
    "▁ineff": 8535,
    "▁joyed": 8536,
    "▁juicy": 8537,
    "▁label": 8538,
    "▁lamps": 8539,
    "▁laser": 8540,
    "▁locom": 8541,
    "▁loops": 8542,
    "▁lucky": 8543,
    "▁lungs": 8544,
    "▁miles": 8545,
    "▁miner": 8546,
    "▁mixes": 8547,
    "▁month": 8548,
    "▁mules": 8549,
    "▁nonet": 8550,
    "▁nouns": 8551,
    "▁optim": 8552,
    "▁paces": 8553,
    "▁panic": 8554,
    "▁parad": 8555,
    "▁param": 8556,
    "▁patch": 8557,
    "▁piano": 8558,
    "▁piled": 8559,
    "▁piles": 8560,
    "▁pinch": 8561,
    "▁pinks": 8562,
    "▁plugs": 8563,
    "▁pours": 8564,
    "▁prair": 8565,
    "▁puffs": 8566,
    "▁punch": 8567,
    "▁query": 8568,
    "▁rabid": 8569,
    "▁raven": 8570,
    "▁redis": 8571,
    "▁regul": 8572,
    "▁rhyme": 8573,
    "▁rigor": 8574,
    "▁risks": 8575,
    "▁royal": 8576,
    "▁sadly": 8577,
    "▁schna": 8578,
    "fles": 8579,
    "idst": 8580,
    "ircl": 8581,
    "ooth": 8582,
    "ruff": 8583,
    "veys": 8584,
    "▁Try": 8585,
    "▁cic": 8586,
    "▁pee": 8587,
    "▁rob": 8588,
    "▁rod": 8589,
    "ainty": 8590,
    "arden": 8591,
    "ckled": 8592,
    "flesh": 8593,
    "idesp": 8594,
    "igned": 8595,
    "ilder": 8596,
    "odles": 8597,
    "yssey": 8598,
    "▁Blue": 8599,
    "▁Full": 8600,
    "▁Lead": 8601,
    "▁Note": 8602,
    "▁aest": 8603,
    "▁ants": 8604,
    "▁bing": 8605,
    "▁elim": 8606,
    "▁entr": 8607,
    "▁fury": 8608,
    "▁mild": 8609,
    "▁peel": 8610,
    "ansion": 8611,
    "ircled": 8612,
    "ompous": 8613,
    "▁bolts": 8614,
    "▁bulbs": 8615,
    "▁cicad": 8616,
    "▁clink": 8617,
    "▁gibey": 8618,
    "▁handc": 8619,
    "▁intro": 8620,
    "▁leans": 8621,
    "▁oppon": 8622,
    "▁screw": 8623,
    "▁seats": 8624,
    "▁sends": 8625,
    "▁ships": 8626,
    "▁shits": 8627,
    "▁shove": 8628,
    "▁sighs": 8629,
    "▁sinks": 8630,
    "▁skept": 8631,
    "▁slept": 8632,
    "▁smugg": 8633,
    "▁snaps": 8634,
    "▁sofas": 8635,
    "▁softy": 8636,
    "▁solar": 8637,
    "▁solid": 8638,
    "▁spans": 8639,
    "▁spots": 8640,
    "▁squee": 8641,
    "▁stagg": 8642,
    "▁steak": 8643,
    "▁stirs": 8644,
    "▁stock": 8645,
    "▁supre": 8646,
    "▁surge": 8647,
    "▁swarm": 8648,
    "▁swell": 8649,
    "▁tails": 8650,
    "▁taint": 8651,
    "▁talks": 8652,
    "▁twins": 8653,
    "▁unlim": 8654,
    "▁vanqu": 8655,
    "▁vital": 8656,
    "▁wallp": 8657,
    "▁whips": 8658,
    "▁whisp": 8659,
    "▁woken": 8660,
    "Darling": 8661,
    "Goddamn": 8662,
    "anderas": 8663,
    "arrings": 8664,
    "assured": 8665,
    "emorate": 8666,
    "ernails": 8667,
    "estries": 8668,
    "holders": 8669,
    "however": 8670,
    "ilizing": 8671,
    "imposed": 8672,
    "itorial": 8673,
    "itoring": 8674,
    "itously": 8675,
    "iveness": 8676,
    "lighted": 8677,
    "mendous": 8678,
    "FO": 8679,
    "My": 8680,
    "Uh": 8681,
    "mo": 8682,
    "xy": 8683,
    "Sir": 8684,
    "Aren": 8685,
    "Hold": 8686,
    "abus": 8687,
    "etti": 8688,
    "iley": 8689,
    "ival": 8690,
    "onde": 8691,
    "onds": 8692,
    "osis": 8693,
    "sick": 8694,
    "▁Col": 8695,
    "▁UFO": 8696,
    "athom": 8697,
    "chest": 8698,
    "ilman": 8699,
    "ronts": 8700,
    "udget": 8701,
    "▁Aren": 8702,
    "▁Gold": 8703,
    "▁Howl": 8704,
    "▁Shay": 8705,
    "▁Stan": 8706,
    "▁bile": 8707,
    "▁bron": 8708,
    "▁crag": 8709,
    "▁file": 8710,
    "▁slit": 8711,
    "▁slog": 8712,
    "▁subt": 8713,
    "▁taps": 8714,
    "▁vict": 8715,
    "▁weft": 8716,
    "athart": 8717,
    "fronts": 8718,
    "llabus": 8719,
    "▁Bonds": 8720,
    "▁Watch": 8721,
    "▁adore": 8722,
    "▁amber": 8723,
    "▁chick": 8724,
    "▁enorm": 8725,
    "▁lands": 8726,
    "▁lofty": 8727,
    "▁relie": 8728,
    "▁stark": 8729,
    "▁tasks": 8730,
    "▁thick": 8731,
    "▁varic": 8732,
    "arlance": 8733,
    "estival": 8734,
    "ictated": 8735,
    "natural": 8736,
    "ocalypt": 8737,
    "odeling": 8738,
    "omiting": 8739,
    "oubling": 8740,
    "pending": 8741,
    "realism": 8742,
    "reality": 8743,
    "rically": 8744,
    "rollers": 8745,
    "section": 8746,
    "telling": 8747,
    "terrier": 8748,
    "through": 8749,
    "ulatory": 8750,
    "urgling": 8751,
    "vention": 8752,
    "volving": 8753,
    "wearing": 8754,
    "▁Austin": 8755,
    "▁Brains": 8756,
    "▁Christ": 8757,
    "▁Doofus": 8758,
    "▁Dreams": 8759,
    "▁Filing": 8760,
    "▁Flying": 8761,
    "▁Gaelic": 8762,
    "▁Guests": 8763,
    "▁Hmmmmm": 8764,
    "▁Impact": 8765,
    "▁Inside": 8766,
    "▁Kaball": 8767,
    "▁Likely": 8768,
    "▁Market": 8769,
    "▁Paraln": 8770,
    "▁Really": 8771,
    "▁Resear": 8772,
    "▁Scotch": 8773,
    "▁Shayak": 8774,
    "▁Swords": 8775,
    "▁absent": 8776,
    "▁acuity": 8777,
    "▁admire": 8778,
    "De": 8779,
    "To": 8780,
    "ma": 8781,
    "mi": 8782,
    "Dog": 8783,
    "mag": 8784,
    "ogs": 8785,
    "ubh": 8786,
    "?...": 8787,
    "dest": 8788,
    "mbre": 8789,
    "pose": 8790,
    "▁Aud": 8791,
    "▁Lad": 8792,
    "▁Ugh": 8793,
    "▁blu": 8794,
    "▁bun": 8795,
    "▁hub": 8796,
    "▁osc": 8797,
    "▁tun": 8798,
    "heres": 8799,
    "icket": 8800,
    "idens": 8801,
    "oseph": 8802,
    "stack": 8803,
    "▁Down": 8804,
    "▁Stat": 8805,
    "▁caps": 8806,
    "▁clam": 8807,
    "▁fasc": 8808,
    "▁forb": 8809,
    "▁furn": 8810,
    "▁pref": 8811,
    "▁sail": 8812,
    "▁semi": 8813,
    "▁thor": 8814,
    "▁wast": 8815,
    "▁wrap": 8816,
    "health": 8817,
    "iative": 8818,
    "mbrell": 8819,
    "mother": 8820,
    "uddles": 8821,
    "verber": 8822,
    "▁Ahhhh": 8823,
    "▁Knell": 8824,
    "▁dying": 8825,
    "▁flame": 8826,
    "▁flust": 8827,
    "▁gleam": 8828,
    "▁livel": 8829,
    "▁repro": 8830,
    "▁scary": 8831,
    "▁smart": 8832,
    "▁unten": 8833,
    "▁users": 8834,
    "▁vinyl": 8835,
    "achment": 8836,
    "adation": 8837,
    "cessing": 8838,
    "itional": 8839,
    "▁Joseph": 8840,
    "▁Ladies": 8841,
    "▁Mother": 8842,
    "▁Native": 8843,
    "▁agreed": 8844,
    "▁allows": 8845,
    "▁amidst": 8846,
    "▁annual": 8847,
    "▁arrang": 8848,
    "▁ascent": 8849,
    "▁asleep": 8850,
    "▁awhile": 8851,
    "▁beasts": 8852,
    "▁behave": 8853,
    "▁biases": 8854,
    "▁bigger": 8855,
    "▁branch": 8856,
    "▁breaks": 8857,
    "▁breeze": 8858,
    "▁bridge": 8859,
    "▁brilli": 8860,
    "▁builds": 8861,
    "▁bullet": 8862,
    "▁button": 8863,
    "▁cannon": 8864,
    "▁charge": 8865,
    "▁checks": 8866,
    "▁clamor": 8867,
    "▁climbs": 8868,
    "▁clings": 8869,
    "▁coales": 8870,
    "▁cocoon": 8871,
    "▁colder": 8872,
    "▁corpus": 8873,
    "▁cracks": 8874,
    "▁creamy": 8875,
    "▁crowds": 8876,
    "▁demand": 8877,
    "▁deplet": 8878,
    "oop": 8879,
    "oqu": 8880,
    "▁Es": 8881,
    "Just": 8882,
    "akin": 8883,
    "good": 8884,
    "lies": 8885,
    "link": 8886,
    "oday": 8887,
    "olio": 8888,
    "pood": 8889,
    "reak": 8890,
    "▁Inf": 8891,
    "▁Sun": 8892,
    "▁owe": 8893,
    "▁pen": 8894,
    "▁ram": 8895,
    "agine": 8896,
    "folio": 8897,
    "grown": 8898,
    "hound": 8899,
    "inine": 8900,
    "ooden": 8901,
    "osity": 8902,
    "osoph": 8903,
    "otted": 8904,
    "pling": 8905,
    "▁Dick": 8906,
    "▁Dise": 8907,
    "▁Pent": 8908,
    "▁Song": 8909,
    "▁acad": 8910,
    "▁arri": 8911,
    "▁cele": 8912,
    "▁ines": 8913,
    "▁mood": 8914,
    "▁poet": 8915,
    "▁vamp": 8916,
    "Mother": 8917,
    "aching": 8918,
    "atical": 8919,
    "during": 8920,
    "irring": 8921,
    "linked": 8922,
    "poodle": 8923,
    "ulting": 8924,
    "volity": 8925,
    "▁Today": 8926,
    "▁archa": 8927,
    "▁drips": 8928,
    "▁grain": 8929,
    "▁inart": 8930,
    "▁rings": 8931,
    "▁seeps": 8932,
    "▁shore": 8933,
    "▁slice": 8934,
    "▁spare": 8935,
    "aliforn": 8936,
    "charine": 8937,
    "entious": 8938,
    "faction": 8939,
    "ilosoph": 8940,
    "ortions": 8941,
    "▁Castle": 8942,
    "▁Wooden": 8943,
    "▁academ": 8944,
    "▁bathed": 8945,
    "▁celebr": 8946,
    "▁desecr": 8947,
    "▁devast": 8948,
    "▁devoid": 8949,
    "▁dishes": 8950,
    "▁elbows": 8951,
    "▁endeav": 8952,
    "▁ensues": 8953,
    "▁enthus": 8954,
    "▁exclam": 8955,
    "▁excuse": 8956,
    "▁execut": 8957,
    "▁explic": 8958,
    "▁explor": 8959,
    "▁extras": 8960,
    "▁factor": 8961,
    "▁filmed": 8962,
    "▁filter": 8963,
    "▁fixing": 8964,
    "▁floral": 8965,
    "▁flurry": 8966,
    "▁formal": 8967,
    "▁garage": 8968,
    "▁garden": 8969,
    "▁gather": 8970,
    "▁glitch": 8971,
    "▁graven": 8972,
    "▁greens": 8973,
    "▁halted": 8974,
    "▁headac": 8975,
    "▁hearts": 8976,
    "▁heaves": 8977,
    "▁heliot": 8978,
    ")-": 8979,
    "aza": 8980,
    "cul": 8981,
    "die": 8982,
    "iqu": 8983,
    "jac": 8984,
    "▁Ne": 8985,
    "elow": 8986,
    "ixed": 8987,
    "park": 8988,
    "quit": 8989,
    "rish": 8990,
    "▁Yet": 8991,
    "▁awn": 8992,
    "▁cac": 8993,
    "▁lux": 8994,
    "▁wip": 8995,
    "ailed": 8996,
    "alted": 8997,
    "arsed": 8998,
    "assic": 8999,
    "bated": 9000,
    "essir": 9001,
    "isten": 9002,
    "olves": 9003,
    "orbit": 9004,
    "▁Body": 9005,
    "▁Cond": 9006,
    "▁Feel": 9007,
    "▁Land": 9008,
    "▁Park": 9009,
    "▁Take": 9010,
    "▁beds": 9011,
    "▁econ": 9012,
    "▁feed": 9013,
    "▁pace": 9014,
    "▁tits": 9015,
    "Author": 9016,
    "Yessir": 9017,
    "adence": 9018,
    "always": 9019,
    "assion": 9020,
    "ortune": 9021,
    "▁Below": 9022,
    "▁Irish": 9023,
    "▁clots": 9024,
    "▁funer": 9025,
    "▁helix": 9026,
    "▁lifts": 9027,
    "▁oblit": 9028,
    "▁pulse": 9029,
    "▁rumor": 9030,
    "▁solve": 9031,
    "▁uneth": 9032,
    "▁weeds": 9033,
    "▁youth": 9034,
    "ectonic": 9035,
    "erbated": 9036,
    "▁Saving": 9037,
    "▁boards": 9038,
    "▁claims": 9039,
    "▁housed": 9040,
    "▁hurdle": 9041,
    "▁ignite": 9042,
    "▁impact": 9043,
    "▁indeed": 9044,
    "▁infect": 9045,
    "▁insect": 9046,
    "▁island": 9047,
    "▁knives": 9048,
    "▁laptop": 9049,
    "▁learnt": 9050,
    "▁legacy": 9051,
    "▁lesson": 9052,
    "▁longed": 9053,
    "▁loosen": 9054,
    "▁luxury": 9055,
    "▁makeup": 9056,
    "▁mantra": 9057,
    "▁marked": 9058,
    "▁messed": 9059,
    "▁metals": 9060,
    "▁mighty": 9061,
    "▁mounds": 9062,
    "▁multim": 9063,
    "▁mutual": 9064,
    "▁mythic": 9065,
    "▁nights": 9066,
    "▁onward": 9067,
    "▁oscill": 9068,
    "▁outlet": 9069,
    "▁overly": 9070,
    "▁paused": 9071,
    "▁phones": 9072,
    "▁physic": 9073,
    "▁player": 9074,
    "▁plunge": 9075,
    "▁poorly": 9076,
    "▁porcel": 9077,
    "▁potato": 9078,
    "!—": 9079,
    "Ab": 9080,
    "MS": 9081,
    "Abd": 9082,
    "del": 9083,
    "eys": 9084,
    "fig": 9085,
    "ipt": 9086,
    "opt": 9087,
    "▁CP": 9088,
    "▁Cr": 9089,
    "▁Ma": 9090,
    "izer": 9091,
    "much": 9092,
    "▁GMS": 9093,
    "▁Mus": 9094,
    "▁Non": 9095,
    "▁Opp": 9096,
    "▁fri": 9097,
    "▁pil": 9098,
    "▁ups": 9099,
    "After": 9100,
    "arded": 9101,
    "arder": 9102,
    "based": 9103,
    "obser": 9104,
    "unter": 9105,
    "▁Cred": 9106,
    "▁Typh": 9107,
    "▁Vill": 9108,
    "▁ador": 9109,
    "▁clot": 9110,
    "▁dies": 9111,
    "▁impl": 9112,
    "▁nove": 9113,
    "▁poem": 9114,
    "▁ripp": 9115,
    "▁shed": 9116,
    "▁span": 9117,
    "▁synt": 9118,
    "▁unif": 9119,
    "▁vast": 9120,
    "▁vent": 9121,
    "itance": 9122,
    "▁Moses": 9123,
    "▁block": 9124,
    "▁comin": 9125,
    "▁domed": 9126,
    "▁goals": 9127,
    "▁links": 9128,
    "ivities": 9129,
    "▁anarch": 9130,
    "▁mouths": 9131,
    "▁novell": 9132,
    "▁precip": 9133,
    "▁prices": 9134,
    "▁prodig": 9135,
    "▁proved": 9136,
    "▁pruned": 9137,
    "▁pursue": 9138,
    "▁puzzle": 9139,
    "▁raises": 9140,
    "▁rattle": 9141,
    "▁recoll": 9142,
    "▁redisc": 9143,
    "▁refuse": 9144,
    "▁region": 9145,
    "▁relent": 9146,
    "▁reside": 9147,
    "▁respun": 9148,
    "▁rhythm": 9149,
    "▁robust": 9150,
    "▁rugged": 9151,
    "▁ruined": 9152,
    "▁runnin": 9153,
    "▁rusted": 9154,
    "▁scales": 9155,
    "▁schnau": 9156,
    "▁scruff": 9157,
    "▁scurry": 9158,
    "▁sealed": 9159,
    "▁secure": 9160,
    "▁sender": 9161,
    "▁sensed": 9162,
    "▁serves": 9163,
    "▁sevent": 9164,
    "▁sheets": 9165,
    "▁shined": 9166,
    "▁shoves": 9167,
    "▁showed": 9168,
    "▁shreds": 9169,
    "▁sirens": 9170,
    "▁sleeps": 9171,
    "▁slides": 9172,
    "▁slowed": 9173,
    "▁smiled": 9174,
    "▁snakes": 9175,
    "▁soaked": 9176,
    "▁sparks": 9177,
    "▁sprint": 9178,
    "ete": 9179,
    "onf": 9180,
    "Date": 9181,
    "aped": 9182,
    "bous": 9183,
    "ersp": 9184,
    "esty": 9185,
    "eyed": 9186,
    "greg": 9187,
    "only": 9188,
    "rait": 9189,
    "ribe": 9190,
    "▁Hey": 9191,
    "▁arg": 9192,
    "▁cas": 9193,
    "▁dug": 9194,
    "▁hes": 9195,
    "▁lap": 9196,
    "▁sly": 9197,
    "▁sty": 9198,
    "amers": 9199,
    "arant": 9200,
    "arled": 9201,
    "enter": 9202,
    "ersed": 9203,
    "erses": 9204,
    "inely": 9205,
    "oodoo": 9206,
    "rigue": 9207,
    "thood": 9208,
    "▁Past": 9209,
    "▁bury": 9210,
    "▁chim": 9211,
    "▁dail": 9212,
    "▁grad": 9213,
    "▁nort": 9214,
    "▁pity": 9215,
    "▁prol": 9216,
    "enment": 9217,
    "narled": 9218,
    "pelled": 9219,
    "▁Persp": 9220,
    "▁blade": 9221,
    "▁decay": 9222,
    "▁draws": 9223,
    "▁jokes": 9224,
    "▁north": 9225,
    "▁oasis": 9226,
    "▁prone": 9227,
    "▁tract": 9228,
    "▁winds": 9229,
    "▁women": 9230,
    "adopted": 9231,
    "cheting": 9232,
    "ulthood": 9233,
    "uminous": 9234,
    "▁Verses": 9235,
    "▁borrow": 9236,
    "▁facial": 9237,
    "▁flings": 9238,
    "▁gamers": 9239,
    "▁imagin": 9240,
    "▁picked": 9241,
    "▁proven": 9242,
    "▁proves": 9243,
    "▁saving": 9244,
    "▁squint": 9245,
    "▁strain": 9246,
    "▁strewn": 9247,
    "▁synest": 9248,
    "▁techno": 9249,
    "▁tenure": 9250,
    "▁thirst": 9251,
    "▁thread": 9252,
    "▁ticket": 9253,
    "▁topple": 9254,
    "▁towers": 9255,
    "▁trades": 9256,
    "▁transm": 9257,
    "▁truths": 9258,
    "▁tuning": 9259,
    "▁twirls": 9260,
    "▁unders": 9261,
    "▁unfair": 9262,
    "▁unjust": 9263,
    "▁unknow": 9264,
    "▁unleas": 9265,
    "▁unlock": 9266,
    "▁unseen": 9267,
    "▁vagina": 9268,
    "▁valley": 9269,
    "▁valued": 9270,
    "▁victim": 9271,
    "▁waited": 9272,
    "▁wastes": 9273,
    "▁waters": 9274,
    "▁weekly": 9275,
    "▁wholly": 9276,
    "▁widens": 9277,
    "▁widesp": 9278,
    "box": 9279,
    "hin": 9280,
    "urs": 9281,
    "zes": 9282,
    "▁Op": 9283,
    "▁Pl": 9284,
    "Name": 9285,
    "arte": 9286,
    "holy": 9287,
    "ilic": 9288,
    "▁Man": 9289,
    "▁Pan": 9290,
    "▁aid": 9291,
    "▁jer": 9292,
    "acked": 9293,
    "alice": 9294,
    "asies": 9295,
    "imens": 9296,
    "inate": 9297,
    "modal": 9298,
    "venir": 9299,
    "▁Gibs": 9300,
    "▁Give": 9301,
    "▁Hand": 9302,
    "▁cans": 9303,
    "▁enab": 9304,
    "▁hiss": 9305,
    "▁item": 9306,
    "▁outl": 9307,
    "▁rout": 9308,
    "▁sack": 9309,
    "▁shor": 9310,
    "▁sout": 9311,
    "▁tand": 9312,
    "▁tent": 9313,
    "▁worn": 9314,
    "dimens": 9315,
    "entive": 9316,
    "▁barte": 9317,
    "▁chart": 9318,
    "▁resta": 9319,
    "▁roars": 9320,
    "▁shout": 9321,
    "▁sizes": 9322,
    "▁stake": 9323,
    "▁tombs": 9324,
    "▁whome": 9325,
    "alesque": 9326,
    "ndering": 9327,
    "▁Moving": 9328,
    "▁expert": 9329,
    "▁maniac": 9330,
    "▁retain": 9331,
    "▁tandem": 9332,
    "▁unsust": 9333,
    "▁violin": 9334,
    "▁wiping": 9335,
    "▁wishes": 9336,
    "▁wolves": 9337,
    "Bversive": 9338,
    "Gibstory": 9339,
    "Sullivan": 9340,
    "acitated": 9341,
    "actually": 9342,
    "analysts": 9343,
    "ancholic": 9344,
    "astlines": 9345,
    "atisfied": 9346,
    "aucratic": 9347,
    "ceptible": 9348,
    "chievous": 9349,
    "creation": 9350,
    "distance": 9351,
    "ferences": 9352,
    "flooring": 9353,
    "forement": 9354,
    "herently": 9355,
    "igations": 9356,
    "infinite": 9357,
    "isioning": 9358,
    "issistic": 9359,
    "istering": 9360,
    "ittering": 9361,
    "iversity": 9362,
    "ognition": 9363,
    "oleskins": 9364,
    "orbitant": 9365,
    "ordingly": 9366,
    "oriously": 9367,
    "reaction": 9368,
    "redacted": 9369,
    "ropriate": 9370,
    "strosity": 9371,
    "theistic": 9372,
    "utionary": 9373,
    "utomatic": 9374,
    "uttering": 9375,
    "vigilant": 9376,
    "whatever": 9377,
    "ymbolism": 9378,
    "\",": 9379,
    "NT": 9380,
    "cou": 9381,
    "huh": 9382,
    "ilm": 9383,
    "too": 9384,
    "ums": 9385,
    "upe": 9386,
    "▁Sm": 9387,
    "▁VI": 9388,
    "film": 9389,
    "hern": 9390,
    "hero": 9391,
    "ibly": 9392,
    "irps": 9393,
    "rapt": 9394,
    "▁...": 9395,
    "▁Jen": 9396,
    "▁Min": 9397,
    "▁Pre": 9398,
    "▁Sim": 9399,
    "▁TNT": 9400,
    "▁blo": 9401,
    "▁fib": 9402,
    "▁rev": 9403,
    "arian": 9404,
    "asing": 9405,
    "relig": 9406,
    "▁Jenn": 9407,
    "▁Stop": 9408,
    "▁avid": 9409,
    "▁culp": 9410,
    "▁joys": 9411,
    "▁lies": 9412,
    "▁meas": 9413,
    "▁news": 9414,
    "▁pion": 9415,
    "▁sere": 9416,
    "▁shat": 9417,
    "▁toys": 9418,
    "cloned": 9419,
    "formed": 9420,
    "otally": 9421,
    "verted": 9422,
    "▁Beast": 9423,
    "▁Birds": 9424,
    "▁clues": 9425,
    "▁habit": 9426,
    "▁indec": 9427,
    "▁recip": 9428,
    "▁stupe": 9429,
    "▁trace": 9430,
    "itively": 9431,
    "ldritch": 9432,
    "logical": 9433,
    "setting": 9434,
    "▁Jennif": 9435,
    "▁angled": 9436,
    "▁border": 9437,
    "▁chains": 9438,
    "▁chirps": 9439,
    "▁freaky": 9440,
    "▁humble": 9441,
    "▁louder": 9442,
    "▁serend": 9443,
    "▁static": 9444,
    "branding": 9445,
    "▁Alright": 9446,
    "▁Brother": 9447,
    "▁Christm": 9448,
    "▁Clearly": 9449,
    "▁Clothes": 9450,
    "▁Collect": 9451,
    "▁Complex": 9452,
    "▁Content": 9453,
    "▁Credits": 9454,
    "▁Deficit": 9455,
    "▁Diarail": 9456,
    "▁Economy": 9457,
    "▁Fantasy": 9458,
    "▁Forever": 9459,
    "▁Franken": 9460,
    "▁Goddamn": 9461,
    "▁History": 9462,
    "▁Imagine": 9463,
    "▁Introdu": 9464,
    "▁Knowing": 9465,
    "▁Members": 9466,
    "▁Opening": 9467,
    "▁Painted": 9468,
    "▁Pyramid": 9469,
    "▁Respect": 9470,
    "▁Shouldn": 9471,
    "▁Somehow": 9472,
    "▁Someone": 9473,
    "▁Stanley": 9474,
    "▁Stilman": 9475,
    "▁Totally": 9476,
    "▁Twinker": 9477,
    "▁Various": 9478,
    "Now": 9479,
    "aks": 9480,
    "bur": 9481,
    "cha": 9482,
    "lea": 9483,
    "▁SU": 9484,
    "Good": 9485,
    "abot": 9486,
    "adow": 9487,
    "eled": 9488,
    "fess": 9489,
    "otel": 9490,
    "rior": 9491,
    "tage": 9492,
    "ters": 9493,
    "▁Lit": 9494,
    "▁fif": 9495,
    "▁gap": 9496,
    "▁gro": 9497,
    "▁haz": 9498,
    "▁lie": 9499,
    "▁rul": 9500,
    "▁ted": 9501,
    "matic": 9502,
    "maybe": 9503,
    "oster": 9504,
    "plete": 9505,
    "vable": 9506,
    "versa": 9507,
    "▁Ball": 9508,
    "▁Mist": 9509,
    "▁Moon": 9510,
    "▁ache": 9511,
    "▁died": 9512,
    "▁orif": 9513,
    "▁stro": 9514,
    "▁terr": 9515,
    "▁visa": 9516,
    "aneity": 9517,
    "osophy": 9518,
    "▁Grand": 9519,
    "▁Liter": 9520,
    "▁Pange": 9521,
    "▁Trust": 9522,
    "▁amnes": 9523,
    "▁crisp": 9524,
    "▁pools": 9525,
    "▁rooms": 9526,
    "▁trope": 9527,
    "atitude": 9528,
    "reaming": 9529,
    "▁Pangea": 9530,
    "▁dainty": 9531,
    "▁easier": 9532,
    "▁foster": 9533,
    "▁fucked": 9534,
    "▁irises": 9535,
    "▁sliced": 9536,
    "▁thanks": 9537,
    "▁themat": 9538,
    "ceptable": 9539,
    "▁Challen": 9540,
    "▁Venture": 9541,
    "▁abideth": 9542,
    "▁accrued": 9543,
    "▁admired": 9544,
    "▁adorned": 9545,
    "▁aesthet": 9546,
    "▁ambient": 9547,
    "▁annihil": 9548,
    "▁anomaly": 9549,
    "▁anxious": 9550,
    "▁applied": 9551,
    "▁archaic": 9552,
    "▁article": 9553,
    "▁aspects": 9554,
    "▁assimil": 9555,
    "▁assumed": 9556,
    "▁awfully": 9557,
    "▁bedroom": 9558,
    "▁branded": 9559,
    "▁breathe": 9560,
    "▁bubbled": 9561,
    "▁buckles": 9562,
    "▁bulbous": 9563,
    "▁capital": 9564,
    "▁casting": 9565,
    "▁cathart": 9566,
    "▁checked": 9567,
    "▁chicken": 9568,
    "▁choking": 9569,
    "▁cicadas": 9570,
    "▁circled": 9571,
    "▁clogged": 9572,
    "▁closing": 9573,
    "▁compare": 9574,
    "▁conduct": 9575,
    "▁confirm": 9576,
    "▁consequ": 9577,
    "▁cooking": 9578,
    ".-": 9579,
    "la": 9580,
    "awn": 9581,
    "ipe": 9582,
    "nal": 9583,
    "oul": 9584,
    "tap": 9585,
    "Jack": 9586,
    "anim": 9587,
    "laid": 9588,
    "onom": 9589,
    "oven": 9590,
    "▁aim": 9591,
    "▁bay": 9592,
    "▁rif": 9593,
    "▁tem": 9594,
    "essed": 9595,
    "goers": 9596,
    "isely": 9597,
    "▁chur": 9598,
    "▁cush": 9599,
    "▁maze": 9600,
    "▁sham": 9601,
    "arized": 9602,
    "urants": 9603,
    "▁chess": 9604,
    "▁fared": 9605,
    "▁fruit": 9606,
    "▁risky": 9607,
    "▁unpop": 9608,
    "itioned": 9609,
    "usional": 9610,
    "▁Indian": 9611,
    "▁betray": 9612,
    "▁butter": 9613,
    "▁gently": 9614,
    "▁inanim": 9615,
    "▁pounds": 9616,
    "▁retold": 9617,
    "▁solved": 9618,
    "▁stoked": 9619,
    "▁stored": 9620,
    "▁tennis": 9621,
    "▁visual": 9622,
    "itations": 9623,
    "perience": 9624,
    "rational": 9625,
    "▁Typhoid": 9626,
    "▁Wishing": 9627,
    "▁absolut": 9628,
    "▁anyways": 9629,
    "▁corners": 9630,
    "▁cranium": 9631,
    "▁cranked": 9632,
    "▁crowded": 9633,
    "▁crushed": 9634,
    "▁dailies": 9635,
    "▁darkens": 9636,
    "▁deathly": 9637,
    "▁decades": 9638,
    "▁default": 9639,
    "▁denying": 9640,
    "▁depends": 9641,
    "▁derived": 9642,
    "▁destiny": 9643,
    "▁detract": 9644,
    "▁devoted": 9645,
    "▁devotee": 9646,
    "▁directs": 9647,
    "▁distill": 9648,
    "▁diverse": 9649,
    "▁doubled": 9650,
    "▁doubted": 9651,
    "▁dressed": 9652,
    "▁dropped": 9653,
    "▁enchant": 9654,
    "▁endings": 9655,
    "▁engaged": 9656,
    "▁enlight": 9657,
    "▁entropy": 9658,
    "▁envious": 9659,
    "▁epistem": 9660,
    "▁eroding": 9661,
    "▁escapes": 9662,
    "▁exagger": 9663,
    "▁expands": 9664,
    "▁expense": 9665,
    "▁express": 9666,
    "▁eyelids": 9667,
    "▁faction": 9668,
    "▁fearful": 9669,
    "▁fictive": 9670,
    "▁forgets": 9671,
    "▁fulfill": 9672,
    "▁funeral": 9673,
    "▁futures": 9674,
    "▁generic": 9675,
    "▁genetic": 9676,
    "▁gnarled": 9677,
    "▁gripped": 9678,
    "!?": 9679,
    "In": 9680,
    "On": 9681,
    "tr": 9682,
    "ana": 9683,
    "uer": 9684,
    "yed": 9685,
    "Kala": 9686,
    "anse": 9687,
    "ason": 9688,
    "dear": 9689,
    "dent": 9690,
    "iche": 9691,
    "itly": 9692,
    "ping": 9693,
    "▁Bus": 9694,
    "▁bew": 9695,
    "▁fat": 9696,
    "▁fit": 9697,
    "▁mer": 9698,
    "▁obl": 9699,
    "▁sam": 9700,
    "▁vit": 9701,
    "every": 9702,
    "▁Case": 9703,
    "▁bell": 9704,
    "▁deck": 9705,
    "▁exce": 9706,
    "▁leak": 9707,
    "▁seal": 9708,
    "▁tour": 9709,
    "should": 9710,
    "▁Posey": 9711,
    "▁flake": 9712,
    "▁incon": 9713,
    "▁inher": 9714,
    "▁niche": 9715,
    "▁posed": 9716,
    "▁sheet": 9717,
    "▁spear": 9718,
    "▁spell": 9719,
    "▁whale": 9720,
    "layered": 9721,
    "▁Hidden": 9722,
    "▁callig": 9723,
    "▁checke": 9724,
    "▁crunch": 9725,
    "▁filler": 9726,
    "▁hearty": 9727,
    "▁rubies": 9728,
    "▁season": 9729,
    "▁stacks": 9730,
    "▁swells": 9731,
    "▁thwart": 9732,
    "▁uphold": 9733,
    "▁whimsy": 9734,
    "reathing": 9735,
    "▁Western": 9736,
    "▁affairs": 9737,
    "▁asinine": 9738,
    "▁doodles": 9739,
    "▁embrace": 9740,
    "▁failing": 9741,
    "▁fission": 9742,
    "▁grandpa": 9743,
    "▁guarant": 9744,
    "▁guesses": 9745,
    "▁halfway": 9746,
    "▁handler": 9747,
    "▁helping": 9748,
    "▁heroine": 9749,
    "▁hoarded": 9750,
    "▁horrors": 9751,
    "▁hurtles": 9752,
    "▁ignites": 9753,
    "▁ignores": 9754,
    "▁imagery": 9755,
    "▁ironies": 9756,
    "▁killing": 9757,
    "▁lawsuit": 9758,
    "▁leashes": 9759,
    "▁licking": 9760,
    "▁locales": 9761,
    "▁locomot": 9762,
    "▁maidens": 9763,
    "▁marbled": 9764,
    "▁married": 9765,
    "▁matched": 9766,
    "▁messing": 9767,
    "▁methods": 9768,
    "▁million": 9769,
    "▁mixture": 9770,
    "▁neglect": 9771,
    "▁odyssey": 9772,
    "▁officer": 9773,
    "▁ominous": 9774,
    "▁operate": 9775,
    "▁optical": 9776,
    "▁oranges": 9777,
    "▁organal": 9778,
    ")?": 9779,
    "AI": 9780,
    "ii": 9781,
    "rd": 9782,
    "sm": 9783,
    "▁i": 9784,
    "God": 9785,
    "Ind": 9786,
    "dis": 9787,
    "eek": 9788,
    "ien": 9789,
    "kin": 9790,
    "ris": 9791,
    "zer": 9792,
    "▁Wr": 9793,
    "edom": 9794,
    "mind": 9795,
    "pora": 9796,
    "▁Fib": 9797,
    "▁ate": 9798,
    "▁tax": 9799,
    "occur": 9800,
    "▁Circ": 9801,
    "▁bang": 9802,
    "▁dare": 9803,
    "▁neck": 9804,
    "▁rich": 9805,
    "▁trip": 9806,
    "ribing": 9807,
    "▁Creek": 9808,
    "▁Makes": 9809,
    "▁Until": 9810,
    "▁bread": 9811,
    "▁flips": 9812,
    "▁miser": 9813,
    "▁notch": 9814,
    "▁pants": 9815,
    "▁seest": 9816,
    "ttached": 9817,
    "▁Ferris": 9818,
    "▁casket": 9819,
    "▁dangle": 9820,
    "▁denied": 9821,
    "▁finale": 9822,
    "▁liking": 9823,
    "▁pastel": 9824,
    "▁ripped": 9825,
    "▁snatch": 9826,
    "▁sticky": 9827,
    "▁topics": 9828,
    "Attached": 9829,
    "inducing": 9830,
    "▁Firstly": 9831,
    "▁Fortune": 9832,
    "▁carried": 9833,
    "▁complic": 9834,
    "▁courage": 9835,
    "▁credits": 9836,
    "▁dualism": 9837,
    "▁fashion": 9838,
    "▁freedom": 9839,
    "▁frowned": 9840,
    "▁idiotic": 9841,
    "▁painter": 9842,
    "▁palette": 9843,
    "▁panning": 9844,
    "▁partial": 9845,
    "▁parties": 9846,
    "▁passion": 9847,
    "▁peeking": 9848,
    "▁periods": 9849,
    "▁perpend": 9850,
    "▁persist": 9851,
    "▁pertain": 9852,
    "▁phallic": 9853,
    "▁plagues": 9854,
    "▁pompous": 9855,
    "▁popping": 9856,
    "▁portals": 9857,
    "▁portray": 9858,
    "▁preface": 9859,
    "▁primary": 9860,
    "▁prolong": 9861,
    "▁puddles": 9862,
    "▁purples": 9863,
    "▁quoting": 9864,
    "▁ranging": 9865,
    "▁rapidly": 9866,
    "▁readily": 9867,
    "▁reclaim": 9868,
    "▁reconst": 9869,
    "▁reevalu": 9870,
    "▁regener": 9871,
    "▁relates": 9872,
    "▁relaxed": 9873,
    "▁remakes": 9874,
    "▁require": 9875,
    "▁resembl": 9876,
    "▁restful": 9877,
    "▁results": 9878,
    ",,": 9879,
    ",.": 9880,
    "Be": 9881,
    "OK": 9882,
    "cr": 9883,
    "fr": 9884,
    "ja": 9885,
    "ye": 9886,
    "For": 9887,
    "Pss": 9888,
    "cle": 9889,
    "▁IA": 9890,
    "brid": 9891,
    "▁Dut": 9892,
    "▁Ori": 9893,
    "▁Out": 9894,
    "▁bag": 9895,
    "Looks": 9896,
    "alive": 9897,
    "ipper": 9898,
    "osure": 9899,
    "urope": 9900,
    "▁bure": 9901,
    "▁exac": 9902,
    "▁gang": 9903,
    "▁meta": 9904,
    "▁mint": 9905,
    "▁pend": 9906,
    "▁pens": 9907,
    "hemous": 9908,
    "rating": 9909,
    "▁quant": 9910,
    "▁slime": 9911,
    "▁wrist": 9912,
    "balance": 9913,
    "▁Others": 9914,
    "▁acidic": 9915,
    "▁adults": 9916,
    "▁cosmic": 9917,
    "▁drinks": 9918,
    "▁flicks": 9919,
    "▁manage": 9920,
    "▁subtly": 9921,
    "▁twelve": 9922,
    "▁bravery": 9923,
    "▁chalice": 9924,
    "▁nuclear": 9925,
    "▁portion": 9926,
    "▁pyramid": 9927,
    "▁rituals": 9928,
    "▁saddest": 9929,
    "▁scholar": 9930,
    "▁seconds": 9931,
    "▁sending": 9932,
    "▁seventh": 9933,
    "▁severed": 9934,
[...]
